<unk>	0
<s>	0
</s>	0
▁!	-12.0427
▁%	-12.0427
▁'	-12.0427
▁(	-12.0427
▁)	-12.0427
▁,	-12.0427
▁-	-12.0427
▁-atleast	-12.0427
▁-ei1	-12.0427
▁-ei2	-12.0427
▁-feel	-12.0427
▁-wise	-12.0427
▁.	-12.0427
▁...	-12.0427
▁0	-12.0427
▁1	-12.0427
▁121	-12.0427
▁133	-12.0427
▁2	-12.0427
▁21三體綜合症	-12.0427
▁21點	-12.0427
▁26	-12.0427
▁3	-12.0427
▁323	-12.0427
▁3c	-12.0427
▁3p	-12.0427
▁4	-12.0427
▁420	-12.0427
▁426	-12.0427
▁438	-12.0427
▁4424	-12.0427
▁46709394	-12.0427
▁489	-12.0427
▁5	-12.0427
▁55	-12.0427
▁56k	-12.0427
▁5p仔	-12.0427
▁6	-12.0427
▁67	-12.0427
▁689	-12.0427
▁7	-12.0427
▁7-11	-12.0427
▁777	-12.0427
▁8	-12.0427
▁88牌	-12.0427
▁9	-12.0427
▁97	-12.0427
▁9upper	-12.0427
▁:	-12.0427
▁?	-12.0427
▁?幾	-12.0427
▁_	-12.0427
▁a	-12.0427
▁a-level	-12.0427
▁a-math	-12.0427
▁a0	-12.0427
▁a1	-12.0427
▁a4紙	-12.0427
▁aa2	-12.0427
▁aa5	-12.0427
▁aa6sek1si4	-12.0427
▁aa制	-12.0427
▁aa膠	-12.0427
▁abc	-12.0427
▁ab制	-12.0427
▁ab膠	-12.0427
▁ac	-12.0427
▁accidentinvestigation	-12.0427
▁account	-12.0427
▁accounting	-12.0427
▁ace	-12.0427
▁aco	-12.0427
▁acting	-12.0427
▁actingdown	-12.0427
▁actingio	-12.0427
▁actingup	-12.0427
▁ada	-12.0427
▁admin	-12.0427
▁administrativeassistant	-12.0427
▁advertisement	-12.0427
▁afford	-12.0427
▁agent	-12.0427
▁agm	-12.0427
▁agmengineering	-12.0427
▁agmoperation	-12.0427
▁aimat	-12.0427
▁aio	-12.0427
▁air-conditioning	-12.0427
▁ak	-12.0427
▁ak47	-12.0427
▁alicia	-12.0427
▁all-back	-12.0427
▁alo	-12.0427
▁alt	-12.0427
▁am	-12.0427
▁amaths	-12.0427
▁and	-12.0427
▁angus	-12.0427
▁anna	-12.0427
▁anydiscipline	-12.0427
▁anyway	-12.0427
▁an機	-12.0427
▁ao	-12.0427
▁apapertwopaperthree	-12.0427
▁app	-12.0427
▁appendix	-12.0427
▁apply	-12.0427
▁apps	-12.0427
▁aptitudetest	-12.0427
▁arch	-12.0427
▁archi	-12.0427
▁areyousure	-12.0427
▁argue	-12.0427
▁article	-12.0427
▁artist	-12.0427
▁arts	-12.0427
▁assignment	-12.0427
▁assistant	-12.0427
▁assistantmanager	-12.0427
▁atleast	-12.0427
▁atm	-12.0427
▁attendance	-12.0427
▁audi	-12.0427
▁auntie	-12.0427
▁auto	-12.0427
▁av	-12.0427
▁av女優	-12.0427
▁av女郎	-12.0427
▁a仔	-12.0427
▁a咖	-12.0427
▁a圈兒	-12.0427
▁a字膊	-12.0427
▁a準	-12.0427
▁a片	-12.0427
▁a站	-12.0427
▁a貨	-12.0427
▁a鐘	-12.0427
▁b	-12.0427
▁b-u-r-g	-12.0427
▁baby	-12.0427
▁baby-fat	-12.0427
▁babyfat	-12.0427
▁background	-12.0427
▁backup	-12.0427
▁ball	-12.0427
▁ban	-12.0427
▁band	-12.0427
▁bandai	-12.0427
▁banding	-12.0427
▁bandone	-12.0427
▁bandonebandtwo	-12.0427
▁band仔	-12.0427
▁bang一聲	-12.0427
▁banner	-12.0427
▁bar	-12.0427
▁bar-king	-12.0427
▁barcode	-12.0427
▁bargain	-12.0427
▁base	-12.0427
▁basic	-12.0427
▁basicsalary	-12.0427
▁batgirl	-12.0427
▁batman	-12.0427
▁batmanandrobin	-12.0427
▁bb	-12.0427
▁bba	-12.0427
▁bbcc	-12.0427
▁bbq	-12.0427
▁bb仔	-12.0427
▁bb彈	-12.0427
▁bb機	-12.0427
▁bb櫈	-12.0427
▁bb牀	-12.0427
▁bb衫	-12.0427
▁bb話	-12.0427
▁bb車	-12.0427
▁bb骨	-12.0427
▁bean	-12.0427
▁bear	-12.0427
▁beat	-12.0427
▁beegees	-12.0427
▁bell開	-12.0427
▁bel開	-12.0427
▁benz	-12.0427
▁ben士	-12.0427
▁ben屎	-12.0427
▁beprepare	-12.0427
▁bet-bet	-12.0427
▁beyondfans	-12.0427
▁bi	-12.0427
▁bi-bi-ba-ba	-12.0427
▁bi-li-ba-la	-12.0427
▁bi-li-bek-lek	-12.0427
▁bible	-12.0427
▁bibu	-12.0427
▁bibu-bibu	-12.0427
▁bibu車	-12.0427
▁bid	-12.0427
▁big-4	-12.0427
▁bik4lik1baa4laa4	-12.0427
▁bilibili	-12.0427
▁bing-ling-bang-lang	-12.0427
▁bingo	-12.0427
▁bio	-12.0427
▁bit	-12.0427
▁block	-12.0427
▁bluerare	-12.0427
▁board	-12.0427
▁board-game	-12.0427
▁body-check	-12.0427
▁body-massage	-12.0427
▁bodyshop	-12.0427
▁bok6lok1	-12.0427
▁bonnie	-12.0427
▁boo-jark	-12.0427
▁book	-12.0427
▁book位	-12.0427
▁book機票	-12.0427
▁book酒店	-12.0427
▁boot	-12.0427
▁boot機	-12.0427
▁bossini	-12.0427
▁boutique	-12.0427
▁boxing油	-12.0427
▁boy	-12.0427
▁boycott	-12.0427
▁boyscott	-12.0427
▁bra	-12.0427
▁bradpitt	-12.0427
▁branch	-12.0427
▁briefing	-12.0427
▁brotherofchemistry	-12.0427
▁brotheroftranslat	-12.0427
▁bt	-12.0427
▁budget	-12.0427
▁buffet	-12.0427
▁bug	-12.0427
▁bully	-12.0427
▁bung2gwing2	-12.0427
▁bung4	-12.0427
▁bung4bung2	-12.0427
▁business	-12.0427
▁businessandhongkongenvironment	-12.0427
▁but1but1	-12.0427
▁buy	-12.0427
▁bu你阿麼	-12.0427
▁byte	-12.0427
▁b仔	-12.0427
▁b仔水	-12.0427
▁b哩吧啦	-12.0427
▁b型超聲	-12.0427
▁b站	-12.0427
▁b超	-12.0427
▁c	-12.0427
▁c-a-r-r-i-e	-12.0427
▁c-a-r-r-y	-12.0427
▁c-o-m-p-u-t-e-r	-12.0427
▁c.c.	-12.0427
▁c6	-12.0427
▁c9	-12.0427
▁cafe	-12.0427
▁cake	-12.0427
▁call	-12.0427
▁call機	-12.0427
▁call白車	-12.0427
▁call臺	-12.0427
▁call鐘	-12.0427
▁cam	-12.0427
▁camp	-12.0427
▁camp-camp-哋	-12.0427
▁camtrulia	-12.0427
▁cam帶	-12.0427
▁cam鍊	-12.0427
▁cam鏈	-12.0427
▁cancer	-12.0427
▁candy	-12.0427
▁candywong	-12.0427
▁canteen	-12.0427
▁cap	-12.0427
▁cappuccino	-12.0427
▁cap帽	-12.0427
▁cap水	-12.0427
▁card	-12.0427
▁care	-12.0427
▁career-centre	-12.0427
▁careercentre	-12.0427
▁carol	-12.0427
▁carry	-12.0427
▁case	-12.0427
▁casestudy	-12.0427
▁cash	-12.0427
▁casual	-12.0427
▁catalog	-12.0427
▁catalogue	-12.0427
▁cateringtruck	-12.0427
▁cathy	-12.0427
▁cc	-12.0427
▁cctv	-12.0427
▁cd	-12.0427
▁cd-	-12.0427
▁cd-rom	-12.0427
▁centre	-12.0427
▁cert	-12.0427
▁certainofweare	-12.0427
▁certainofwhatwedonotsee	-12.0427
▁certainty	-12.0427
▁cha-cha	-12.0427
▁chalk粉	-12.0427
▁challenge	-12.0427
▁chapter	-12.0427
▁charge	-12.0427
▁chase	-12.0427
▁cheap	-12.0427
▁cheap到痺	-12.0427
▁cheap嘢	-12.0427
▁cheap精	-12.0427
▁check	-12.0427
▁check-	-12.0427
▁check-in	-12.0427
▁check-out	-12.0427
▁check下	-12.0427
▁chem	-12.0427
▁chemical	-12.0427
▁chemistry	-12.0427
▁chihuahua	-12.0427
▁ching	-12.0427
▁choice	-12.0427
▁chok	-12.0427
▁chok-cheat	-12.0427
▁chok樣	-12.0427
▁chop	-12.0427
▁chord	-12.0427
▁chriso	-12.0427
▁christmas	-12.0427
▁christy	-12.0427
▁chup一聲	-12.0427
▁chur	-12.0427
▁cib	-12.0427
▁cid	-12.0427
▁cik-caat	-12.0427
▁citibank	-12.0427
▁civic	-12.0427
▁civil	-12.0427
▁claim	-12.0427
▁claim保險	-12.0427
▁claim稅	-12.0427
▁click	-12.0427
▁click入去	-12.0427
▁close	-12.0427
▁cls	-12.0427
▁club	-12.0427
▁cm	-12.0427
▁cobuild	-12.0427
▁code	-12.0427
▁coins	-12.0427
▁columbia	-12.0427
▁com	-12.0427
▁comeback	-12.0427
▁comesfrom	-12.0427
▁command	-12.0427
▁comment	-12.0427
▁common	-12.0427
▁common-sense	-12.0427
▁compare	-12.0427
▁complain	-12.0427
▁comprehensivegrammar	-12.0427
▁compu	-12.0427
▁compueng	-12.0427
▁computationallinguistics	-12.0427
▁computer	-12.0427
▁computerknowledge	-12.0427
▁con	-12.0427
▁concert	-12.0427
▁condition	-12.0427
▁conflict	-12.0427
▁connie	-12.0427
▁cons	-12.0427
▁contact	-12.0427
▁contactlens	-12.0427
▁controlcentre	-12.0427
▁cool	-12.0427
▁coolie	-12.0427
▁cop	-12.0427
▁copy	-12.0427
▁corolla	-12.0427
▁cosplay	-12.0427
▁council	-12.0427
▁counter	-12.0427
▁countryside	-12.0427
▁coupon	-12.0427
▁course	-12.0427
▁cp	-12.0427
▁cpu	-12.0427
▁cream	-12.0427
▁crew	-12.0427
▁criteria	-12.0427
▁csl	-12.0427
▁cu	-12.0427
▁cue	-12.0427
▁cue卡	-12.0427
▁cue咭	-12.0427
▁cult	-12.0427
▁current	-12.0427
▁cushion	-12.0427
▁customerserviceofficer	-12.0427
▁cut	-12.0427
▁cute	-12.0427
▁cute-cute	-12.0427
▁cutie	-12.0427
▁cutter	-12.0427
▁cut線	-12.0427
▁cv	-12.0427
▁cyber	-12.0427
▁c疊	-12.0427
▁c盤	-12.0427
▁c眼	-12.0427
▁d	-12.0427
▁d-ram	-12.0427
▁dam1	-12.0427
▁dan1dan1dan1dan1	-12.0427
▁dan4dan3dan4dan3	-12.0427
▁daniel	-12.0427
▁darling	-12.0427
▁data	-12.0427
▁day-one	-12.0427
▁dc9	-12.0427
▁dd	-12.0427
▁de	-12.0427
▁deadline	-12.0427
▁dee	-12.0427
▁defer	-12.0427
▁degree	-12.0427
▁degreeholder	-12.0427
▁del	-12.0427
▁dem	-12.0427
▁demo	-12.0427
▁department	-12.0427
▁der	-12.0427
▁develop	-12.0427
▁di-di-de-de	-12.0427
▁ding3	-12.0427
▁diploma	-12.0427
▁dis-	-12.0427
▁discipline	-12.0427
▁disco	-12.0427
▁disk	-12.0427
▁districtofficer	-12.0427
▁division	-12.0427
▁dj	-12.0427
▁dna	-12.0427
▁dna鑒定	-12.0427
▁do	-12.0427
▁document	-12.0427
▁done	-12.0427
▁donell	-12.0427
▁double	-12.0427
▁doubledown	-12.0427
▁doublee	-12.0427
▁doubleetriplee	-12.0427
▁doubling	-12.0427
▁doublingaio	-12.0427
▁doublingdown	-12.0427
▁doublingup	-12.0427
▁down	-12.0427
▁download	-12.0427
▁downloadgraphic	-12.0427
▁down機	-12.0427
▁do嘢	-12.0427
▁dq	-12.0427
▁drop	-12.0427
▁dt	-12.0427
▁du1	-12.0427
▁du1du1	-12.0427
▁du1du1du1du1	-12.0427
▁dub	-12.0427
▁dud	-12.0427
▁due時	-12.0427
▁dum	-12.0427
▁dump	-12.0427
▁dum雞	-12.0427
▁dup	-12.0427
▁dup車	-12.0427
▁dur	-12.0427
▁dur皮	-12.0427
▁dut2	-12.0427
▁dvd	-12.0427
▁d場	-12.0427
▁e	-12.0427
▁e1	-12.0427
▁e2	-12.0427
▁e4	-12.0427
▁e6	-12.0427
▁econ	-12.0427
▁edom	-12.0427
▁education	-12.0427
▁ei1	-12.0427
▁ei2	-12.0427
▁ei3	-12.0427
▁ei6	-12.0427
▁ek1sek4si4	-12.0427
▁eliza	-12.0427
▁elvis	-12.0427
▁em4	-12.0427
▁email	-12.0427
▁emoji	-12.0427
▁ending	-12.0427
▁engin	-12.0427
▁engindepartment	-12.0427
▁engine	-12.0427
▁engineering	-12.0427
▁engineeringdepartment	-12.0427
▁english	-12.0427
▁englishfoundationprogramme	-12.0427
▁englishgrammar	-12.0427
▁englit	-12.0427
▁eo	-12.0427
▁eotwo	-12.0427
▁er	-12.0427
▁esprit	-12.0427
▁et	-12.0427
▁et1et1	-12.0427
▁eu1eu1eu1eu1	-12.0427
▁eva	-12.0427
▁eva膠	-12.0427
▁even	-12.0427
▁ex	-12.0427
▁exactly	-12.0427
▁excel	-12.0427
▁executive	-12.0427
▁exhibition	-12.0427
▁expect	-12.0427
▁experience	-12.0427
▁expire	-12.0427
▁eyeline	-12.0427
▁e仔	-12.0427
▁e沖c	-12.0427
▁f	-12.0427
▁face	-12.0427
▁facial	-12.0427
▁facilities	-12.0427
▁fact-check	-12.0427
▁factoryoutlet	-12.0427
▁fadeout	-12.0427
▁fail	-12.0427
▁fair	-12.0427
▁faith	-12.0427
▁faithisbeingsureofwhatwehopefor	-12.0427
▁fake	-12.0427
▁fang6	-12.0427
▁fans	-12.0427
▁fan屎	-12.0427
▁fast-forward	-12.0427
▁fat	-12.0427
▁fax	-12.0427
▁faxmodem	-12.0427
▁fax機	-12.0427
▁fd	-12.0427
▁fe	-12.0427
▁fea	-12.0427
▁feel	-12.0427
▁fek6	-12.0427
▁fet	-12.0427
▁ff	-12.0427
▁fi-li-fe-le	-12.0427
▁figure	-12.0427
▁fik	-12.0427
▁file	-12.0427
▁fill	-12.0427
▁finalin	-12.0427
▁finalyear	-12.0427
▁finance	-12.0427
▁fing	-12.0427
▁fing霸	-12.0427
▁fing頭丸	-12.0427
▁fing頭場	-12.0427
▁firm	-12.0427
▁first-hon	-12.0427
▁firsthon	-12.0427
▁firstpart	-12.0427
▁firstyear	-12.0427
▁fit	-12.0427
▁fit到漏油	-12.0427
▁flick	-12.0427
▁follow	-12.0427
▁for	-12.0427
▁for-	-12.0427
▁foreman	-12.0427
▁form	-12.0427
▁format	-12.0427
▁formfive	-12.0427
▁formfour	-12.0427
▁formonetwo	-12.0427
▁formseven	-12.0427
▁formsix	-12.0427
▁formthree	-12.0427
▁formtwo	-12.0427
▁formula	-12.0427
▁forpostgrad	-12.0427
▁forsa	-12.0427
▁foul	-12.0427
▁foul出局	-12.0427
▁foundat-	-12.0427
▁foundation	-12.0427
▁francis	-12.0427
▁francoise	-12.0427
▁free	-12.0427
▁free-size	-12.0427
▁freedom	-12.0427
▁free曬士	-12.0427
▁freshgrad	-12.0427
▁friend	-12.0427
▁friendly	-12.0427
▁friend過夾band	-12.0427
▁friend過打band	-12.0427
▁fu	-12.0427
▁full	-12.0427
▁full-time	-12.0427
▁fullversion	-12.0427
▁function	-12.0427
▁fuse	-12.0427
▁g	-12.0427
▁g-string	-12.0427
▁gag	-12.0427
▁game	-12.0427
▁gameshow	-12.0427
▁gap	-12.0427
▁gap-gap聲	-12.0427
▁gap汁	-12.0427
▁garlic	-12.0427
▁gary	-12.0427
▁gas	-12.0427
▁gas爐	-12.0427
▁gather	-12.0427
▁gb	-12.0427
▁ge	-12.0427
▁gel	-12.0427
▁gel頭雀	-12.0427
▁general	-12.0427
▁geog	-12.0427
▁george	-12.0427
▁get	-12.0427
▁get到	-12.0427
▁gg	-12.0427
▁gib	-12.0427
▁gif	-12.0427
▁gik1lik1gu4	-12.0427
▁giordano	-12.0427
▁gip	-12.0427
▁gm	-12.0427
▁go	-12.0427
▁godfather	-12.0427
▁godfatherofchemistry	-12.0427
▁goet-goet聲	-12.0427
▁goldenpower	-12.0427
▁gong1-	-12.0427
▁goodwill	-12.0427
▁google	-12.0427
▁google鼻	-12.0427
▁gordon	-12.0427
▁gps	-12.0427
▁grade	-12.0427
▁graduatemaster	-12.0427
▁graduatetrainee	-12.0427
▁gram	-12.0427
▁grammar	-12.0427
▁grant-loan	-12.0427
▁grantloan	-12.0427
▁gravy	-12.0427
▁group	-12.0427
▁groupsignal	-12.0427
▁groupspec-	-12.0427
▁gsm	-12.0427
▁gt	-12.0427
▁guard臭	-12.0427
▁guide	-12.0427
▁gup	-12.0427
▁gur	-12.0427
▁gurkha	-12.0427
▁gurkha兵	-12.0427
▁gut屎	-12.0427
▁gym房	-12.0427
▁g弦褲	-12.0427
▁g點	-12.0427
▁h	-12.0427
▁haai2	-12.0427
▁hack	-12.0427
▁hacker	-12.0427
▁hae	-12.0427
▁hall	-12.0427
▁ham	-12.0427
▁handle	-12.0427
▁handpiece	-12.0427
▁hang機	-12.0427
▁hap	-12.0427
▁happy	-12.0427
▁harddisk	-12.0427
▁harsh	-12.0427
▁hater	-12.0427
▁he	-12.0427
▁hea	-12.0427
▁hee-hee-hur-hur	-12.0427
▁hehe	-12.0427
▁hello	-12.0427
▁heoi1	-12.0427
▁hero	-12.0427
▁herry	-12.0427
▁hi	-12.0427
▁hi-fi	-12.0427
▁high	-12.0427
▁high-tea	-12.0427
▁high-tech	-12.0427
▁highdip	-12.0427
▁highlight	-12.0427
▁highseason	-12.0427
▁high卡士	-12.0427
▁hihi	-12.0427
▁hints	-12.0427
▁hit	-12.0427
▁holly	-12.0427
▁hon	-12.0427
▁hongkongbank	-12.0427
▁hongkongu	-12.0427
▁hoodie	-12.0427
▁house	-12.0427
▁hum-hum聲	-12.0427
▁humanbio	-12.0427
▁humanresources	-12.0427
▁humanresourcesofficer	-12.0427
▁hur	-12.0427
▁hurt	-12.0427
▁h漫	-12.0427
▁h股	-12.0427
▁ibm	-12.0427
▁ic	-12.0427
▁ichiban	-12.0427
▁icon	-12.0427
▁id	-12.0427
▁idd	-12.0427
▁idea	-12.0427
▁ii	-12.0427
▁ik1	-12.0427
▁image	-12.0427
▁impression	-12.0427
▁ims	-12.0427
▁in	-12.0427
▁in-charge	-12.0427
▁in-interview	-12.0427
▁inc	-12.0427
▁inch	-12.0427
▁index	-12.0427
▁information	-12.0427
▁informationsystem	-12.0427
▁interesting	-12.0427
▁intern	-12.0427
▁internet	-12.0427
▁interview	-12.0427
▁interviewer	-12.0427
▁io	-12.0427
▁ip	-12.0427
▁iq	-12.0427
▁iq題	-12.0427
▁isuzu	-12.0427
▁it	-12.0427
▁it狗	-12.0427
▁ivy	-12.0427
▁i雞寶	-12.0427
▁j	-12.0427
▁jaam5	-12.0427
▁jacket	-12.0427
▁jacky	-12.0427
▁jam	-12.0427
▁jam嘢	-12.0427
▁jane	-12.0427
▁jar	-12.0427
▁jay	-12.0427
▁jeep仔	-12.0427
▁jenny	-12.0427
▁jer	-12.0427
▁jer-jer	-12.0427
▁jer住	-12.0427
▁jessica	-12.0427
▁jetso	-12.0427
▁jip	-12.0427
▁jj	-12.0427
▁job	-12.0427
▁john	-12.0427
▁join	-12.0427
▁joke	-12.0427
▁joker	-12.0427
▁joule	-12.0427
▁jupas	-12.0427
▁j圖	-12.0427
▁k	-12.0427
▁k-car	-12.0427
▁k-e-r-r-y	-12.0427
▁kai	-12.0427
▁kai子	-12.0427
▁kb	-12.0427
▁kbyte	-12.0427
▁ke	-12.0427
▁keep	-12.0427
▁keeper	-12.0427
▁keep住	-12.0427
▁kel-lel	-12.0427
▁kelly	-12.0427
▁kem	-12.0427
▁kem-kem哋	-12.0427
▁kem5	-12.0427
▁keng	-12.0427
▁kerry	-12.0427
▁kg	-12.0427
▁kik1lik1kwaak1laak1	-12.0427
▁killer	-12.0427
▁kilo	-12.0427
▁kind	-12.0427
▁king	-12.0427
▁kiosk	-12.0427
▁kiu3-	-12.0427
▁klak4klak4klak4	-12.0427
▁ko	-12.0427
▁kol	-12.0427
▁kwaai4	-12.0427
▁k仔	-12.0427
▁k他命	-12.0427
▁k場	-12.0427
▁k壓	-12.0427
▁k客	-12.0427
▁k巴	-12.0427
▁k房	-12.0427
▁k書	-12.0427
▁k歌	-12.0427
▁k粉	-12.0427
▁k金	-12.0427
▁l	-12.0427
▁laa2	-12.0427
▁lab	-12.0427
▁label	-12.0427
▁lag機	-12.0427
▁lai-lai閒	-12.0427
▁lancer	-12.0427
▁lan線	-12.0427
▁laser	-12.0427
▁last-day	-12.0427
▁latte	-12.0427
▁layer	-12.0427
▁lcc	-12.0427
▁ld	-12.0427
▁le	-12.0427
▁le-fe	-12.0427
▁le-hea	-12.0427
▁lead	-12.0427
▁leadership	-12.0427
▁lecturer	-12.0427
▁legging	-12.0427
▁lego	-12.0427
▁lem	-12.0427
▁les	-12.0427
▁level	-12.0427
▁library	-12.0427
▁license	-12.0427
▁ligament	-12.0427
▁lik1gu1lik1gu1	-12.0427
▁like	-12.0427
▁likey	-12.0427
▁lily	-12.0427
▁lim	-12.0427
▁limit	-12.0427
▁lin	-12.0427
▁linda	-12.0427
▁linguistic	-12.0427
▁lin的	-12.0427
▁lin頭	-12.0427
▁lin頭硬	-12.0427
▁list	-12.0427
▁listening	-12.0427
▁live	-12.0427
▁lm	-12.0427
▁load	-12.0427
▁lobster	-12.0427
▁localrichman	-12.0427
▁localtour	-12.0427
▁lock	-12.0427
▁locker	-12.0427
▁long-d	-12.0427
▁look	-12.0427
▁louise	-12.0427
▁louvre	-12.0427
▁lu	-12.0427
▁lui低	-12.0427
▁lump-sum	-12.0427
▁lun	-12.0427
▁lunch	-12.0427
▁lur	-12.0427
▁lur口水講過	-12.0427
▁lur飯應	-12.0427
▁lyut6	-12.0427
▁m	-12.0427
▁m-come	-12.0427
▁mac	-12.0427
▁maggie	-12.0427
▁magickingdom	-12.0427
▁mag仔	-12.0427
▁mainpoint	-12.0427
▁makesense	-12.0427
▁man	-12.0427
▁manchester	-12.0427
▁manual	-12.0427
▁marine	-12.0427
▁mario	-12.0427
▁mark	-12.0427
▁marketing	-12.0427
▁marketingand-and	-12.0427
▁marketingassistant	-12.0427
▁mark低	-12.0427
▁mark住	-12.0427
▁mark出街	-12.0427
▁mark哥褸	-12.0427
▁mark實	-12.0427
▁mary	-12.0427
▁master	-12.0427
▁maths	-12.0427
▁matino	-12.0427
▁maybe	-12.0427
▁maywing	-12.0427
▁mb	-12.0427
▁mba	-12.0427
▁mbyte	-12.0427
▁mc	-12.0427
▁mcdonald	-12.0427
▁mcmanaman	-12.0427
▁mechan	-12.0427
▁mechaneng	-12.0427
▁mechanical	-12.0427
▁medic	-12.0427
▁medium	-12.0427
▁mediumrare	-12.0427
▁meet	-12.0427
▁meg	-12.0427
▁memo	-12.0427
▁memory	-12.0427
▁menu	-12.0427
▁message	-12.0427
▁mib	-12.0427
▁michael	-12.0427
▁michaelketon	-12.0427
▁microsoftword	-12.0427
▁mike	-12.0427
▁mind	-12.0427
▁miss	-12.0427
▁misslam	-12.0427
▁missy	-12.0427
▁mix	-12.0427
▁mk	-12.0427
▁mk仔	-12.0427
▁mk名	-12.0427
▁mk妹	-12.0427
▁mk車	-12.0427
▁mk頭	-12.0427
▁ml	-12.0427
▁mmc	-12.0427
▁mocha	-12.0427
▁mock	-12.0427
▁mode	-12.0427
▁model	-12.0427
▁modelanswer	-12.0427
▁modellation	-12.0427
▁modelnumber	-12.0427
▁modem	-12.0427
▁molamola	-12.0427
▁mon	-12.0427
▁mon貼	-12.0427
▁mood	-12.0427
▁mouse	-12.0427
▁mp3	-12.0427
▁mr	-12.0427
▁mrjoseph	-12.0427
▁msc	-12.0427
▁mtl	-12.0427
▁multi-focus	-12.0427
▁multi-tasking	-12.0427
▁mum-mum	-12.0427
▁mushroom	-12.0427
▁mv	-12.0427
▁myfault	-12.0427
▁m到	-12.0427
▁m字額	-12.0427
▁m巾	-12.0427
▁m痛	-12.0427
▁m記	-12.0427
▁n	-12.0427
▁n64	-12.0427
▁nativespeaker	-12.0427
▁nature	-12.0427
▁navy	-12.0427
▁netscape	-12.0427
▁network	-12.0427
▁neway	-12.0427
▁newsletter	-12.0427
▁newsweek	-12.0427
▁ng	-12.0427
▁ngang-ngang聲	-12.0427
▁ngek-ngek	-12.0427
▁ngok-ngok脆	-12.0427
▁nicam	-12.0427
▁nice	-12.0427
▁niu	-12.0427
▁no-1	-12.0427
▁notebook	-12.0427
▁notes	-12.0427
▁now攪	-12.0427
▁ntt	-12.0427
▁n年	-12.0427
▁n線	-12.0427
▁n耐	-12.0427
▁n車	-12.0427
▁o	-12.0427
▁o1	-12.0427
▁o3	-12.0427
▁oasis	-12.0427
▁ocamp	-12.0427
▁oe	-12.0427
▁oem	-12.0427
▁oet4	-12.0427
▁offer	-12.0427
▁offi-official	-12.0427
▁office	-12.0427
▁officehours	-12.0427
▁oh	-12.0427
▁ohayoo	-12.0427
▁ohohohoh	-12.0427
▁ok	-12.0427
▁okay	-12.0427
▁ok繃	-12.0427
▁ok鏡	-12.0427
▁ol	-12.0427
▁on9	-12.0427
▁on99	-12.0427
▁on9仔	-12.0427
▁one2free	-12.0427
▁onlun9	-12.0427
▁op	-12.0427
▁open	-12.0427
▁opensystem	-12.0427
▁oppa	-12.0427
▁oral	-12.0427
▁oraldialogue	-12.0427
▁order	-12.0427
▁organize	-12.0427
▁orlando	-12.0427
▁ot	-12.0427
▁out	-12.0427
▁outdate	-12.0427
▁outday	-12.0427
▁outlet	-12.0427
▁over	-12.0427
▁overall	-12.0427
▁overtime	-12.0427
▁over機	-12.0427
▁oxford	-12.0427
▁oxfordadvancedlearner	-12.0427
▁o仔	-12.0427
▁o咀	-12.0427
▁o嘴	-12.0427
▁o型腿	-12.0427
▁o記	-12.0427
▁p	-12.0427
▁pack	-12.0427
▁package	-12.0427
▁pad	-12.0427
▁pair	-12.0427
▁pale	-12.0427
▁pamphlet	-12.0427
▁pan	-12.0427
▁pancake	-12.0427
▁pantry	-12.0427
▁paper	-12.0427
▁papera	-12.0427
▁parkour	-12.0427
▁part	-12.0427
▁part-time	-12.0427
▁parti	-12.0427
▁partition	-12.0427
▁partner	-12.0427
▁party	-12.0427
▁pass	-12.0427
▁passport	-12.0427
▁passports	-12.0427
▁password	-12.0427
▁pastpaper	-12.0427
▁pat	-12.0427
▁pat-pat	-12.0427
▁patient	-12.0427
▁paul	-12.0427
▁pay	-12.0427
▁pc	-12.0427
▁pcs	-12.0427
▁pe	-12.0427
▁pea	-12.0427
▁pedal	-12.0427
▁pek3pek3pek3	-12.0427
▁percent	-12.0427
▁personal	-12.0427
▁personally	-12.0427
▁personnel	-12.0427
▁perth	-12.0427
▁pet-pet	-12.0427
▁peter	-12.0427
▁petpet	-12.0427
▁pe堂	-12.0427
▁pe衫	-12.0427
▁pe褲	-12.0427
▁pg	-12.0427
▁pharmacy	-12.0427
▁phd	-12.0427
▁phil	-12.0427
▁phrase	-12.0427
▁physics	-12.0427
▁physiotherapy	-12.0427
▁ph值	-12.0427
▁pi	-12.0427
▁pick-up	-12.0427
▁pilgrim	-12.0427
▁pink	-12.0427
▁pit3	-12.0427
▁pizza	-12.0427
▁pizzahut	-12.0427
▁pk	-12.0427
▁plan	-12.0427
▁playstation	-12.0427
▁pm	-12.0427
▁po	-12.0427
▁point	-12.0427
▁poisonivy	-12.0427
▁pok	-12.0427
▁polo	-12.0427
▁poly	-12.0427
▁pop	-12.0427
▁popeye	-12.0427
▁port	-12.0427
▁post	-12.0427
▁poster	-12.0427
▁postgrad	-12.0427
▁power	-12.0427
▁pr	-12.0427
▁practical	-12.0427
▁pre-	-12.0427
▁pre-pre-judge	-12.0427
▁predict	-12.0427
▁prefect	-12.0427
▁prefer	-12.0427
▁prepare	-12.0427
▁present	-12.0427
▁president	-12.0427
▁pressconference	-12.0427
▁pressrelease	-12.0427
▁print	-12.0427
▁printer	-12.0427
▁pro.	-12.0427
▁probation	-12.0427
▁procedure	-12.0427
▁professional	-12.0427
▁professor	-12.0427
▁program	-12.0427
▁programme	-12.0427
▁programming	-12.0427
▁project	-12.0427
▁projector	-12.0427
▁promo	-12.0427
▁promote	-12.0427
▁promotion	-12.0427
▁pronounce	-12.0427
▁proposal	-12.0427
▁provide	-12.0427
▁ps	-12.0427
▁psycheward	-12.0427
▁psycho	-12.0427
▁ptbf	-12.0427
▁ptgf	-12.0427
▁ptu	-12.0427
▁pub	-12.0427
▁publicutility	-12.0427
▁pure	-12.0427
▁purpose	-12.0427
▁push	-12.0427
▁puzzle	-12.0427
▁pu你阿麼	-12.0427
▁p圖	-12.0427
▁p民	-12.0427
▁p牌	-12.0427
▁p相	-12.0427
▁q	-12.0427
▁qc	-12.0427
▁qccheck	-12.0427
▁qq	-12.0427
▁qr-code	-12.0427
▁quali	-12.0427
▁qualification	-12.0427
▁quality	-12.0427
▁question	-12.0427
▁questionmark	-12.0427
▁quit	-12.0427
▁quiz	-12.0427
▁quota	-12.0427
▁q版	-12.0427
▁r	-12.0427
▁ram	-12.0427
▁rampart	-12.0427
▁randomaccessmemory	-12.0427
▁range	-12.0427
▁rare	-12.0427
▁raymond	-12.0427
▁readings	-12.0427
▁reception	-12.0427
▁recruit	-12.0427
▁refer	-12.0427
▁referee	-12.0427
▁referto	-12.0427
▁refresh	-12.0427
▁relax	-12.0427
▁remotecontrol	-12.0427
▁repeat	-12.0427
▁repeatformfive	-12.0427
▁repeatonemoretime	-12.0427
▁report	-12.0427
▁research	-12.0427
▁response	-12.0427
▁richard	-12.0427
▁roaming	-12.0427
▁robin	-12.0427
▁rock	-12.0427
▁roll機	-12.0427
▁room	-12.0427
▁round	-12.0427
▁router	-12.0427
▁rubberkeypad	-12.0427
▁rules	-12.0427
▁r曬頭	-12.0427
▁r講	-12.0427
▁s-	-12.0427
▁s-t-r-a-s-b-e-r-g	-12.0427
▁sa	-12.0427
▁saak	-12.0427
▁safety	-12.0427
▁safetyservicegroup	-12.0427
▁safetyspecialistgroup	-12.0427
▁sailormoon	-12.0427
▁sale	-12.0427
▁sales	-12.0427
▁sample	-12.0427
▁samsung	-12.0427
▁sandy	-12.0427
▁sara	-12.0427
▁saturn	-12.0427
▁sauna	-12.0427
▁save	-12.0427
▁saxophone	-12.0427
▁saxphone	-12.0427
▁sayhello	-12.0427
▁scan	-12.0427
▁scanner	-12.0427
▁scholar	-12.0427
▁scholarship	-12.0427
▁science	-12.0427
▁sd-ram	-12.0427
▁sealand	-12.0427
▁search	-12.0427
▁secondin	-12.0427
▁secondinterview	-12.0427
▁security	-12.0427
▁seed	-12.0427
▁sell	-12.0427
▁sem	-12.0427
▁send	-12.0427
▁sense	-12.0427
▁seokjon	-12.0427
▁seot1	-12.0427
▁ser	-12.0427
▁server	-12.0427
▁service	-12.0427
▁set	-12.0427
▁settledown	-12.0427
▁set頭	-12.0427
▁seven	-12.0427
▁share	-12.0427
▁sharp	-12.0427
▁sharp醒	-12.0427
▁sheffield	-12.0427
▁shift	-12.0427
▁shopping	-12.0427
▁short	-12.0427
▁short-short哋	-12.0427
▁short總掣	-12.0427
▁shot	-12.0427
▁show	-12.0427
▁show-hand	-12.0427
▁show-quali	-12.0427
▁showpassports	-12.0427
▁shutter	-12.0427
▁si-li-sir-lur	-12.0427
▁signal	-12.0427
▁sim-ram	-12.0427
▁similar	-12.0427
▁single	-12.0427
▁sink盤	-12.0427
▁sir	-12.0427
▁sis	-12.0427
▁sit	-12.0427
▁sit-up	-12.0427
▁site	-12.0427
▁size	-12.0427
▁skills	-12.0427
▁small-potato	-12.0427
▁smart	-12.0427
▁smo	-12.0427
▁snooker	-12.0427
▁so	-12.0427
▁so-so	-12.0427
▁soci	-12.0427
▁social	-12.0427
▁society	-12.0427
▁soek4soek2	-12.0427
▁sofar	-12.0427
▁software	-12.0427
▁solo	-12.0427
▁sony	-12.0427
▁sor	-12.0427
▁sorli	-12.0427
▁sorry	-12.0427
▁sorry囉	-12.0427
▁sosad	-12.0427
▁sotunafi	-12.0427
▁source	-12.0427
▁souven	-12.0427
▁spa	-12.0427
▁spare	-12.0427
▁speaker	-12.0427
▁spellingmistakes	-12.0427
▁spend	-12.0427
▁spot	-12.0427
▁sprogress	-12.0427
▁ssg	-12.0427
▁staff	-12.0427
▁standard	-12.0427
▁standbyme	-12.0427
▁stat	-12.0427
▁steakandlobster	-12.0427
▁stone-	-12.0427
▁strong	-12.0427
▁studentship	-12.0427
▁stupid	-12.0427
▁style	-12.0427
▁sub仔	-12.0427
▁suffix	-12.0427
▁suit	-12.0427
▁sup	-12.0427
▁supervisor	-12.0427
▁suppose	-12.0427
▁sure	-12.0427
▁surprise	-12.0427
▁surroundm	-12.0427
▁survey	-12.0427
▁susan	-12.0427
▁sweater	-12.0427
▁sweet	-12.0427
▁swirescholarship	-12.0427
▁syllabus	-12.0427
▁syntax	-12.0427
▁system	-12.0427
▁t	-12.0427
▁t-back	-12.0427
▁ta	-12.0427
▁tab	-12.0427
▁tablet	-12.0427
▁tag	-12.0427
▁take	-12.0427
▁take嘢	-12.0427
▁talk	-12.0427
▁talkative	-12.0427
▁talkingabout	-12.0427
▁target	-12.0427
▁taste	-12.0427
▁tb	-12.0427
▁tea	-12.0427
▁team	-12.0427
▁tearing	-12.0427
▁technical	-12.0427
▁tee	-12.0427
▁teller	-12.0427
▁temp	-12.0427
▁term	-12.0427
▁termbreak	-12.0427
▁terms	-12.0427
▁test	-12.0427
▁textmode	-12.0427
▁thank-you	-12.0427
▁theme	-12.0427
▁theory	-12.0427
▁tiffany	-12.0427
▁tiffanyeva	-12.0427
▁tight	-12.0427
▁time	-12.0427
▁tissue	-12.0427
▁title	-12.0427
▁toacertainextent	-12.0427
▁toffee	-12.0427
▁toffee糖	-12.0427
▁toilet	-12.0427
▁tony	-12.0427
▁top	-12.0427
▁topic	-12.0427
▁total	-12.0427
▁touch-wood	-12.0427
▁tour	-12.0427
▁trade	-12.0427
▁trainee	-12.0427
▁trans	-12.0427
▁translate	-12.0427
▁translation	-12.0427
▁translator	-12.0427
▁trip	-12.0427
▁troll	-12.0427
▁tune	-12.0427
▁tup車	-12.0427
▁turn	-12.0427
▁tutor	-12.0427
▁tuxedo	-12.0427
▁tvb	-12.0427
▁type	-12.0427
▁t字帳	-12.0427
▁t字褲	-12.0427
▁t尺	-12.0427
▁t恤	-12.0427
▁t裇	-12.0427
▁t骨	-12.0427
▁t骨扒	-12.0427
▁t骨牛扒	-12.0427
▁u	-12.0427
▁ucard	-12.0427
▁ucc	-12.0427
▁ue	-12.0427
▁ufo	-12.0427
▁un	-12.0427
▁un-un下	-12.0427
▁un-un嚇	-12.0427
▁un-un腳	-12.0427
▁unacceptable	-12.0427
▁uncl	-12.0427
▁uncle	-12.0427
▁under	-12.0427
▁uno	-12.0427
▁unsuccessful	-12.0427
▁un腳	-12.0427
▁un身un勢	-12.0427
▁up	-12.0427
▁up-doubling	-12.0427
▁update	-12.0427
▁upgrade	-12.0427
▁upload	-12.0427
▁upmanship	-12.0427
▁usb	-12.0427
▁usb手指	-12.0427
▁usb記憶棒	-12.0427
▁u凸內褲	-12.0427
▁u型枕	-12.0427
▁u形轉彎	-12.0427
▁u盤	-12.0427
▁van	-12.0427
▁van仔	-12.0427
▁vaseline	-12.0427
▁vcd	-12.0427
▁veronica	-12.0427
▁video	-12.0427
▁vincent	-12.0427
▁virtual	-12.0427
▁vocab	-12.0427
▁vodka	-12.0427
▁volt	-12.0427
▁vr	-12.0427
▁v溝	-12.0427
▁v領	-12.0427
▁w	-12.0427
▁waiting	-12.0427
▁wang	-12.0427
▁ward	-12.0427
▁wasabi	-12.0427
▁watt	-12.0427
▁we-we-wet-wet	-12.0427
▁wei1	-12.0427
▁weng	-12.0427
▁wet	-12.0427
▁wet場	-12.0427
▁wet妹	-12.0427
▁wewewetwet	-12.0427
▁we哇鬼叫	-12.0427
▁whatsoever	-12.0427
▁wifi	-12.0427
▁william	-12.0427
▁wilson	-12.0427
▁win	-12.0427
▁win-place	-12.0427
▁window	-12.0427
▁wing	-12.0427
▁with	-12.0427
▁work	-12.0427
▁worksheet	-12.0427
▁workshop	-12.0427
▁wou	-12.0427
▁wouwou	-12.0427
▁wowo	-12.0427
▁wp	-12.0427
▁writtentest	-12.0427
▁wu6	-12.0427
▁x	-12.0427
▁x-file	-12.0427
▁xo	-12.0427
▁xo醬	-12.0427
▁x光	-12.0427
▁y	-12.0427
▁yamaha	-12.0427
▁yap	-12.0427
▁yeah	-12.0427
▁yearone	-12.0427
▁yearthree	-12.0427
▁yeartwo	-12.0427
▁yeast	-12.0427
▁yen	-12.0427
▁yes	-12.0427
▁yessir	-12.0427
▁yo	-12.0427
▁youcansayanythingyoulike	-12.0427
▁young	-12.0427
▁youtube	-12.0427
▁youtuber	-12.0427
▁yp仔	-12.0427
▁z	-12.0427
▁zhurongji	-12.0427
▁zip	-12.0427
▁zip1	-12.0427
▁zip1zip1	-12.0427
▁zoom	-12.0427
▁’	-12.0427
▁○	-12.0427
▁○頭	-12.0427
▁、	-12.0427
▁。	-12.0427
▁〇	-12.0427
▁《	-12.0427
▁》	-12.0427
▁「	-12.0427
▁」	-12.0427
▁『	-12.0427
▁』	-12.0427
▁㐀	-12.0427
▁㐁	-12.0427
▁㐂	-12.0427
▁㐃	-12.0427
▁㐄	-12.0427
▁㐅	-12.0427
▁㐆	-12.0427
▁㐇	-12.0427
▁㐈	-12.0427
▁㐉	-12.0427
▁㐊	-12.0427
▁㐋	-12.0427
▁㐌	-12.0427
▁㐍	-12.0427
▁㐎	-12.0427
▁㐏	-12.0427
▁㐐	-12.0427
▁㐑	-12.0427
▁㐒	-12.0427
▁㐓	-12.0427
▁㐔	-12.0427
▁㐕	-12.0427
▁㐖	-12.0427
▁㐗	-12.0427
▁㐘	-12.0427
▁㐙	-12.0427
▁㐚	-12.0427
▁㐛	-12.0427
▁㐜	-12.0427
▁㐝	-12.0427
▁㐞	-12.0427
▁㐟	-12.0427
▁㐠	-12.0427
▁㐡	-12.0427
▁㐢	-12.0427
▁㐣	-12.0427
▁㐤	-12.0427
▁㐥	-12.0427
▁㐦	-12.0427
▁㐧	-12.0427
▁㐨	-12.0427
▁㐩	-12.0427
▁㐪	-12.0427
▁㐫	-12.0427
▁㐬	-12.0427
▁㐭	-12.0427
▁㐮	-12.0427
▁㐯	-12.0427
▁㐰	-12.0427
▁㐱	-12.0427
▁㐲	-12.0427
▁㐳	-12.0427
▁㐴	-12.0427
▁㐵	-12.0427
▁㐶	-12.0427
▁㐸	-12.0427
▁㐺	-12.0427
▁㐻	-12.0427
▁㐼	-12.0427
▁㐾	-12.0427
▁㐿	-12.0427
▁㑀	-12.0427
▁㑁	-12.0427
▁㑂	-12.0427
▁㑃	-12.0427
▁㑄	-12.0427
▁㑅	-12.0427
▁㑆	-12.0427
▁㑉	-12.0427
▁㑊	-12.0427
▁㑋	-12.0427
▁㑌	-12.0427
▁㑍	-12.0427
▁㑎	-12.0427
▁㑏	-12.0427
▁㑐	-12.0427
▁㑑	-12.0427
▁㑒	-12.0427
▁㑓	-12.0427
▁㑕	-12.0427
▁㑖	-12.0427
▁㑗	-12.0427
▁㑘	-12.0427
▁㑙	-12.0427
▁㑚	-12.0427
▁㑛	-12.0427
▁㑜	-12.0427
▁㑝	-12.0427
▁㑞	-12.0427
▁㑟	-12.0427
▁㑠	-12.0427
▁㑡	-12.0427
▁㑢	-12.0427
▁㑣	-12.0427
▁㑤	-12.0427
▁㑥	-12.0427
▁㑦	-12.0427
▁㑧	-12.0427
▁㑨	-12.0427
▁㑪	-12.0427
▁㑫	-12.0427
▁㑬	-12.0427
▁㑭	-12.0427
▁㑮	-12.0427
▁㑯	-12.0427
▁㑰	-12.0427
▁㑱	-12.0427
▁㑲	-12.0427
▁㑳	-12.0427
▁㑴	-12.0427
▁㑵	-12.0427
▁㑶	-12.0427
▁㑷	-12.0427
▁㑸	-12.0427
▁㑹	-12.0427
▁㑺	-12.0427
▁㑻	-12.0427
▁㑼	-12.0427
▁㑽	-12.0427
▁㑾	-12.0427
▁㑿	-12.0427
▁㒀	-12.0427
▁㒁	-12.0427
▁㒂	-12.0427
▁㒃	-12.0427
▁㒄	-12.0427
▁㒅	-12.0427
▁㒆	-12.0427
▁㒇	-12.0427
▁㒈	-12.0427
▁㒉	-12.0427
▁㒊	-12.0427
▁㒋	-12.0427
▁㒌	-12.0427
▁㒍	-12.0427
▁㒎	-12.0427
▁㒏	-12.0427
▁㒐	-12.0427
▁㒑	-12.0427
▁㒒	-12.0427
▁㒓	-12.0427
▁㒓數	-12.0427
▁㒔	-12.0427
▁㒕	-12.0427
▁㒖	-12.0427
▁㒗	-12.0427
▁㒘	-12.0427
▁㒙	-12.0427
▁㒚	-12.0427
▁㒛	-12.0427
▁㒜	-12.0427
▁㒝	-12.0427
▁㒞	-12.0427
▁㒟	-12.0427
▁㒠	-12.0427
▁㒡	-12.0427
▁㒢	-12.0427
▁㒣	-12.0427
▁㒤	-12.0427
▁㒥	-12.0427
▁㒦	-12.0427
▁㒧	-12.0427
▁㒨	-12.0427
▁㒩	-12.0427
▁㒪	-12.0427
▁㒫	-12.0427
▁㒬	-12.0427
▁㒭	-12.0427
▁㒮	-12.0427
▁㒯	-12.0427
▁㒰	-12.0427
▁㒱	-12.0427
▁㒲	-12.0427
▁㒳	-12.0427
▁㒴	-12.0427
▁㒵	-12.0427
▁㒶	-12.0427
▁㒷	-12.0427
▁㒸	-12.0427
▁㒹	-12.0427
▁㒺	-12.0427
▁㒻	-12.0427
▁㒼	-12.0427
▁㒽	-12.0427
▁㒾	-12.0427
▁㒿	-12.0427
▁㓀	-12.0427
▁㓁	-12.0427
▁㓂	-12.0427
▁㓃	-12.0427
▁㓄	-12.0427
▁㓅	-12.0427
▁㓇	-12.0427
▁㓈	-12.0427
▁㓉	-12.0427
▁㓊	-12.0427
▁㓋	-12.0427
▁㓌	-12.0427
▁㓍	-12.0427
▁㓎	-12.0427
▁㓏	-12.0427
▁㓐	-12.0427
▁㓑	-12.0427
▁㓒	-12.0427
▁㓓	-12.0427
▁㓔	-12.0427
▁㓕	-12.0427
▁㓖	-12.0427
▁㓗	-12.0427
▁㓘	-12.0427
▁㓙	-12.0427
▁㓚	-12.0427
▁㓛	-12.0427
▁㓜	-12.0427
▁㓝	-12.0427
▁㓞	-12.0427
▁㓟	-12.0427
▁㓟皮	-12.0427
▁㓟菠蘿皮	-12.0427
▁㓟蘋果	-12.0427
▁㓟鉛筆	-12.0427
▁㓠	-12.0427
▁㓡	-12.0427
▁㓢	-12.0427
▁㓣	-12.0427
▁㓤	-12.0427
▁㓤㓤friend	-12.0427
▁㓤傷	-12.0427
▁㓤出血	-12.0427
▁㓤喉	-12.0427
▁㓤埋	-12.0427
▁㓤肉	-12.0427
▁㓤親	-12.0427
▁㓤親手	-12.0427
▁㓦	-12.0427
▁㓧	-12.0427
▁㓨	-12.0427
▁㓩	-12.0427
▁㓪	-12.0427
▁㓫	-12.0427
▁㓬	-12.0427
▁㓭	-12.0427
▁㓮	-12.0427
▁㓯	-12.0427
▁㓱	-12.0427
▁㓲	-12.0427
▁㓳	-12.0427
▁㓴	-12.0427
▁㓵	-12.0427
▁㓶	-12.0427
▁㓷	-12.0427
▁㓸	-12.0427
▁㓹	-12.0427
▁㓺	-12.0427
▁㓻	-12.0427
▁㓼	-12.0427
▁㓽	-12.0427
▁㓾	-12.0427
▁㓿	-12.0427
▁㔀	-12.0427
▁㔁	-12.0427
▁㔂	-12.0427
▁㔃	-12.0427
▁㔄	-12.0427
▁㔅	-12.0427
▁㔆	-12.0427
▁㔇	-12.0427
▁㔈	-12.0427
▁㔊	-12.0427
▁㔋	-12.0427
▁㔌	-12.0427
▁㔍	-12.0427
▁㔎	-12.0427
▁㔏	-12.0427
▁㔐	-12.0427
▁㔑	-12.0427
▁㔒	-12.0427
▁㔓	-12.0427
▁㔔	-12.0427
▁㔕	-12.0427
▁㔖	-12.0427
▁㔗	-12.0427
▁㔘	-12.0427
▁㔙	-12.0427
▁㔚	-12.0427
▁㔛	-12.0427
▁㔜	-12.0427
▁㔝	-12.0427
▁㔞	-12.0427
▁㔟	-12.0427
▁㔠	-12.0427
▁㔡	-12.0427
▁㔢	-12.0427
▁㔣	-12.0427
▁㔤	-12.0427
▁㔥	-12.0427
▁㔦	-12.0427
▁㔧	-12.0427
▁㔨	-12.0427
▁㔩	-12.0427
▁㔪	-12.0427
▁㔫	-12.0427
▁㔬	-12.0427
▁㔭	-12.0427
▁㔮	-12.0427
▁㔯	-12.0427
▁㔰	-12.0427
▁㔱	-12.0427
▁㔲	-12.0427
▁㔳	-12.0427
▁㔴	-12.0427
▁㔵	-12.0427
▁㔶	-12.0427
▁㔷	-12.0427
▁㔸	-12.0427
▁㔹	-12.0427
▁㔺	-12.0427
▁㔻	-12.0427
▁㔼	-12.0427
▁㔽	-12.0427
▁㔾	-12.0427
▁㔿	-12.0427
▁㕀	-12.0427
▁㕁	-12.0427
▁㕂	-12.0427
▁㕃	-12.0427
▁㕄	-12.0427
▁㕅	-12.0427
▁㕆	-12.0427
▁㕇	-12.0427
▁㕈	-12.0427
▁㕉	-12.0427
▁㕊	-12.0427
▁㕋	-12.0427
▁㕌	-12.0427
▁㕍	-12.0427
▁㕎	-12.0427
▁㕏	-12.0427
▁㕐	-12.0427
▁㕑	-12.0427
▁㕒	-12.0427
▁㕓	-12.0427
▁㕔	-12.0427
▁㕕	-12.0427
▁㕖	-12.0427
▁㕗	-12.0427
▁㕘	-12.0427
▁㕙	-12.0427
▁㕚	-12.0427
▁㕛	-12.0427
▁㕜	-12.0427
▁㕝	-12.0427
▁㕞	-12.0427
▁㕟	-12.0427
▁㕠	-12.0427
▁㕡	-12.0427
▁㕢	-12.0427
▁㕣	-12.0427
▁㕤	-12.0427
▁㕥	-12.0427
▁㕦	-12.0427
▁㕧	-12.0427
▁㕨	-12.0427
▁㕩	-12.0427
▁㕪	-12.0427
▁㕫	-12.0427
▁㕬	-12.0427
▁㕭	-12.0427
▁㕮	-12.0427
▁㕯	-12.0427
▁㕰	-12.0427
▁㕱	-12.0427
▁㕲	-12.0427
▁㕳	-12.0427
▁㕴	-12.0427
▁㕵	-12.0427
▁㕵㕵狗	-12.0427
▁㕶	-12.0427
▁㕷	-12.0427
▁㕸	-12.0427
▁㕹	-12.0427
▁㕺	-12.0427
▁㕻	-12.0427
▁㕼	-12.0427
▁㕽	-12.0427
▁㕾	-12.0427
▁㕿	-12.0427
▁㖀	-12.0427
▁㖁	-12.0427
▁㖂	-12.0427
▁㖃	-12.0427
▁㖄	-12.0427
▁㖅	-12.0427
▁㖆	-12.0427
▁㖇	-12.0427
▁㖈	-12.0427
▁㖉	-12.0427
▁㖋	-12.0427
▁㖌	-12.0427
▁㖍	-12.0427
▁㖎	-12.0427
▁㖏	-12.0427
▁㖐	-12.0427
▁㖑	-12.0427
▁㖒	-12.0427
▁㖓	-12.0427
▁㖔	-12.0427
▁㖕	-12.0427
▁㖖	-12.0427
▁㖗	-12.0427
▁㖘	-12.0427
▁㖙	-12.0427
▁㖚	-12.0427
▁㖛	-12.0427
▁㖜	-12.0427
▁㖝	-12.0427
▁㖟	-12.0427
▁㖠	-12.0427
▁㖡	-12.0427
▁㖢	-12.0427
▁㖣	-12.0427
▁㖤	-12.0427
▁㖥	-12.0427
▁㖦	-12.0427
▁㖧	-12.0427
▁㖨	-12.0427
▁㖩	-12.0427
▁㖪	-12.0427
▁㖫	-12.0427
▁㖬	-12.0427
▁㖭	-12.0427
▁㖮	-12.0427
▁㖯	-12.0427
▁㖰	-12.0427
▁㖱	-12.0427
▁㖲	-12.0427
▁㖳	-12.0427
▁㖴	-12.0427
▁㖵	-12.0427
▁㖶	-12.0427
▁㖷	-12.0427
▁㖸	-12.0427
▁㖹	-12.0427
▁㖺	-12.0427
▁㖻	-12.0427
▁㖼	-12.0427
▁㖽	-12.0427
▁㖾	-12.0427
▁㖿	-12.0427
▁㗀	-12.0427
▁㗁	-12.0427
▁㗂	-12.0427
▁㗃	-12.0427
▁㗄	-12.0427
▁㗅	-12.0427
▁㗆	-12.0427
▁㗇	-12.0427
▁㗇㗇霸霸	-12.0427
▁㗇人	-12.0427
▁㗇人㗇物	-12.0427
▁㗈	-12.0427
▁㗉	-12.0427
▁㗊	-12.0427
▁㗋	-12.0427
▁㗌	-12.0427
▁㗍	-12.0427
▁㗎	-12.0427
▁㗎仔	-12.0427
▁㗎佬	-12.0427
▁㗎妹	-12.0427
▁㗎文	-12.0427
▁㗎話	-12.0427
▁㗎頭	-12.0427
▁㗏	-12.0427
▁㗐	-12.0427
▁㗑	-12.0427
▁㗒	-12.0427
▁㗓	-12.0427
▁㗔	-12.0427
▁㗕	-12.0427
▁㗖	-12.0427
▁㗗	-12.0427
▁㗘	-12.0427
▁㗙	-12.0427
▁㗚	-12.0427
▁㗛	-12.0427
▁㗜	-12.0427
▁㗝	-12.0427
▁㗞	-12.0427
▁㗟	-12.0427
▁㗠	-12.0427
▁㗡	-12.0427
▁㗢	-12.0427
▁㗣	-12.0427
▁㗤	-12.0427
▁㗥	-12.0427
▁㗦	-12.0427
▁㗧	-12.0427
▁㗨	-12.0427
▁㗩	-12.0427
▁㗪	-12.0427
▁㗫	-12.0427
▁㗬	-12.0427
▁㗭	-12.0427
▁㗮	-12.0427
▁㗯	-12.0427
▁㗰	-12.0427
▁㗱	-12.0427
▁㗲	-12.0427
▁㗲㗲	-12.0427
▁㗳	-12.0427
▁㗴	-12.0427
▁㗵	-12.0427
▁㗶	-12.0427
▁㗷	-12.0427
▁㗸	-12.0427
▁㗹	-12.0427
▁㗺	-12.0427
▁㗻	-12.0427
▁㗼	-12.0427
▁㗽	-12.0427
▁㗾	-12.0427
▁㗾㗾聲	-12.0427
▁㗾哆	-12.0427
▁㗿	-12.0427
▁㘀	-12.0427
▁㘁	-12.0427
▁㘂	-12.0427
▁㘃	-12.0427
▁㘄	-12.0427
▁㘅	-12.0427
▁㘆	-12.0427
▁㘇	-12.0427
▁㘈	-12.0427
▁㘉	-12.0427
▁㘊	-12.0427
▁㘋	-12.0427
▁㘌	-12.0427
▁㘍	-12.0427
▁㘏	-12.0427
▁㘐	-12.0427
▁㘑	-12.0427
▁㘒	-12.0427
▁㘓	-12.0427
▁㘔	-12.0427
▁㘕	-12.0427
▁㘖	-12.0427
▁㘗	-12.0427
▁㘘	-12.0427
▁㘙	-12.0427
▁㘚	-12.0427
▁㘛	-12.0427
▁㘜	-12.0427
▁㘝	-12.0427
▁㘞	-12.0427
▁㘟	-12.0427
▁㘠	-12.0427
▁㘡	-12.0427
▁㘢	-12.0427
▁㘣	-12.0427
▁㘤	-12.0427
▁㘥	-12.0427
▁㘦	-12.0427
▁㘧	-12.0427
▁㘨	-12.0427
▁㘩	-12.0427
▁㘪	-12.0427
▁㘫	-12.0427
▁㘬	-12.0427
▁㘭	-12.0427
▁㘮	-12.0427
▁㘯	-12.0427
▁㘰	-12.0427
▁㘱	-12.0427
▁㘲	-12.0427
▁㘳	-12.0427
▁㘴	-12.0427
▁㘵	-12.0427
▁㘶	-12.0427
▁㘷	-12.0427
▁㘸	-12.0427
▁㘹	-12.0427
▁㘺	-12.0427
▁㘻	-12.0427
▁㘼	-12.0427
▁㘽	-12.0427
▁㘾	-12.0427
▁㘿	-12.0427
▁㙀	-12.0427
▁㙁	-12.0427
▁㙂	-12.0427
▁㙃	-12.0427
▁㙄	-12.0427
▁㙅	-12.0427
▁㙆	-12.0427
▁㙇	-12.0427
▁㙈	-12.0427
▁㙉	-12.0427
▁㙊	-12.0427
▁㙋	-12.0427
▁㙌	-12.0427
▁㙍	-12.0427
▁㙎	-12.0427
▁㙏	-12.0427
▁㙐	-12.0427
▁㙑	-12.0427
▁㙒	-12.0427
▁㙓	-12.0427
▁㙔	-12.0427
▁㙕	-12.0427
▁㙖	-12.0427
▁㙗	-12.0427
▁㙘	-12.0427
▁㙙	-12.0427
▁㙚	-12.0427
▁㙛	-12.0427
▁㙜	-12.0427
▁㙝	-12.0427
▁㙞	-12.0427
▁㙟	-12.0427
▁㙟東	-12.0427
▁㙟西	-12.0427
▁㙠	-12.0427
▁㙡	-12.0427
▁㙢	-12.0427
▁㙣	-12.0427
▁㙤	-12.0427
▁㙥	-12.0427
▁㙦	-12.0427
▁㙧	-12.0427
▁㙨	-12.0427
▁㙩	-12.0427
▁㙪	-12.0427
▁㙫	-12.0427
▁㙬	-12.0427
▁㙭	-12.0427
▁㙮	-12.0427
▁㙯	-12.0427
▁㙰	-12.0427
▁㙱	-12.0427
▁㙲	-12.0427
▁㙳	-12.0427
▁㙴	-12.0427
▁㙵	-12.0427
▁㙶	-12.0427
▁㙷	-12.0427
▁㙸	-12.0427
▁㙹	-12.0427
▁㙺	-12.0427
▁㙻	-12.0427
▁㙼	-12.0427
▁㙽	-12.0427
▁㙾	-12.0427
▁㙿	-12.0427
▁㚀	-12.0427
▁㚁	-12.0427
▁㚂	-12.0427
▁㚃	-12.0427
▁㚄	-12.0427
▁㚅	-12.0427
▁㚆	-12.0427
▁㚇	-12.0427
▁㚈	-12.0427
▁㚉	-12.0427
▁㚊	-12.0427
▁㚋	-12.0427
▁㚌	-12.0427
▁㚍	-12.0427
▁㚎	-12.0427
▁㚏	-12.0427
▁㚐	-12.0427
▁㚑	-12.0427
▁㚒	-12.0427
▁㚓	-12.0427
▁㚔	-12.0427
▁㚕	-12.0427
▁㚖	-12.0427
▁㚗	-12.0427
▁㚘	-12.0427
▁㚙	-12.0427
▁㚚	-12.0427
▁㚛	-12.0427
▁㚜	-12.0427
▁㚝	-12.0427
▁㚞	-12.0427
▁㚟	-12.0427
▁㚠	-12.0427
▁㚡	-12.0427
▁㚢	-12.0427
▁㚣	-12.0427
▁㚤	-12.0427
▁㚥	-12.0427
▁㚦	-12.0427
▁㚧	-12.0427
▁㚨	-12.0427
▁㚩	-12.0427
▁㚪	-12.0427
▁㚫	-12.0427
▁㚬	-12.0427
▁㚭	-12.0427
▁㚮	-12.0427
▁㚰	-12.0427
▁㚱	-12.0427
▁㚲	-12.0427
▁㚳	-12.0427
▁㚴	-12.0427
▁㚵	-12.0427
▁㚶	-12.0427
▁㚷	-12.0427
▁㚸	-12.0427
▁㚹	-12.0427
▁㚺	-12.0427
▁㚻	-12.0427
▁㚻奸	-12.0427
▁㚻姦	-12.0427
▁㚼	-12.0427
▁㚽	-12.0427
▁㚾	-12.0427
▁㚿	-12.0427
▁㛁	-12.0427
▁㛂	-12.0427
▁㛃	-12.0427
▁㛄	-12.0427
▁㛅	-12.0427
▁㛆	-12.0427
▁㛇	-12.0427
▁㛈	-12.0427
▁㛉	-12.0427
▁㛊	-12.0427
▁㛋	-12.0427
▁㛌	-12.0427
▁㛍	-12.0427
▁㛎	-12.0427
▁㛏	-12.0427
▁㛐	-12.0427
▁㛑	-12.0427
▁㛒	-12.0427
▁㛓	-12.0427
▁㛔	-12.0427
▁㛕	-12.0427
▁㛖	-12.0427
▁㛗	-12.0427
▁㛘	-12.0427
▁㛙	-12.0427
▁㛚	-12.0427
▁㛛	-12.0427
▁㛜	-12.0427
▁㛝	-12.0427
▁㛞	-12.0427
▁㛡	-12.0427
▁㛢	-12.0427
▁㛥	-12.0427
▁㛦	-12.0427
▁㛧	-12.0427
▁㛨	-12.0427
▁㛩	-12.0427
▁㛪	-12.0427
▁㛫	-12.0427
▁㛬	-12.0427
▁㛭	-12.0427
▁㛮	-12.0427
▁㛯	-12.0427
▁㛰	-12.0427
▁㛱	-12.0427
▁㛲	-12.0427
▁㛳	-12.0427
▁㛴	-12.0427
▁㛵	-12.0427
▁㛶	-12.0427
▁㛷	-12.0427
▁㛸	-12.0427
▁㛹	-12.0427
▁㛺	-12.0427
▁㛻	-12.0427
▁㛼	-12.0427
▁㛽	-12.0427
▁㛾	-12.0427
▁㜀	-12.0427
▁㜁	-12.0427
▁㜂	-12.0427
▁㜃	-12.0427
▁㜄	-12.0427
▁㜅	-12.0427
▁㜆	-12.0427
▁㜇	-12.0427
▁㜈	-12.0427
▁㜉	-12.0427
▁㜊	-12.0427
▁㜋	-12.0427
▁㜌	-12.0427
▁㜍	-12.0427
▁㜎	-12.0427
▁㜏	-12.0427
▁㜐	-12.0427
▁㜑	-12.0427
▁㜒	-12.0427
▁㜓	-12.0427
▁㜔	-12.0427
▁㜕	-12.0427
▁㜖	-12.0427
▁㜗	-12.0427
▁㜘	-12.0427
▁㜙	-12.0427
▁㜚	-12.0427
▁㜛	-12.0427
▁㜜	-12.0427
▁㜝	-12.0427
▁㜞	-12.0427
▁㜟	-12.0427
▁㜠	-12.0427
▁㜡	-12.0427
▁㜢	-12.0427
▁㜣	-12.0427
▁㜤	-12.0427
▁㜥	-12.0427
▁㜦	-12.0427
▁㜧	-12.0427
▁㜨	-12.0427
▁㜩	-12.0427
▁㜪	-12.0427
▁㜫	-12.0427
▁㜬	-12.0427
▁㜭	-12.0427
▁㜮	-12.0427
▁㜯	-12.0427
▁㜰	-12.0427
▁㜱	-12.0427
▁㜲	-12.0427
▁㜳	-12.0427
▁㜴	-12.0427
▁㜵	-12.0427
▁㜶	-12.0427
▁㜷	-12.0427
▁㜸	-12.0427
▁㜹	-12.0427
▁㜺	-12.0427
▁㜺鬼	-12.0427
▁㜻	-12.0427
▁㜼	-12.0427
▁㜽	-12.0427
▁㜾	-12.0427
▁㜿	-12.0427
▁㝀	-12.0427
▁㝁	-12.0427
▁㝂	-12.0427
▁㝃	-12.0427
▁㝄	-12.0427
▁㝅	-12.0427
▁㝆	-12.0427
▁㝇	-12.0427
▁㝈	-12.0427
▁㝉	-12.0427
▁㝊	-12.0427
▁㝋	-12.0427
▁㝌	-12.0427
▁㝍	-12.0427
▁㝎	-12.0427
▁㝏	-12.0427
▁㝐	-12.0427
▁㝑	-12.0427
▁㝒	-12.0427
▁㝓	-12.0427
▁㝔	-12.0427
▁㝕	-12.0427
▁㝖	-12.0427
▁㝗	-12.0427
▁㝘	-12.0427
▁㝙	-12.0427
▁㝚	-12.0427
▁㝛	-12.0427
▁㝜	-12.0427
▁㝝	-12.0427
▁㝞	-12.0427
▁㝟	-12.0427
▁㝠	-12.0427
▁㝡	-12.0427
▁㝢	-12.0427
▁㝣	-12.0427
▁㝤	-12.0427
▁㝥	-12.0427
▁㝦	-12.0427
▁㝧	-12.0427
▁㝨	-12.0427
▁㝩	-12.0427
▁㝪	-12.0427
▁㝫	-12.0427
▁㝬	-12.0427
▁㝭	-12.0427
▁㝮	-12.0427
▁㝯	-12.0427
▁㝰	-12.0427
▁㝱	-12.0427
▁㝲	-12.0427
▁㝳	-12.0427
▁㝴	-12.0427
▁㝵	-12.0427
▁㝶	-12.0427
▁㝷	-12.0427
▁㝸	-12.0427
▁㝹	-12.0427
▁㝺	-12.0427
▁㝻	-12.0427
▁㝼	-12.0427
▁㝽	-12.0427
▁㝾	-12.0427
▁㝿	-12.0427
▁㞀	-12.0427
▁㞁	-12.0427
▁㞂	-12.0427
▁㞃	-12.0427
▁㞄	-12.0427
▁㞅	-12.0427
▁㞆	-12.0427
▁㞇	-12.0427
▁㞈	-12.0427
▁㞉	-12.0427
▁㞊	-12.0427
▁㞋	-12.0427
▁㞌	-12.0427
▁㞍	-12.0427
▁㞎	-12.0427
▁㞎㞎	-12.0427
▁㞏	-12.0427
▁㞐	-12.0427
▁㞑	-12.0427
▁㞒	-12.0427
▁㞓	-12.0427
▁㞓人	-12.0427
▁㞓冧	-12.0427
▁㞓口㞓面	-12.0427
▁㞓吱	-12.0427
▁㞓曬	-12.0427
▁㞓毛	-12.0427
▁㞓水	-12.0427
▁㞓窿	-12.0427
▁㞓聲	-12.0427
▁㞓面	-12.0427
▁㞓驚	-12.0427
▁㞓鬼	-12.0427
▁㞓魂	-12.0427
▁㞓魂失	-12.0427
▁㞓鳩撚屌呀	-12.0427
▁㞔	-12.0427
▁㞕	-12.0427
▁㞖	-12.0427
▁㞗	-12.0427
▁㞗屎	-12.0427
▁㞘	-12.0427
▁㞘㞘	-12.0427
▁㞘㞘車	-12.0427
▁㞘底	-12.0427
▁㞙	-12.0427
▁㞚	-12.0427
▁㞛	-12.0427
▁㞜	-12.0427
▁㞝	-12.0427
▁㞞	-12.0427
▁㞟	-12.0427
▁㞠	-12.0427
▁㞡	-12.0427
▁㞢	-12.0427
▁㞣	-12.0427
▁㞤	-12.0427
▁㞥	-12.0427
▁㞦	-12.0427
▁㞧	-12.0427
▁㞨	-12.0427
▁㞩	-12.0427
▁㞪	-12.0427
▁㞫	-12.0427
▁㞬	-12.0427
▁㞭	-12.0427
▁㞮	-12.0427
▁㞯	-12.0427
▁㞰	-12.0427
▁㞱	-12.0427
▁㞲	-12.0427
▁㞳	-12.0427
▁㞴	-12.0427
▁㞵	-12.0427
▁㞶	-12.0427
▁㞷	-12.0427
▁㞸	-12.0427
▁㞹	-12.0427
▁㞺	-12.0427
▁㞻	-12.0427
▁㞼	-12.0427
▁㞽	-12.0427
▁㞾	-12.0427
▁㞿	-12.0427
▁㟀	-12.0427
▁㟁	-12.0427
▁㟂	-12.0427
▁㟃	-12.0427
▁㟄	-12.0427
▁㟅	-12.0427
▁㟇	-12.0427
▁㟈	-12.0427
▁㟉	-12.0427
▁㟊	-12.0427
▁㟋	-12.0427
▁㟌	-12.0427
▁㟍	-12.0427
▁㟎	-12.0427
▁㟏	-12.0427
▁㟐	-12.0427
▁㟑	-12.0427
▁㟒	-12.0427
▁㟓	-12.0427
▁㟔	-12.0427
▁㟕	-12.0427
▁㟖	-12.0427
▁㟗	-12.0427
▁㟘	-12.0427
▁㟙	-12.0427
▁㟚	-12.0427
▁㟛	-12.0427
▁㟝	-12.0427
▁㟞	-12.0427
▁㟟	-12.0427
▁㟠	-12.0427
▁㟡	-12.0427
▁㟢	-12.0427
▁㟣	-12.0427
▁㟤	-12.0427
▁㟦	-12.0427
▁㟧	-12.0427
▁㟨	-12.0427
▁㟩	-12.0427
▁㟪	-12.0427
▁㟫	-12.0427
▁㟬	-12.0427
▁㟭	-12.0427
▁㟮	-12.0427
▁㟯	-12.0427
▁㟰	-12.0427
▁㟱	-12.0427
▁㟲	-12.0427
▁㟳	-12.0427
▁㟴	-12.0427
▁㟵	-12.0427
▁㟶	-12.0427
▁㟷	-12.0427
▁㟸	-12.0427
▁㟹	-12.0427
▁㟺	-12.0427
▁㟻	-12.0427
▁㟼	-12.0427
▁㟽	-12.0427
▁㟾	-12.0427
▁㟿	-12.0427
▁㠀	-12.0427
▁㠁	-12.0427
▁㠂	-12.0427
▁㠃	-12.0427
▁㠄	-12.0427
▁㠅	-12.0427
▁㠆	-12.0427
▁㠇	-12.0427
▁㠈	-12.0427
▁㠉	-12.0427
▁㠊	-12.0427
▁㠋	-12.0427
▁㠌	-12.0427
▁㠍	-12.0427
▁㠎	-12.0427
▁㠏	-12.0427
▁㠐	-12.0427
▁㠑	-12.0427
▁㠒	-12.0427
▁㠓	-12.0427
▁㠔	-12.0427
▁㠕	-12.0427
▁㠖	-12.0427
▁㠗	-12.0427
▁㠘	-12.0427
▁㠙	-12.0427
▁㠚	-12.0427
▁㠛	-12.0427
▁㠜	-12.0427
▁㠝	-12.0427
▁㠞	-12.0427
▁㠟	-12.0427
▁㠠	-12.0427
▁㠡	-12.0427
▁㠢	-12.0427
▁㠣	-12.0427
▁㠤	-12.0427
▁㠥	-12.0427
▁㠦	-12.0427
▁㠧	-12.0427
▁㠨	-12.0427
▁㠩	-12.0427
▁㠪	-12.0427
▁㠫	-12.0427
▁㠬	-12.0427
▁㠭	-12.0427
▁㠮	-12.0427
▁㠯	-12.0427
▁㠰	-12.0427
▁㠱	-12.0427
▁㠲	-12.0427
▁㠳	-12.0427
▁㠴	-12.0427
▁㠵	-12.0427
▁㠶	-12.0427
▁㠷	-12.0427
▁㠸	-12.0427
▁㠹	-12.0427
▁㠺	-12.0427
▁㠻	-12.0427
▁㠼	-12.0427
▁㠽	-12.0427
▁㠾	-12.0427
▁㠿	-12.0427
▁㡀	-12.0427
▁㡁	-12.0427
▁㡂	-12.0427
▁㡃	-12.0427
▁㡄	-12.0427
▁㡅	-12.0427
▁㡆	-12.0427
▁㡇	-12.0427
▁㡈	-12.0427
▁㡉	-12.0427
▁㡊	-12.0427
▁㡋	-12.0427
▁㡌	-12.0427
▁㡍	-12.0427
▁㡏	-12.0427
▁㡐	-12.0427
▁㡑	-12.0427
▁㡒	-12.0427
▁㡓	-12.0427
▁㡔	-12.0427
▁㡕	-12.0427
▁㡖	-12.0427
▁㡗	-12.0427
▁㡘	-12.0427
▁㡙	-12.0427
▁㡚	-12.0427
▁㡛	-12.0427
▁㡜	-12.0427
▁㡝	-12.0427
▁㡞	-12.0427
▁㡟	-12.0427
▁㡠	-12.0427
▁㡡	-12.0427
▁㡢	-12.0427
▁㡣	-12.0427
▁㡤	-12.0427
▁㡥	-12.0427
▁㡦	-12.0427
▁㡧	-12.0427
▁㡨	-12.0427
▁㡩	-12.0427
▁㡪	-12.0427
▁㡫	-12.0427
▁㡬	-12.0427
▁㡭	-12.0427
▁㡮	-12.0427
▁㡯	-12.0427
▁㡰	-12.0427
▁㡱	-12.0427
▁㡲	-12.0427
▁㡳	-12.0427
▁㡴	-12.0427
▁㡵	-12.0427
▁㡶	-12.0427
▁㡷	-12.0427
▁㡸	-12.0427
▁㡹	-12.0427
▁㡺	-12.0427
▁㡻	-12.0427
▁㡼	-12.0427
▁㡽	-12.0427
▁㡾	-12.0427
▁㡿	-12.0427
▁㢀	-12.0427
▁㢁	-12.0427
▁㢂	-12.0427
▁㢃	-12.0427
▁㢄	-12.0427
▁㢅	-12.0427
▁㢆	-12.0427
▁㢇	-12.0427
▁㢈	-12.0427
▁㢉	-12.0427
▁㢊	-12.0427
▁㢋	-12.0427
▁㢌	-12.0427
▁㢍	-12.0427
▁㢎	-12.0427
▁㢏	-12.0427
▁㢐	-12.0427
▁㢑	-12.0427
▁㢒	-12.0427
▁㢓	-12.0427
▁㢔	-12.0427
▁㢕	-12.0427
▁㢖	-12.0427
▁㢗	-12.0427
▁㢘	-12.0427
▁㢙	-12.0427
▁㢚	-12.0427
▁㢛	-12.0427
▁㢜	-12.0427
▁㢝	-12.0427
▁㢞	-12.0427
▁㢟	-12.0427
▁㢠	-12.0427
▁㢡	-12.0427
▁㢢	-12.0427
▁㢣	-12.0427
▁㢤	-12.0427
▁㢥	-12.0427
▁㢥旗	-12.0427
▁㢥起牀板	-12.0427
▁㢦	-12.0427
▁㢧	-12.0427
▁㢨	-12.0427
▁㢩	-12.0427
▁㢪	-12.0427
▁㢫	-12.0427
▁㢬	-12.0427
▁㢭	-12.0427
▁㢮	-12.0427
▁㢯	-12.0427
▁㢰	-12.0427
▁㢱	-12.0427
▁㢲	-12.0427
▁㢳	-12.0427
▁㢴	-12.0427
▁㢵	-12.0427
▁㢶	-12.0427
▁㢷	-12.0427
▁㢸	-12.0427
▁㢹	-12.0427
▁㢺	-12.0427
▁㢻	-12.0427
▁㢼	-12.0427
▁㢽	-12.0427
▁㢾	-12.0427
▁㢿	-12.0427
▁㣀	-12.0427
▁㣁	-12.0427
▁㣂	-12.0427
▁㣃	-12.0427
▁㣄	-12.0427
▁㣅	-12.0427
▁㣆	-12.0427
▁㣇	-12.0427
▁㣈	-12.0427
▁㣉	-12.0427
▁㣊	-12.0427
▁㣋	-12.0427
▁㣌	-12.0427
▁㣍	-12.0427
▁㣎	-12.0427
▁㣏	-12.0427
▁㣐	-12.0427
▁㣑	-12.0427
▁㣒	-12.0427
▁㣓	-12.0427
▁㣔	-12.0427
▁㣕	-12.0427
▁㣖	-12.0427
▁㣗	-12.0427
▁㣘	-12.0427
▁㣙	-12.0427
▁㣚	-12.0427
▁㣛	-12.0427
▁㣜	-12.0427
▁㣝	-12.0427
▁㣞	-12.0427
▁㣟	-12.0427
▁㣠	-12.0427
▁㣡	-12.0427
▁㣢	-12.0427
▁㣣	-12.0427
▁㣤	-12.0427
▁㣥	-12.0427
▁㣦	-12.0427
▁㣧	-12.0427
▁㣨	-12.0427
▁㣩	-12.0427
▁㣪	-12.0427
▁㣫	-12.0427
▁㣬	-12.0427
▁㣭	-12.0427
▁㣮	-12.0427
▁㣯	-12.0427
▁㣰	-12.0427
▁㣱	-12.0427
▁㣲	-12.0427
▁㣳	-12.0427
▁㣴	-12.0427
▁㣵	-12.0427
▁㣶	-12.0427
▁㣷	-12.0427
▁㣸	-12.0427
▁㣹	-12.0427
▁㣺	-12.0427
▁㣻	-12.0427
▁㣼	-12.0427
▁㣽	-12.0427
▁㣾	-12.0427
▁㣿	-12.0427
▁㤀	-12.0427
▁㤁	-12.0427
▁㤂	-12.0427
▁㤃	-12.0427
▁㤄	-12.0427
▁㤅	-12.0427
▁㤆	-12.0427
▁㤇	-12.0427
▁㤈	-12.0427
▁㤉	-12.0427
▁㤊	-12.0427
▁㤋	-12.0427
▁㤌	-12.0427
▁㤍	-12.0427
▁㤎	-12.0427
▁㤏	-12.0427
▁㤐	-12.0427
▁㤑	-12.0427
▁㤒	-12.0427
▁㤓	-12.0427
▁㤔	-12.0427
▁㤕	-12.0427
▁㤖	-12.0427
▁㤗	-12.0427
▁㤙	-12.0427
▁㤚	-12.0427
▁㤛	-12.0427
▁㤜	-12.0427
▁㤝	-12.0427
▁㤞	-12.0427
▁㤟	-12.0427
▁㤠	-12.0427
▁㤡	-12.0427
▁㤢	-12.0427
▁㤣	-12.0427
▁㤤	-12.0427
▁㤥	-12.0427
▁㤦	-12.0427
▁㤧	-12.0427
▁㤨	-12.0427
▁㤩	-12.0427
▁㤪	-12.0427
▁㤫	-12.0427
▁㤬	-12.0427
▁㤭	-12.0427
▁㤮	-12.0427
▁㤯	-12.0427
▁㤰	-12.0427
▁㤱	-12.0427
▁㤲	-12.0427
▁㤳	-12.0427
▁㤴	-12.0427
▁㤵	-12.0427
▁㤶	-12.0427
▁㤷	-12.0427
▁㤸	-12.0427
▁㤹	-12.0427
▁㤺	-12.0427
▁㤻	-12.0427
▁㤼	-12.0427
▁㤾	-12.0427
▁㤿	-12.0427
▁㤿憸	-12.0427
▁㤿憸腥悶	-12.0427
▁㥀	-12.0427
▁㥁	-12.0427
▁㥂	-12.0427
▁㥃	-12.0427
▁㥄	-12.0427
▁㥅	-12.0427
▁㥆	-12.0427
▁㥇	-12.0427
▁㥈	-12.0427
▁㥉	-12.0427
▁㥊	-12.0427
▁㥋	-12.0427
▁㥌	-12.0427
▁㥍	-12.0427
▁㥎	-12.0427
▁㥏	-12.0427
▁㥐	-12.0427
▁㥑	-12.0427
▁㥒	-12.0427
▁㥓	-12.0427
▁㥔	-12.0427
▁㥕	-12.0427
▁㥖	-12.0427
▁㥗	-12.0427
▁㥘	-12.0427
▁㥙	-12.0427
▁㥚	-12.0427
▁㥛	-12.0427
▁㥜	-12.0427
▁㥝	-12.0427
▁㥞	-12.0427
▁㥟	-12.0427
▁㥠	-12.0427
▁㥡	-12.0427
▁㥢	-12.0427
▁㥣	-12.0427
▁㥤	-12.0427
▁㥥	-12.0427
▁㥦	-12.0427
▁㥧	-12.0427
▁㥨	-12.0427
▁㥩	-12.0427
▁㥫	-12.0427
▁㥬	-12.0427
▁㥭	-12.0427
▁㥮	-12.0427
▁㥯	-12.0427
▁㥰	-12.0427
▁㥱	-12.0427
▁㥲	-12.0427
▁㥳	-12.0427
▁㥴	-12.0427
▁㥵	-12.0427
▁㥶	-12.0427
▁㥷	-12.0427
▁㥸	-12.0427
▁㥹	-12.0427
▁㥺	-12.0427
▁㥻	-12.0427
▁㥼	-12.0427
▁㥽	-12.0427
▁㥾	-12.0427
▁㥿	-12.0427
▁㦀	-12.0427
▁㦁	-12.0427
▁㦂	-12.0427
▁㦃	-12.0427
▁㦄	-12.0427
▁㦅	-12.0427
▁㦆	-12.0427
▁㦇	-12.0427
▁㦈	-12.0427
▁㦉	-12.0427
▁㦊	-12.0427
▁㦋	-12.0427
▁㦌	-12.0427
▁㦍	-12.0427
▁㦎	-12.0427
▁㦏	-12.0427
▁㦐	-12.0427
▁㦑	-12.0427
▁㦒	-12.0427
▁㦓	-12.0427
▁㦔	-12.0427
▁㦕	-12.0427
▁㦖	-12.0427
▁㦗	-12.0427
▁㦘	-12.0427
▁㦙	-12.0427
▁㦚	-12.0427
▁㦛	-12.0427
▁㦜	-12.0427
▁㦝	-12.0427
▁㦞	-12.0427
▁㦟	-12.0427
▁㦠	-12.0427
▁㦡	-12.0427
▁㦢	-12.0427
▁㦣	-12.0427
▁㦤	-12.0427
▁㦥	-12.0427
▁㦦	-12.0427
▁㦧	-12.0427
▁㦨	-12.0427
▁㦩	-12.0427
▁㦪	-12.0427
▁㦫	-12.0427
▁㦬	-12.0427
▁㦭	-12.0427
▁㦮	-12.0427
▁㦯	-12.0427
▁㦰	-12.0427
▁㦱	-12.0427
▁㦲	-12.0427
▁㦳	-12.0427
▁㦴	-12.0427
▁㦵	-12.0427
▁㦶	-12.0427
▁㦷	-12.0427
▁㦸	-12.0427
▁㦹	-12.0427
▁㦺	-12.0427
▁㦻	-12.0427
▁㦼	-12.0427
▁㦽	-12.0427
▁㦾	-12.0427
▁㦿	-12.0427
▁㧀	-12.0427
▁㧁	-12.0427
▁㧂	-12.0427
▁㧃	-12.0427
▁㧄	-12.0427
▁㧅	-12.0427
▁㧆	-12.0427
▁㧇	-12.0427
▁㧈	-12.0427
▁㧉	-12.0427
▁㧊	-12.0427
▁㧋	-12.0427
▁㧌	-12.0427
▁㧍	-12.0427
▁㧎	-12.0427
▁㧒	-12.0427
▁㧓	-12.0427
▁㧔	-12.0427
▁㧕	-12.0427
▁㧖	-12.0427
▁㧗	-12.0427
▁㧘	-12.0427
▁㧙	-12.0427
▁㧚	-12.0427
▁㧛	-12.0427
▁㧜	-12.0427
▁㧝	-12.0427
▁㧞	-12.0427
▁㧠	-12.0427
▁㧡	-12.0427
▁㧢	-12.0427
▁㧣	-12.0427
▁㧤	-12.0427
▁㧥	-12.0427
▁㧦	-12.0427
▁㧧	-12.0427
▁㧨	-12.0427
▁㧩	-12.0427
▁㧪	-12.0427
▁㧫	-12.0427
▁㧬	-12.0427
▁㧬人	-12.0427
▁㧬火	-12.0427
▁㧬落	-12.0427
▁㧬開	-12.0427
▁㧭	-12.0427
▁㧮	-12.0427
▁㧯	-12.0427
▁㧱	-12.0427
▁㧲	-12.0427
▁㧳	-12.0427
▁㧴	-12.0427
▁㧵	-12.0427
▁㧶	-12.0427
▁㧷	-12.0427
▁㧸	-12.0427
▁㧹	-12.0427
▁㧺	-12.0427
▁㧻	-12.0427
▁㧻出嚟	-12.0427
▁㧻口㧻鼻	-12.0427
▁㧻波	-12.0427
▁㧻爆	-12.0427
▁㧻眼㧻鼻	-12.0427
▁㧻穿	-12.0427
▁㧻穿個窿	-12.0427
▁㧻背脊	-12.0427
▁㧻鼻哥	-12.0427
▁㧼	-12.0427
▁㧽	-12.0427
▁㧾	-12.0427
▁㧿	-12.0427
▁㨀	-12.0427
▁㨁	-12.0427
▁㨂	-12.0427
▁㨃	-12.0427
▁㨃冧	-12.0427
▁㨃鬼	-12.0427
▁㨄	-12.0427
▁㨅	-12.0427
▁㨆	-12.0427
▁㨇	-12.0427
▁㨈	-12.0427
▁㨉	-12.0427
▁㨊	-12.0427
▁㨋	-12.0427
▁㨌	-12.0427
▁㨍	-12.0427
▁㨎	-12.0427
▁㨏	-12.0427
▁㨐	-12.0427
▁㨑	-12.0427
▁㨒	-12.0427
▁㨓	-12.0427
▁㨔	-12.0427
▁㨕	-12.0427
▁㨖	-12.0427
▁㨗	-12.0427
▁㨘	-12.0427
▁㨘到擸擸炩	-12.0427
▁㨘到立立呤	-12.0427
▁㨘牛王	-12.0427
▁㨘鏡	-12.0427
▁㨘黃魚	-12.0427
▁㨙	-12.0427
▁㨚	-12.0427
▁㨛	-12.0427
▁㨜	-12.0427
▁㨝	-12.0427
▁㨞	-12.0427
▁㨟	-12.0427
▁㨠	-12.0427
▁㨡	-12.0427
▁㨢	-12.0427
▁㨣	-12.0427
▁㨤	-12.0427
▁㨥	-12.0427
▁㨦	-12.0427
▁㨧	-12.0427
▁㨨	-12.0427
▁㨩	-12.0427
▁㨪	-12.0427
▁㨬	-12.0427
▁㨭	-12.0427
▁㨮	-12.0427
▁㨯	-12.0427
▁㨰	-12.0427
▁㨱	-12.0427
▁㨲	-12.0427
▁㨳	-12.0427
▁㨴	-12.0427
▁㨴起	-12.0427
▁㨵	-12.0427
▁㨶	-12.0427
▁㨷	-12.0427
▁㨸	-12.0427
▁㨹	-12.0427
▁㨺	-12.0427
▁㨻	-12.0427
▁㨼	-12.0427
▁㨽	-12.0427
▁㨾	-12.0427
▁㨿	-12.0427
▁㩀	-12.0427
▁㩁	-12.0427
▁㩂	-12.0427
▁㩃	-12.0427
▁㩄	-12.0427
▁㩅	-12.0427
▁㩆	-12.0427
▁㩇	-12.0427
▁㩈	-12.0427
▁㩉	-12.0427
▁㩉手	-12.0427
▁㩊	-12.0427
▁㩋	-12.0427
▁㩋㩋脆	-12.0427
▁㩌	-12.0427
▁㩍	-12.0427
▁㩎	-12.0427
▁㩏	-12.0427
▁㩐	-12.0427
▁㩑	-12.0427
▁㩒	-12.0427
▁㩒下盅	-12.0427
▁㩒住頭	-12.0427
▁㩒掣	-12.0427
▁㩒機	-12.0427
▁㩒水	-12.0427
▁㩒釘	-12.0427
▁㩒錢	-12.0427
▁㩒鐘	-12.0427
▁㩒風琴	-12.0427
▁㩒鷓鴣	-12.0427
▁㩒𨋢	-12.0427
▁㩓	-12.0427
▁㩔	-12.0427
▁㩕	-12.0427
▁㩖	-12.0427
▁㩗	-12.0427
▁㩗帶	-12.0427
▁㩘	-12.0427
▁㩙	-12.0427
▁㩚	-12.0427
▁㩛	-12.0427
▁㩜	-12.0427
▁㩝	-12.0427
▁㩞	-12.0427
▁㩟	-12.0427
▁㩠	-12.0427
▁㩡	-12.0427
▁㩢	-12.0427
▁㩣	-12.0427
▁㩤	-12.0427
▁㩥	-12.0427
▁㩦	-12.0427
▁㩧	-12.0427
▁㩧㩧聲	-12.0427
▁㩧㩧脆	-12.0427
▁㩧㩧齋	-12.0427
▁㩧佬	-12.0427
▁㩧嘢	-12.0427
▁㩧帽	-12.0427
▁㩧手指綟	-12.0427
▁㩧溼	-12.0427
▁㩧瓜	-12.0427
▁㩧落去	-12.0427
▁㩧落嚟	-12.0427
▁㩧親	-12.0427
▁㩧頭黨	-12.0427
▁㩨	-12.0427
▁㩩	-12.0427
▁㩪	-12.0427
▁㩫	-12.0427
▁㩬	-12.0427
▁㩭	-12.0427
▁㩮	-12.0427
▁㩯	-12.0427
▁㩰	-12.0427
▁㩱	-12.0427
▁㩲	-12.0427
▁㩳	-12.0427
▁㩴	-12.0427
▁㩵	-12.0427
▁㩶	-12.0427
▁㩷	-12.0427
▁㩸	-12.0427
▁㩹	-12.0427
▁㩺	-12.0427
▁㩻	-12.0427
▁㩼	-12.0427
▁㩽	-12.0427
▁㩾	-12.0427
▁㩿	-12.0427
▁㪀	-12.0427
▁㪁	-12.0427
▁㪂	-12.0427
▁㪃	-12.0427
▁㪄	-12.0427
▁㪅	-12.0427
▁㪆	-12.0427
▁㪇	-12.0427
▁㪈	-12.0427
▁㪉	-12.0427
▁㪊	-12.0427
▁㪋	-12.0427
▁㪌	-12.0427
▁㪍	-12.0427
▁㪎	-12.0427
▁㪏	-12.0427
▁㪐	-12.0427
▁㪐㩿	-12.0427
▁㪑	-12.0427
▁㪒	-12.0427
▁㪓	-12.0427
▁㪔	-12.0427
▁㪕	-12.0427
▁㪖	-12.0427
▁㪗	-12.0427
▁㪗下	-12.0427
▁㪗大氣	-12.0427
▁㪗工	-12.0427
▁㪗暑	-12.0427
▁㪗氣	-12.0427
▁㪗涼	-12.0427
▁㪘	-12.0427
▁㪙	-12.0427
▁㪚	-12.0427
▁㪛	-12.0427
▁㪜	-12.0427
▁㪝	-12.0427
▁㪞	-12.0427
▁㪟	-12.0427
▁㪠	-12.0427
▁㪡	-12.0427
▁㪢	-12.0427
▁㪣	-12.0427
▁㪤	-12.0427
▁㪥	-12.0427
▁㪦	-12.0427
▁㪧	-12.0427
▁㪨	-12.0427
▁㪩	-12.0427
▁㪪	-12.0427
▁㪫	-12.0427
▁㪬	-12.0427
▁㪭	-12.0427
▁㪮	-12.0427
▁㪯	-12.0427
▁㪰	-12.0427
▁㪱	-12.0427
▁㪲	-12.0427
▁㪳	-12.0427
▁㪴	-12.0427
▁㪵	-12.0427
▁㪶	-12.0427
▁㪷	-12.0427
▁㪸	-12.0427
▁㪹	-12.0427
▁㪺	-12.0427
▁㪻	-12.0427
▁㪼	-12.0427
▁㪽	-12.0427
▁㪾	-12.0427
▁㪿	-12.0427
▁㫀	-12.0427
▁㫁	-12.0427
▁㫂	-12.0427
▁㫃	-12.0427
▁㫄	-12.0427
▁㫅	-12.0427
▁㫆	-12.0427
▁㫇	-12.0427
▁㫈	-12.0427
▁㫉	-12.0427
▁㫊	-12.0427
▁㫋	-12.0427
▁㫌	-12.0427
▁㫍	-12.0427
▁㫎	-12.0427
▁㫏	-12.0427
▁㫐	-12.0427
▁㫑	-12.0427
▁㫒	-12.0427
▁㫓	-12.0427
▁㫔	-12.0427
▁㫕	-12.0427
▁㫖	-12.0427
▁㫗	-12.0427
▁㫘	-12.0427
▁㫙	-12.0427
▁㫚	-12.0427
▁㫛	-12.0427
▁㫜	-12.0427
▁㫝	-12.0427
▁㫞	-12.0427
▁㫟	-12.0427
▁㫠	-12.0427
▁㫡	-12.0427
▁㫢	-12.0427
▁㫣	-12.0427
▁㫤	-12.0427
▁㫥	-12.0427
▁㫦	-12.0427
▁㫧	-12.0427
▁㫨	-12.0427
▁㫩	-12.0427
▁㫪	-12.0427
▁㫫	-12.0427
▁㫬	-12.0427
▁㫭	-12.0427
▁㫮	-12.0427
▁㫯	-12.0427
▁㫰	-12.0427
▁㫱	-12.0427
▁㫲	-12.0427
▁㫳	-12.0427
▁㫴	-12.0427
▁㫵	-12.0427
▁㫶	-12.0427
▁㫷	-12.0427
▁㫸	-12.0427
▁㫹	-12.0427
▁㫺	-12.0427
▁㫻	-12.0427
▁㫼	-12.0427
▁㫽	-12.0427
▁㫾	-12.0427
▁㫿	-12.0427
▁㬀	-12.0427
▁㬁	-12.0427
▁㬂	-12.0427
▁㬃	-12.0427
▁㬄	-12.0427
▁㬅	-12.0427
▁㬆	-12.0427
▁㬇	-12.0427
▁㬈	-12.0427
▁㬉	-12.0427
▁㬊	-12.0427
▁㬋	-12.0427
▁㬌	-12.0427
▁㬌轟	-12.0427
▁㬍	-12.0427
▁㬎	-12.0427
▁㬏	-12.0427
▁㬐	-12.0427
▁㬑	-12.0427
▁㬒	-12.0427
▁㬓	-12.0427
▁㬔	-12.0427
▁㬕	-12.0427
▁㬖	-12.0427
▁㬗	-12.0427
▁㬘	-12.0427
▁㬙	-12.0427
▁㬚	-12.0427
▁㬛	-12.0427
▁㬜	-12.0427
▁㬝	-12.0427
▁㬞	-12.0427
▁㬟	-12.0427
▁㬠	-12.0427
▁㬡	-12.0427
▁㬢	-12.0427
▁㬣	-12.0427
▁㬤	-12.0427
▁㬥	-12.0427
▁㬦	-12.0427
▁㬧	-12.0427
▁㬨	-12.0427
▁㬩	-12.0427
▁㬪	-12.0427
▁㬫	-12.0427
▁㬬	-12.0427
▁㬭	-12.0427
▁㬮	-12.0427
▁㬯	-12.0427
▁㬰	-12.0427
▁㬱	-12.0427
▁㬲	-12.0427
▁㬳	-12.0427
▁㬴	-12.0427
▁㬵	-12.0427
▁㬶	-12.0427
▁㬷	-12.0427
▁㬸	-12.0427
▁㬹	-12.0427
▁㬺	-12.0427
▁㬻	-12.0427
▁㬼	-12.0427
▁㬽	-12.0427
▁㬾	-12.0427
▁㬿	-12.0427
▁㭀	-12.0427
▁㭁	-12.0427
▁㭂	-12.0427
▁㭃	-12.0427
▁㭄	-12.0427
▁㭅	-12.0427
▁㭆	-12.0427
▁㭇	-12.0427
▁㭈	-12.0427
▁㭉	-12.0427
▁㭊	-12.0427
▁㭋	-12.0427
▁㭌	-12.0427
▁㭍	-12.0427
▁㭐	-12.0427
▁㭑	-12.0427
▁㭒	-12.0427
▁㭓	-12.0427
▁㭔	-12.0427
▁㭕	-12.0427
▁㭖	-12.0427
▁㭗	-12.0427
▁㭘	-12.0427
▁㭙	-12.0427
▁㭚	-12.0427
▁㭛	-12.0427
▁㭜	-12.0427
▁㭝	-12.0427
▁㭞	-12.0427
▁㭟	-12.0427
▁㭠	-12.0427
▁㭡	-12.0427
▁㭢	-12.0427
▁㭥	-12.0427
▁㭦	-12.0427
▁㭧	-12.0427
▁㭨	-12.0427
▁㭩	-12.0427
▁㭪	-12.0427
▁㭫	-12.0427
▁㭬	-12.0427
▁㭭	-12.0427
▁㭮	-12.0427
▁㭯	-12.0427
▁㭰	-12.0427
▁㭱	-12.0427
▁㭲	-12.0427
▁㭳	-12.0427
▁㭵	-12.0427
▁㭶	-12.0427
▁㭷	-12.0427
▁㭸	-12.0427
▁㭹	-12.0427
▁㭺	-12.0427
▁㭻	-12.0427
▁㭼	-12.0427
▁㭽	-12.0427
▁㭾	-12.0427
▁㭿	-12.0427
▁㮀	-12.0427
▁㮁	-12.0427
▁㮂	-12.0427
▁㮃	-12.0427
▁㮄	-12.0427
▁㮅	-12.0427
▁㮆	-12.0427
▁㮇	-12.0427
▁㮈	-12.0427
▁㮉	-12.0427
▁㮊	-12.0427
▁㮋	-12.0427
▁㮌	-12.0427
▁㮍	-12.0427
▁㮎	-12.0427
▁㮏	-12.0427
▁㮐	-12.0427
▁㮑	-12.0427
▁㮒	-12.0427
▁㮓	-12.0427
▁㮔	-12.0427
▁㮕	-12.0427
▁㮖	-12.0427
▁㮗	-12.0427
▁㮘	-12.0427
▁㮙	-12.0427
▁㮚	-12.0427
▁㮛	-12.0427
▁㮜	-12.0427
▁㮝	-12.0427
▁㮞	-12.0427
▁㮟	-12.0427
▁㮠	-12.0427
▁㮡	-12.0427
▁㮢	-12.0427
▁㮣	-12.0427
▁㮤	-12.0427
▁㮥	-12.0427
▁㮦	-12.0427
▁㮧	-12.0427
▁㮨	-12.0427
▁㮩	-12.0427
▁㮪	-12.0427
▁㮫	-12.0427
▁㮬	-12.0427
▁㮭	-12.0427
▁㮮	-12.0427
▁㮯	-12.0427
▁㮰	-12.0427
▁㮱	-12.0427
▁㮲	-12.0427
▁㮳	-12.0427
▁㮴	-12.0427
▁㮵	-12.0427
▁㮶	-12.0427
▁㮷	-12.0427
▁㮸	-12.0427
▁㮹	-12.0427
▁㮺	-12.0427
▁㮻	-12.0427
▁㮼	-12.0427
▁㮽	-12.0427
▁㮾	-12.0427
▁㮿	-12.0427
▁㯀	-12.0427
▁㯁	-12.0427
▁㯂	-12.0427
▁㯃	-12.0427
▁㯄	-12.0427
▁㯅	-12.0427
▁㯆	-12.0427
▁㯇	-12.0427
▁㯈	-12.0427
▁㯉	-12.0427
▁㯊	-12.0427
▁㯋	-12.0427
▁㯌	-12.0427
▁㯍	-12.0427
▁㯎	-12.0427
▁㯏	-12.0427
▁㯐	-12.0427
▁㯑	-12.0427
▁㯒	-12.0427
▁㯓	-12.0427
▁㯔	-12.0427
▁㯕	-12.0427
▁㯖	-12.0427
▁㯗	-12.0427
▁㯘	-12.0427
▁㯙	-12.0427
▁㯚	-12.0427
▁㯛	-12.0427
▁㯜	-12.0427
▁㯝	-12.0427
▁㯞	-12.0427
▁㯟	-12.0427
▁㯠	-12.0427
▁㯡	-12.0427
▁㯢	-12.0427
▁㯣	-12.0427
▁㯤	-12.0427
▁㯥	-12.0427
▁㯦	-12.0427
▁㯧	-12.0427
▁㯨	-12.0427
▁㯩	-12.0427
▁㯪	-12.0427
▁㯫	-12.0427
▁㯬	-12.0427
▁㯭	-12.0427
▁㯮	-12.0427
▁㯯	-12.0427
▁㯰	-12.0427
▁㯱	-12.0427
▁㯲	-12.0427
▁㯳	-12.0427
▁㯴	-12.0427
▁㯵	-12.0427
▁㯶	-12.0427
▁㯷	-12.0427
▁㯸	-12.0427
▁㯹	-12.0427
▁㯺	-12.0427
▁㯻	-12.0427
▁㯼	-12.0427
▁㯽	-12.0427
▁㯾	-12.0427
▁㯿	-12.0427
▁㰀	-12.0427
▁㰁	-12.0427
▁㰂	-12.0427
▁㰃	-12.0427
▁㰄	-12.0427
▁㰅	-12.0427
▁㰆	-12.0427
▁㰇	-12.0427
▁㰈	-12.0427
▁㰉	-12.0427
▁㰊	-12.0427
▁㰋	-12.0427
▁㰌	-12.0427
▁㰍	-12.0427
▁㰎	-12.0427
▁㰏	-12.0427
▁㰐	-12.0427
▁㰑	-12.0427
▁㰒	-12.0427
▁㰓	-12.0427
▁㰔	-12.0427
▁㰕	-12.0427
▁㰖	-12.0427
▁㰗	-12.0427
▁㰘	-12.0427
▁㰙	-12.0427
▁㰚	-12.0427
▁㰛	-12.0427
▁㰜	-12.0427
▁㰝	-12.0427
▁㰞	-12.0427
▁㰟	-12.0427
▁㰠	-12.0427
▁㰡	-12.0427
▁㰢	-12.0427
▁㰣	-12.0427
▁㰤	-12.0427
▁㰥	-12.0427
▁㰦	-12.0427
▁㰧	-12.0427
▁㰨	-12.0427
▁㰩	-12.0427
▁㰪	-12.0427
▁㰫	-12.0427
▁㰬	-12.0427
▁㰭	-12.0427
▁㰮	-12.0427
▁㰯	-12.0427
▁㰰	-12.0427
▁㰱	-12.0427
▁㰲	-12.0427
▁㰳	-12.0427
▁㰴	-12.0427
▁㰵	-12.0427
▁㰶	-12.0427
▁㰷	-12.0427
▁㰸	-12.0427
▁㰹	-12.0427
▁㰺	-12.0427
▁㰻	-12.0427
▁㰼	-12.0427
▁㰽	-12.0427
▁㰾	-12.0427
▁㰿	-12.0427
▁㱀	-12.0427
▁㱁	-12.0427
▁㱂	-12.0427
▁㱃	-12.0427
▁㱄	-12.0427
▁㱅	-12.0427
▁㱆	-12.0427
▁㱇	-12.0427
▁㱈	-12.0427
▁㱉	-12.0427
▁㱊	-12.0427
▁㱋	-12.0427
▁㱌	-12.0427
▁㱍	-12.0427
▁㱎	-12.0427
▁㱏	-12.0427
▁㱐	-12.0427
▁㱑	-12.0427
▁㱒	-12.0427
▁㱓	-12.0427
▁㱔	-12.0427
▁㱕	-12.0427
▁㱖	-12.0427
▁㱗	-12.0427
▁㱘	-12.0427
▁㱙	-12.0427
▁㱚	-12.0427
▁㱛	-12.0427
▁㱜	-12.0427
▁㱝	-12.0427
▁㱞	-12.0427
▁㱟	-12.0427
▁㱠	-12.0427
▁㱡	-12.0427
▁㱢	-12.0427
▁㱣	-12.0427
▁㱤	-12.0427
▁㱥	-12.0427
▁㱦	-12.0427
▁㱧	-12.0427
▁㱨	-12.0427
▁㱪	-12.0427
▁㱫	-12.0427
▁㱬	-12.0427
▁㱭	-12.0427
▁㱯	-12.0427
▁㱰	-12.0427
▁㱱	-12.0427
▁㱲	-12.0427
▁㱳	-12.0427
▁㱴	-12.0427
▁㱵	-12.0427
▁㱶	-12.0427
▁㱷	-12.0427
▁㱸	-12.0427
▁㱹	-12.0427
▁㱺	-12.0427
▁㱻	-12.0427
▁㱼	-12.0427
▁㱽	-12.0427
▁㱾	-12.0427
▁㱿	-12.0427
▁㲀	-12.0427
▁㲁	-12.0427
▁㲂	-12.0427
▁㲃	-12.0427
▁㲄	-12.0427
▁㲅	-12.0427
▁㲆	-12.0427
▁㲇	-12.0427
▁㲈	-12.0427
▁㲉	-12.0427
▁㲊	-12.0427
▁㲋	-12.0427
▁㲌	-12.0427
▁㲍	-12.0427
▁㲎	-12.0427
▁㲏	-12.0427
▁㲐	-12.0427
▁㲑	-12.0427
▁㲒	-12.0427
▁㲓	-12.0427
▁㲔	-12.0427
▁㲕	-12.0427
▁㲖	-12.0427
▁㲗	-12.0427
▁㲘	-12.0427
▁㲙	-12.0427
▁㲚	-12.0427
▁㲛	-12.0427
▁㲜	-12.0427
▁㲝	-12.0427
▁㲞	-12.0427
▁㲟	-12.0427
▁㲠	-12.0427
▁㲡	-12.0427
▁㲢	-12.0427
▁㲣	-12.0427
▁㲤	-12.0427
▁㲥	-12.0427
▁㲦	-12.0427
▁㲧	-12.0427
▁㲨	-12.0427
▁㲩	-12.0427
▁㲪	-12.0427
▁㲫	-12.0427
▁㲬	-12.0427
▁㲭	-12.0427
▁㲮	-12.0427
▁㲯	-12.0427
▁㲰	-12.0427
▁㲱	-12.0427
▁㲲	-12.0427
▁㲳	-12.0427
▁㲴	-12.0427
▁㲵	-12.0427
▁㲶	-12.0427
▁㲷	-12.0427
▁㲸	-12.0427
▁㲹	-12.0427
▁㲺	-12.0427
▁㲻	-12.0427
▁㲼	-12.0427
▁㲽	-12.0427
▁㲾	-12.0427
▁㳀	-12.0427
▁㳁	-12.0427
▁㳂	-12.0427
▁㳃	-12.0427
▁㳄	-12.0427
▁㳅	-12.0427
▁㳆	-12.0427
▁㳇	-12.0427
▁㳈	-12.0427
▁㳉	-12.0427
▁㳊	-12.0427
▁㳋	-12.0427
▁㳌	-12.0427
▁㳍	-12.0427
▁㳎	-12.0427
▁㳏	-12.0427
▁㳐	-12.0427
▁㳑	-12.0427
▁㳒	-12.0427
▁㳓	-12.0427
▁㳖	-12.0427
▁㳗	-12.0427
▁㳘	-12.0427
▁㳙	-12.0427
▁㳚	-12.0427
▁㳛	-12.0427
▁㳜	-12.0427
▁㳝	-12.0427
▁㳞	-12.0427
▁㳟	-12.0427
▁㳣	-12.0427
▁㳤	-12.0427
▁㳥	-12.0427
▁㳦	-12.0427
▁㳧	-12.0427
▁㳨	-12.0427
▁㳩	-12.0427
▁㳪	-12.0427
▁㳫	-12.0427
▁㳬	-12.0427
▁㳭	-12.0427
▁㳮	-12.0427
▁㳯	-12.0427
▁㳰	-12.0427
▁㳱	-12.0427
▁㳲	-12.0427
▁㳳	-12.0427
▁㳴	-12.0427
▁㳵	-12.0427
▁㳶	-12.0427
▁㳷	-12.0427
▁㳸	-12.0427
▁㳹	-12.0427
▁㳺	-12.0427
▁㳻	-12.0427
▁㳼	-12.0427
▁㳾	-12.0427
▁㳿	-12.0427
▁㴀	-12.0427
▁㴁	-12.0427
▁㴂	-12.0427
▁㴃	-12.0427
▁㴄	-12.0427
▁㴅	-12.0427
▁㴆	-12.0427
▁㴇	-12.0427
▁㴈	-12.0427
▁㴉	-12.0427
▁㴊	-12.0427
▁㴌	-12.0427
▁㴍	-12.0427
▁㴎	-12.0427
▁㴏	-12.0427
▁㴐	-12.0427
▁㴑	-12.0427
▁㴒	-12.0427
▁㴓	-12.0427
▁㴔	-12.0427
▁㴕	-12.0427
▁㴖	-12.0427
▁㴗	-12.0427
▁㴘	-12.0427
▁㴙	-12.0427
▁㴚	-12.0427
▁㴛	-12.0427
▁㴜	-12.0427
▁㴝	-12.0427
▁㴞	-12.0427
▁㴟	-12.0427
▁㴠	-12.0427
▁㴡	-12.0427
▁㴢	-12.0427
▁㴣	-12.0427
▁㴤	-12.0427
▁㴥	-12.0427
▁㴦	-12.0427
▁㴧	-12.0427
▁㴨	-12.0427
▁㴩	-12.0427
▁㴪	-12.0427
▁㴫	-12.0427
▁㴬	-12.0427
▁㴭	-12.0427
▁㴮	-12.0427
▁㴯	-12.0427
▁㴰	-12.0427
▁㴱	-12.0427
▁㴲	-12.0427
▁㴳	-12.0427
▁㴴	-12.0427
▁㴵	-12.0427
▁㴶	-12.0427
▁㴷	-12.0427
▁㴸	-12.0427
▁㴹	-12.0427
▁㴺	-12.0427
▁㴻	-12.0427
▁㴼	-12.0427
▁㴽	-12.0427
▁㴾	-12.0427
▁㴿	-12.0427
▁㵀	-12.0427
▁㵁	-12.0427
▁㵂	-12.0427
▁㵃	-12.0427
▁㵄	-12.0427
▁㵅	-12.0427
▁㵆	-12.0427
▁㵇	-12.0427
▁㵈	-12.0427
▁㵉	-12.0427
▁㵊	-12.0427
▁㵋	-12.0427
▁㵌	-12.0427
▁㵍	-12.0427
▁㵎	-12.0427
▁㵏	-12.0427
▁㵐	-12.0427
▁㵑	-12.0427
▁㵒	-12.0427
▁㵓	-12.0427
▁㵔	-12.0427
▁㵕	-12.0427
▁㵖	-12.0427
▁㵗	-12.0427
▁㵘	-12.0427
▁㵙	-12.0427
▁㵚	-12.0427
▁㵛	-12.0427
▁㵜	-12.0427
▁㵝	-12.0427
▁㵞	-12.0427
▁㵟	-12.0427
▁㵠	-12.0427
▁㵡	-12.0427
▁㵢	-12.0427
▁㵣	-12.0427
▁㵤	-12.0427
▁㵥	-12.0427
▁㵦	-12.0427
▁㵧	-12.0427
▁㵨	-12.0427
▁㵩	-12.0427
▁㵪	-12.0427
▁㵫	-12.0427
▁㵬	-12.0427
▁㵭	-12.0427
▁㵮	-12.0427
▁㵯	-12.0427
▁㵰	-12.0427
▁㵱	-12.0427
▁㵲	-12.0427
▁㵳	-12.0427
▁㵴	-12.0427
▁㵵	-12.0427
▁㵶	-12.0427
▁㵷	-12.0427
▁㵸	-12.0427
▁㵹	-12.0427
▁㵺	-12.0427
▁㵻	-12.0427
▁㵼	-12.0427
▁㵽	-12.0427
▁㵾	-12.0427
▁㵿	-12.0427
▁㶀	-12.0427
▁㶁	-12.0427
▁㶂	-12.0427
▁㶃	-12.0427
▁㶄	-12.0427
▁㶅	-12.0427
▁㶆	-12.0427
▁㶇	-12.0427
▁㶈	-12.0427
▁㶊	-12.0427
▁㶋	-12.0427
▁㶌	-12.0427
▁㶍	-12.0427
▁㶎	-12.0427
▁㶏	-12.0427
▁㶐	-12.0427
▁㶑	-12.0427
▁㶒	-12.0427
▁㶓	-12.0427
▁㶔	-12.0427
▁㶕	-12.0427
▁㶖	-12.0427
▁㶗	-12.0427
▁㶘	-12.0427
▁㶙	-12.0427
▁㶚	-12.0427
▁㶛	-12.0427
▁㶜	-12.0427
▁㶝	-12.0427
▁㶞	-12.0427
▁㶟	-12.0427
▁㶠	-12.0427
▁㶡	-12.0427
▁㶢	-12.0427
▁㶣	-12.0427
▁㶤	-12.0427
▁㶥	-12.0427
▁㶦	-12.0427
▁㶧	-12.0427
▁㶨	-12.0427
▁㶩	-12.0427
▁㶪	-12.0427
▁㶫	-12.0427
▁㶬	-12.0427
▁㶭	-12.0427
▁㶮	-12.0427
▁㶯	-12.0427
▁㶰	-12.0427
▁㶱	-12.0427
▁㶲	-12.0427
▁㶳	-12.0427
▁㶴	-12.0427
▁㶵	-12.0427
▁㶷	-12.0427
▁㶸	-12.0427
▁㶹	-12.0427
▁㶺	-12.0427
▁㶻	-12.0427
▁㶼	-12.0427
▁㶾	-12.0427
▁㶿	-12.0427
▁㷀	-12.0427
▁㷁	-12.0427
▁㷂	-12.0427
▁㷃	-12.0427
▁㷄	-12.0427
▁㷅	-12.0427
▁㷆	-12.0427
▁㷇	-12.0427
▁㷈	-12.0427
▁㷉	-12.0427
▁㷊	-12.0427
▁㷋	-12.0427
▁㷌	-12.0427
▁㷍	-12.0427
▁㷎	-12.0427
▁㷏	-12.0427
▁㷐	-12.0427
▁㷑	-12.0427
▁㷒	-12.0427
▁㷓	-12.0427
▁㷔	-12.0427
▁㷕	-12.0427
▁㷖	-12.0427
▁㷗	-12.0427
▁㷘	-12.0427
▁㷙	-12.0427
▁㷚	-12.0427
▁㷛	-12.0427
▁㷜	-12.0427
▁㷝	-12.0427
▁㷞	-12.0427
▁㷟	-12.0427
▁㷠	-12.0427
▁㷡	-12.0427
▁㷢	-12.0427
▁㷣	-12.0427
▁㷤	-12.0427
▁㷥	-12.0427
▁㷦	-12.0427
▁㷧	-12.0427
▁㷨	-12.0427
▁㷩	-12.0427
▁㷪	-12.0427
▁㷫	-12.0427
▁㷫乾	-12.0427
▁㷫炠炠	-12.0427
▁㷫烚烚	-12.0427
▁㷫熱	-12.0427
▁㷫親	-12.0427
▁㷫起嚟	-12.0427
▁㷫過火屎	-12.0427
▁㷫過焫雞	-12.0427
▁㷫過辣雞	-12.0427
▁㷬	-12.0427
▁㷭	-12.0427
▁㷮	-12.0427
▁㷯	-12.0427
▁㷰	-12.0427
▁㷱	-12.0427
▁㷲	-12.0427
▁㷳	-12.0427
▁㷴	-12.0427
▁㷵	-12.0427
▁㷶	-12.0427
▁㷷	-12.0427
▁㷸	-12.0427
▁㷹	-12.0427
▁㷺	-12.0427
▁㷻	-12.0427
▁㷼	-12.0427
▁㷽	-12.0427
▁㷾	-12.0427
▁㷿	-12.0427
▁㸀	-12.0427
▁㸁	-12.0427
▁㸂	-12.0427
▁㸃	-12.0427
▁㸄	-12.0427
▁㸅	-12.0427
▁㸆	-12.0427
▁㸇	-12.0427
▁㸈	-12.0427
▁㸉	-12.0427
▁㸊	-12.0427
▁㸋	-12.0427
▁㸌	-12.0427
▁㸍	-12.0427
▁㸎	-12.0427
▁㸏	-12.0427
▁㸐	-12.0427
▁㸑	-12.0427
▁㸒	-12.0427
▁㸓	-12.0427
▁㸔	-12.0427
▁㸕	-12.0427
▁㸖	-12.0427
▁㸗	-12.0427
▁㸘	-12.0427
▁㸙	-12.0427
▁㸚	-12.0427
▁㸛	-12.0427
▁㸜	-12.0427
▁㸝	-12.0427
▁㸞	-12.0427
▁㸟	-12.0427
▁㸠	-12.0427
▁㸡	-12.0427
▁㸢	-12.0427
▁㸣	-12.0427
▁㸤	-12.0427
▁㸥	-12.0427
▁㸦	-12.0427
▁㸧	-12.0427
▁㸨	-12.0427
▁㸩	-12.0427
▁㸪	-12.0427
▁㸫	-12.0427
▁㸬	-12.0427
▁㸭	-12.0427
▁㸮	-12.0427
▁㸯	-12.0427
▁㸰	-12.0427
▁㸱	-12.0427
▁㸲	-12.0427
▁㸳	-12.0427
▁㸴	-12.0427
▁㸵	-12.0427
▁㸶	-12.0427
▁㸷	-12.0427
▁㸸	-12.0427
▁㸹	-12.0427
▁㸺	-12.0427
▁㸻	-12.0427
▁㸼	-12.0427
▁㸽	-12.0427
▁㸾	-12.0427
▁㸿	-12.0427
▁㹀	-12.0427
▁㹁	-12.0427
▁㹂	-12.0427
▁㹃	-12.0427
▁㹄	-12.0427
▁㹅	-12.0427
▁㹆	-12.0427
▁㹇	-12.0427
▁㹈	-12.0427
▁㹉	-12.0427
▁㹊	-12.0427
▁㹋	-12.0427
▁㹌	-12.0427
▁㹍	-12.0427
▁㹎	-12.0427
▁㹏	-12.0427
▁㹐	-12.0427
▁㹑	-12.0427
▁㹒	-12.0427
▁㹓	-12.0427
▁㹔	-12.0427
▁㹕	-12.0427
▁㹖	-12.0427
▁㹗	-12.0427
▁㹘	-12.0427
▁㹙	-12.0427
▁㹚	-12.0427
▁㹛	-12.0427
▁㹜	-12.0427
▁㹝	-12.0427
▁㹞	-12.0427
▁㹟	-12.0427
▁㹠	-12.0427
▁㹡	-12.0427
▁㹢	-12.0427
▁㹣	-12.0427
▁㹤	-12.0427
▁㹥	-12.0427
▁㹦	-12.0427
▁㹧	-12.0427
▁㹨	-12.0427
▁㹩	-12.0427
▁㹪	-12.0427
▁㹫	-12.0427
▁㹬	-12.0427
▁㹭	-12.0427
▁㹮	-12.0427
▁㹯	-12.0427
▁㹰	-12.0427
▁㹱	-12.0427
▁㹲	-12.0427
▁㹳	-12.0427
▁㹴	-12.0427
▁㹴犬	-12.0427
▁㹵	-12.0427
▁㹶	-12.0427
▁㹷	-12.0427
▁㹸	-12.0427
▁㹹	-12.0427
▁㹺	-12.0427
▁㹻	-12.0427
▁㹼	-12.0427
▁㹽	-12.0427
▁㹾	-12.0427
▁㹿	-12.0427
▁㺀	-12.0427
▁㺁	-12.0427
▁㺂	-12.0427
▁㺃	-12.0427
▁㺄	-12.0427
▁㺅	-12.0427
▁㺆	-12.0427
▁㺇	-12.0427
▁㺈	-12.0427
▁㺉	-12.0427
▁㺊	-12.0427
▁㺋	-12.0427
▁㺌	-12.0427
▁㺎	-12.0427
▁㺏	-12.0427
▁㺐	-12.0427
▁㺑	-12.0427
▁㺒	-12.0427
▁㺓	-12.0427
▁㺔	-12.0427
▁㺕	-12.0427
▁㺖	-12.0427
▁㺗	-12.0427
▁㺘	-12.0427
▁㺙	-12.0427
▁㺚	-12.0427
▁㺛	-12.0427
▁㺜	-12.0427
▁㺝	-12.0427
▁㺞	-12.0427
▁㺟	-12.0427
▁㺠	-12.0427
▁㺡	-12.0427
▁㺢	-12.0427
▁㺢㹢狓	-12.0427
▁㺣	-12.0427
▁㺤	-12.0427
▁㺥	-12.0427
▁㺦	-12.0427
▁㺧	-12.0427
▁㺨	-12.0427
▁㺩	-12.0427
▁㺪	-12.0427
▁㺫	-12.0427
▁㺬	-12.0427
▁㺭	-12.0427
▁㺮	-12.0427
▁㺯	-12.0427
▁㺰	-12.0427
▁㺱	-12.0427
▁㺲	-12.0427
▁㺳	-12.0427
▁㺴	-12.0427
▁㺵	-12.0427
▁㺶	-12.0427
▁㺷	-12.0427
▁㺸	-12.0427
▁㺹	-12.0427
▁㺺	-12.0427
▁㺻	-12.0427
▁㺼	-12.0427
▁㺽	-12.0427
▁㺾	-12.0427
▁㺿	-12.0427
▁㻀	-12.0427
▁㻁	-12.0427
▁㻂	-12.0427
▁㻃	-12.0427
▁㻄	-12.0427
▁㻆	-12.0427
▁㻇	-12.0427
▁㻈	-12.0427
▁㻉	-12.0427
▁㻊	-12.0427
▁㻋	-12.0427
▁㻌	-12.0427
▁㻍	-12.0427
▁㻎	-12.0427
▁㻐	-12.0427
▁㻑	-12.0427
▁㻒	-12.0427
▁㻓	-12.0427
▁㻔	-12.0427
▁㻕	-12.0427
▁㻖	-12.0427
▁㻗	-12.0427
▁㻙	-12.0427
▁㻚	-12.0427
▁㻛	-12.0427
▁㻜	-12.0427
▁㻝	-12.0427
▁㻞	-12.0427
▁㻟	-12.0427
▁㻠	-12.0427
▁㻡	-12.0427
▁㻢	-12.0427
▁㻣	-12.0427
▁㻤	-12.0427
▁㻥	-12.0427
▁㻦	-12.0427
▁㻧	-12.0427
▁㻨	-12.0427
▁㻩	-12.0427
▁㻪	-12.0427
▁㻫	-12.0427
▁㻬	-12.0427
▁㻭	-12.0427
▁㻮	-12.0427
▁㻯	-12.0427
▁㻰	-12.0427
▁㻱	-12.0427
▁㻲	-12.0427
▁㻳	-12.0427
▁㻴	-12.0427
▁㻵	-12.0427
▁㻶	-12.0427
▁㻷	-12.0427
▁㻸	-12.0427
▁㻹	-12.0427
▁㻺	-12.0427
▁㻻	-12.0427
▁㻼	-12.0427
▁㻽	-12.0427
▁㻾	-12.0427
▁㻿	-12.0427
▁㼀	-12.0427
▁㼁	-12.0427
▁㼂	-12.0427
▁㼃	-12.0427
▁㼄	-12.0427
▁㼅	-12.0427
▁㼆	-12.0427
▁㼇	-12.0427
▁㼈	-12.0427
▁㼉	-12.0427
▁㼊	-12.0427
▁㼋	-12.0427
▁㼌	-12.0427
▁㼍	-12.0427
▁㼎	-12.0427
▁㼏	-12.0427
▁㼐	-12.0427
▁㼑	-12.0427
▁㼒	-12.0427
▁㼓	-12.0427
▁㼔	-12.0427
▁㼕	-12.0427
▁㼖	-12.0427
▁㼗	-12.0427
▁㼘	-12.0427
▁㼙	-12.0427
▁㼚	-12.0427
▁㼛	-12.0427
▁㼜	-12.0427
▁㼝	-12.0427
▁㼞	-12.0427
▁㼟	-12.0427
▁㼠	-12.0427
▁㼡	-12.0427
▁㼢	-12.0427
▁㼣	-12.0427
▁㼤	-12.0427
▁㼥	-12.0427
▁㼦	-12.0427
▁㼧	-12.0427
▁㼨	-12.0427
▁㼩	-12.0427
▁㼪	-12.0427
▁㼫	-12.0427
▁㼬	-12.0427
▁㼭	-12.0427
▁㼮	-12.0427
▁㼯	-12.0427
▁㼰	-12.0427
▁㼱	-12.0427
▁㼲	-12.0427
▁㼳	-12.0427
▁㼴	-12.0427
▁㼵	-12.0427
▁㼶	-12.0427
▁㼷	-12.0427
▁㼸	-12.0427
▁㼹	-12.0427
▁㼺	-12.0427
▁㼻	-12.0427
▁㼼	-12.0427
▁㼽	-12.0427
▁㼾	-12.0427
▁㼿	-12.0427
▁㽀	-12.0427
▁㽁	-12.0427
▁㽂	-12.0427
▁㽃	-12.0427
▁㽄	-12.0427
▁㽅	-12.0427
▁㽆	-12.0427
▁㽇	-12.0427
▁㽈	-12.0427
▁㽉	-12.0427
▁㽊	-12.0427
▁㽋	-12.0427
▁㽌	-12.0427
▁㽍	-12.0427
▁㽎	-12.0427
▁㽏	-12.0427
▁㽐	-12.0427
▁㽑	-12.0427
▁㽒	-12.0427
▁㽓	-12.0427
▁㽔	-12.0427
▁㽕	-12.0427
▁㽖	-12.0427
▁㽗	-12.0427
▁㽘	-12.0427
▁㽙	-12.0427
▁㽚	-12.0427
▁㽛	-12.0427
▁㽜	-12.0427
▁㽝	-12.0427
▁㽞	-12.0427
▁㽟	-12.0427
▁㽠	-12.0427
▁㽡	-12.0427
▁㽢	-12.0427
▁㽣	-12.0427
▁㽤	-12.0427
▁㽥	-12.0427
▁㽦	-12.0427
▁㽧	-12.0427
▁㽨	-12.0427
▁㽩	-12.0427
▁㽪	-12.0427
▁㽫	-12.0427
▁㽬	-12.0427
▁㽭	-12.0427
▁㽮	-12.0427
▁㽯	-12.0427
▁㽰	-12.0427
▁㽱	-12.0427
▁㽲	-12.0427
▁㽳	-12.0427
▁㽴	-12.0427
▁㽵	-12.0427
▁㽶	-12.0427
▁㽷	-12.0427
▁㽸	-12.0427
▁㽹	-12.0427
▁㽺	-12.0427
▁㽻	-12.0427
▁㽼	-12.0427
▁㽽	-12.0427
▁㽾	-12.0427
▁㽿	-12.0427
▁㾀	-12.0427
▁㾁	-12.0427
▁㾂	-12.0427
▁㾃	-12.0427
▁㾄	-12.0427
▁㾅	-12.0427
▁㾆	-12.0427
▁㾇	-12.0427
▁㾈	-12.0427
▁㾉	-12.0427
▁㾊	-12.0427
▁㾋	-12.0427
▁㾌	-12.0427
▁㾍	-12.0427
▁㾎	-12.0427
▁㾏	-12.0427
▁㾐	-12.0427
▁㾑	-12.0427
▁㾒	-12.0427
▁㾓	-12.0427
▁㾓㾓䠩䠩	-12.0427
▁㾓㾓痺痺	-12.0427
▁㾓氣	-12.0427
▁㾓痛	-12.0427
▁㾔	-12.0427
▁㾕	-12.0427
▁㾖	-12.0427
▁㾗	-12.0427
▁㾘	-12.0427
▁㾘㾘聲	-12.0427
▁㾙	-12.0427
▁㾚	-12.0427
▁㾛	-12.0427
▁㾜	-12.0427
▁㾝	-12.0427
▁㾞	-12.0427
▁㾟	-12.0427
▁㾠	-12.0427
▁㾡	-12.0427
▁㾢	-12.0427
▁㾣	-12.0427
▁㾤	-12.0427
▁㾥	-12.0427
▁㾦	-12.0427
▁㾧	-12.0427
▁㾨	-12.0427
▁㾩	-12.0427
▁㾪	-12.0427
▁㾫	-12.0427
▁㾬	-12.0427
▁㾭	-12.0427
▁㾮	-12.0427
▁㾯	-12.0427
▁㾰	-12.0427
▁㾱	-12.0427
▁㾲	-12.0427
▁㾳	-12.0427
▁㾴	-12.0427
▁㾵	-12.0427
▁㾶	-12.0427
▁㾷	-12.0427
▁㾸	-12.0427
▁㾹	-12.0427
▁㾺	-12.0427
▁㾻	-12.0427
▁㾼	-12.0427
▁㾽	-12.0427
▁㾾	-12.0427
▁㾿	-12.0427
▁㿀	-12.0427
▁㿁	-12.0427
▁㿂	-12.0427
▁㿃	-12.0427
▁㿄	-12.0427
▁㿅	-12.0427
▁㿆	-12.0427
▁㿇	-12.0427
▁㿈	-12.0427
▁㿉	-12.0427
▁㿊	-12.0427
▁㿋	-12.0427
▁㿌	-12.0427
▁㿍	-12.0427
▁㿎	-12.0427
▁㿏	-12.0427
▁㿐	-12.0427
▁㿑	-12.0427
▁㿒	-12.0427
▁㿓	-12.0427
▁㿔	-12.0427
▁㿕	-12.0427
▁㿖	-12.0427
▁㿗	-12.0427
▁㿘	-12.0427
▁㿙	-12.0427
▁㿚	-12.0427
▁㿛	-12.0427
▁㿜	-12.0427
▁㿝	-12.0427
▁㿞	-12.0427
▁㿟	-12.0427
▁㿠	-12.0427
▁㿡	-12.0427
▁㿢	-12.0427
▁㿣	-12.0427
▁㿤	-12.0427
▁㿥	-12.0427
▁㿦	-12.0427
▁㿧	-12.0427
▁㿨	-12.0427
▁㿩	-12.0427
▁㿪	-12.0427
▁㿫	-12.0427
▁㿬	-12.0427
▁㿭	-12.0427
▁㿮	-12.0427
▁㿯	-12.0427
▁㿰	-12.0427
▁㿱	-12.0427
▁㿲	-12.0427
▁㿳	-12.0427
▁㿴	-12.0427
▁㿵	-12.0427
▁㿶	-12.0427
▁㿷	-12.0427
▁㿸	-12.0427
▁㿹	-12.0427
▁㿺	-12.0427
▁㿺㿭	-12.0427
▁㿻	-12.0427
▁㿼	-12.0427
▁㿽	-12.0427
▁㿾	-12.0427
▁㿿	-12.0427
▁䀀	-12.0427
▁䀁	-12.0427
▁䀂	-12.0427
▁䀃	-12.0427
▁䀄	-12.0427
▁䀅	-12.0427
▁䀆	-12.0427
▁䀇	-12.0427
▁䀈	-12.0427
▁䀉	-12.0427
▁䀊	-12.0427
▁䀋	-12.0427
▁䀌	-12.0427
▁䀍	-12.0427
▁䀎	-12.0427
▁䀏	-12.0427
▁䀐	-12.0427
▁䀑	-12.0427
▁䀒	-12.0427
▁䀓	-12.0427
▁䀔	-12.0427
▁䀕	-12.0427
▁䀖	-12.0427
▁䀗	-12.0427
▁䀘	-12.0427
▁䀙	-12.0427
▁䀚	-12.0427
▁䀛	-12.0427
▁䀜	-12.0427
▁䀝	-12.0427
▁䀞	-12.0427
▁䀟	-12.0427
▁䀠	-12.0427
▁䀡	-12.0427
▁䀢	-12.0427
▁䀣	-12.0427
▁䀤	-12.0427
▁䀦	-12.0427
▁䀧	-12.0427
▁䀨	-12.0427
▁䀩	-12.0427
▁䀪	-12.0427
▁䀫	-12.0427
▁䀬	-12.0427
▁䀭	-12.0427
▁䀮	-12.0427
▁䀯	-12.0427
▁䀰	-12.0427
▁䀱	-12.0427
▁䀲	-12.0427
▁䀳	-12.0427
▁䀴	-12.0427
▁䀵	-12.0427
▁䀶	-12.0427
▁䀷	-12.0427
▁䀸	-12.0427
▁䀹	-12.0427
▁䀺	-12.0427
▁䀻	-12.0427
▁䀼	-12.0427
▁䀽	-12.0427
▁䀾	-12.0427
▁䀿	-12.0427
▁䁀	-12.0427
▁䁁	-12.0427
▁䁂	-12.0427
▁䁃	-12.0427
▁䁄	-12.0427
▁䁅	-12.0427
▁䁅頸	-12.0427
▁䁅𤿆	-12.0427
▁䁆	-12.0427
▁䁇	-12.0427
▁䁈	-12.0427
▁䁉	-12.0427
▁䁊	-12.0427
▁䁋	-12.0427
▁䁋埋眼	-12.0427
▁䁌	-12.0427
▁䁍	-12.0427
▁䁎	-12.0427
▁䁏	-12.0427
▁䁐	-12.0427
▁䁑	-12.0427
▁䁒	-12.0427
▁䁓	-12.0427
▁䁔	-12.0427
▁䁕	-12.0427
▁䁗	-12.0427
▁䁘	-12.0427
▁䁙	-12.0427
▁䁚	-12.0427
▁䁛	-12.0427
▁䁜	-12.0427
▁䁝	-12.0427
▁䁞	-12.0427
▁䁟	-12.0427
▁䁠	-12.0427
▁䁡	-12.0427
▁䁢	-12.0427
▁䁣	-12.0427
▁䁤	-12.0427
▁䁥	-12.0427
▁䁦	-12.0427
▁䁧	-12.0427
▁䁨	-12.0427
▁䁩	-12.0427
▁䁪	-12.0427
▁䁪下	-12.0427
▁䁪下眼	-12.0427
▁䁪下眼就	-12.0427
▁䁪眉䁪眼	-12.0427
▁䁪眼	-12.0427
▁䁫	-12.0427
▁䁬	-12.0427
▁䁭	-12.0427
▁䁮	-12.0427
▁䁯	-12.0427
▁䁰	-12.0427
▁䁱	-12.0427
▁䁲	-12.0427
▁䁳	-12.0427
▁䁴	-12.0427
▁䁵	-12.0427
▁䁶	-12.0427
▁䁷	-12.0427
▁䁸	-12.0427
▁䁹	-12.0427
▁䁺	-12.0427
▁䁻	-12.0427
▁䁼	-12.0427
▁䁽	-12.0427
▁䁽眼	-12.0427
▁䁾	-12.0427
▁䁿	-12.0427
▁䂀	-12.0427
▁䂁	-12.0427
▁䂂	-12.0427
▁䂃	-12.0427
▁䂄	-12.0427
▁䂅	-12.0427
▁䂆	-12.0427
▁䂇	-12.0427
▁䂈	-12.0427
▁䂉	-12.0427
▁䂊	-12.0427
▁䂋	-12.0427
▁䂌	-12.0427
▁䂍	-12.0427
▁䂎	-12.0427
▁䂏	-12.0427
▁䂐	-12.0427
▁䂑	-12.0427
▁䂒	-12.0427
▁䂓	-12.0427
▁䂔	-12.0427
▁䂕	-12.0427
▁䂖	-12.0427
▁䂗	-12.0427
▁䂘	-12.0427
▁䂙	-12.0427
▁䂚	-12.0427
▁䂛	-12.0427
▁䂜	-12.0427
▁䂝	-12.0427
▁䂞	-12.0427
▁䂟	-12.0427
▁䂠	-12.0427
▁䂡	-12.0427
▁䂢	-12.0427
▁䂣	-12.0427
▁䂤	-12.0427
▁䂥	-12.0427
▁䂦	-12.0427
▁䂧	-12.0427
▁䂨	-12.0427
▁䂩	-12.0427
▁䂪	-12.0427
▁䂫	-12.0427
▁䂬	-12.0427
▁䂭	-12.0427
▁䂮	-12.0427
▁䂯	-12.0427
▁䂰	-12.0427
▁䂱	-12.0427
▁䂲	-12.0427
▁䂳	-12.0427
▁䂴	-12.0427
▁䂶	-12.0427
▁䂷	-12.0427
▁䂸	-12.0427
▁䂹	-12.0427
▁䂺	-12.0427
▁䂻	-12.0427
▁䂻死	-12.0427
▁䂻牙罅	-12.0427
▁䂻飽	-12.0427
▁䂼	-12.0427
▁䂽	-12.0427
▁䂾	-12.0427
▁䂿	-12.0427
▁䂿䂿趯	-12.0427
▁䂿地	-12.0427
▁䂿腳	-12.0427
▁䂿骨	-12.0427
▁䃀	-12.0427
▁䃁	-12.0427
▁䃂	-12.0427
▁䃃	-12.0427
▁䃄	-12.0427
▁䃆	-12.0427
▁䃇	-12.0427
▁䃈	-12.0427
▁䃉	-12.0427
▁䃊	-12.0427
▁䃋	-12.0427
▁䃌	-12.0427
▁䃍	-12.0427
▁䃎	-12.0427
▁䃏	-12.0427
▁䃐	-12.0427
▁䃑	-12.0427
▁䃒	-12.0427
▁䃓	-12.0427
▁䃔	-12.0427
▁䃕	-12.0427
▁䃖	-12.0427
▁䃗	-12.0427
▁䃘	-12.0427
▁䃙	-12.0427
▁䃚	-12.0427
▁䃛	-12.0427
▁䃜	-12.0427
▁䃝	-12.0427
▁䃞	-12.0427
▁䃟	-12.0427
▁䃠	-12.0427
▁䃡	-12.0427
▁䃢	-12.0427
▁䃣	-12.0427
▁䃤	-12.0427
▁䃥	-12.0427
▁䃦	-12.0427
▁䃧	-12.0427
▁䃨	-12.0427
▁䃩	-12.0427
▁䃪	-12.0427
▁䃫	-12.0427
▁䃬	-12.0427
▁䃭	-12.0427
▁䃮	-12.0427
▁䃯	-12.0427
▁䃰	-12.0427
▁䃱	-12.0427
▁䃲	-12.0427
▁䃳	-12.0427
▁䃴	-12.0427
▁䃵	-12.0427
▁䃶	-12.0427
▁䃷	-12.0427
▁䃸	-12.0427
▁䃹	-12.0427
▁䃺	-12.0427
▁䃻	-12.0427
▁䃼	-12.0427
▁䃽	-12.0427
▁䃾	-12.0427
▁䃿	-12.0427
▁䄀	-12.0427
▁䄁	-12.0427
▁䄂	-12.0427
▁䄃	-12.0427
▁䄄	-12.0427
▁䄅	-12.0427
▁䄆	-12.0427
▁䄇	-12.0427
▁䄈	-12.0427
▁䄉	-12.0427
▁䄊	-12.0427
▁䄋	-12.0427
▁䄌	-12.0427
▁䄍	-12.0427
▁䄎	-12.0427
▁䄏	-12.0427
▁䄐	-12.0427
▁䄑	-12.0427
▁䄒	-12.0427
▁䄓	-12.0427
▁䄔	-12.0427
▁䄕	-12.0427
▁䄖	-12.0427
▁䄗	-12.0427
▁䄘	-12.0427
▁䄙	-12.0427
▁䄚	-12.0427
▁䄛	-12.0427
▁䄜	-12.0427
▁䄝	-12.0427
▁䄞	-12.0427
▁䄟	-12.0427
▁䄠	-12.0427
▁䄡	-12.0427
▁䄢	-12.0427
▁䄣	-12.0427
▁䄤	-12.0427
▁䄥	-12.0427
▁䄦	-12.0427
▁䄧	-12.0427
▁䄨	-12.0427
▁䄩	-12.0427
▁䄪	-12.0427
▁䄫	-12.0427
▁䄬	-12.0427
▁䄭	-12.0427
▁䄮	-12.0427
▁䄯	-12.0427
▁䄰	-12.0427
▁䄱	-12.0427
▁䄲	-12.0427
▁䄳	-12.0427
▁䄴	-12.0427
▁䄵	-12.0427
▁䄶	-12.0427
▁䄷	-12.0427
▁䄸	-12.0427
▁䄹	-12.0427
▁䄺	-12.0427
▁䄻	-12.0427
▁䄼	-12.0427
▁䄽	-12.0427
▁䄾	-12.0427
▁䄿	-12.0427
▁䅀	-12.0427
▁䅁	-12.0427
▁䅂	-12.0427
▁䅃	-12.0427
▁䅄	-12.0427
▁䅅	-12.0427
▁䅆	-12.0427
▁䅇	-12.0427
▁䅈	-12.0427
▁䅊	-12.0427
▁䅋	-12.0427
▁䅌	-12.0427
▁䅍	-12.0427
▁䅎	-12.0427
▁䅏	-12.0427
▁䅐	-12.0427
▁䅑	-12.0427
▁䅒	-12.0427
▁䅓	-12.0427
▁䅔	-12.0427
▁䅕	-12.0427
▁䅖	-12.0427
▁䅗	-12.0427
▁䅘	-12.0427
▁䅙	-12.0427
▁䅚	-12.0427
▁䅛	-12.0427
▁䅜	-12.0427
▁䅝	-12.0427
▁䅞	-12.0427
▁䅠	-12.0427
▁䅡	-12.0427
▁䅢	-12.0427
▁䅣	-12.0427
▁䅤	-12.0427
▁䅥	-12.0427
▁䅦	-12.0427
▁䅧	-12.0427
▁䅨	-12.0427
▁䅩	-12.0427
▁䅫	-12.0427
▁䅬	-12.0427
▁䅭	-12.0427
▁䅮	-12.0427
▁䅯	-12.0427
▁䅰	-12.0427
▁䅱	-12.0427
▁䅲	-12.0427
▁䅳	-12.0427
▁䅴	-12.0427
▁䅵	-12.0427
▁䅶	-12.0427
▁䅷	-12.0427
▁䅸	-12.0427
▁䅹	-12.0427
▁䅺	-12.0427
▁䅻	-12.0427
▁䅼	-12.0427
▁䅽	-12.0427
▁䅾	-12.0427
▁䅿	-12.0427
▁䆀	-12.0427
▁䆁	-12.0427
▁䆂	-12.0427
▁䆃	-12.0427
▁䆄	-12.0427
▁䆅	-12.0427
▁䆆	-12.0427
▁䆇	-12.0427
▁䆈	-12.0427
▁䆉	-12.0427
▁䆊	-12.0427
▁䆋	-12.0427
▁䆌	-12.0427
▁䆍	-12.0427
▁䆎	-12.0427
▁䆏	-12.0427
▁䆐	-12.0427
▁䆑	-12.0427
▁䆒	-12.0427
▁䆓	-12.0427
▁䆔	-12.0427
▁䆕	-12.0427
▁䆖	-12.0427
▁䆗	-12.0427
▁䆘	-12.0427
▁䆙	-12.0427
▁䆚	-12.0427
▁䆛	-12.0427
▁䆜	-12.0427
▁䆝	-12.0427
▁䆞	-12.0427
▁䆟	-12.0427
▁䆠	-12.0427
▁䆡	-12.0427
▁䆢	-12.0427
▁䆣	-12.0427
▁䆤	-12.0427
▁䆥	-12.0427
▁䆦	-12.0427
▁䆧	-12.0427
▁䆨	-12.0427
▁䆩	-12.0427
▁䆪	-12.0427
▁䆫	-12.0427
▁䆬	-12.0427
▁䆭	-12.0427
▁䆮	-12.0427
▁䆯	-12.0427
▁䆰	-12.0427
▁䆱	-12.0427
▁䆲	-12.0427
▁䆲䆡	-12.0427
▁䆳	-12.0427
▁䆴	-12.0427
▁䆵	-12.0427
▁䆶	-12.0427
▁䆷	-12.0427
▁䆸	-12.0427
▁䆹	-12.0427
▁䆺	-12.0427
▁䆻	-12.0427
▁䆼	-12.0427
▁䆽	-12.0427
▁䆾	-12.0427
▁䆿	-12.0427
▁䇀	-12.0427
▁䇁	-12.0427
▁䇂	-12.0427
▁䇃	-12.0427
▁䇄	-12.0427
▁䇅	-12.0427
▁䇆	-12.0427
▁䇇	-12.0427
▁䇈	-12.0427
▁䇉	-12.0427
▁䇊	-12.0427
▁䇋	-12.0427
▁䇌	-12.0427
▁䇍	-12.0427
▁䇎	-12.0427
▁䇏	-12.0427
▁䇐	-12.0427
▁䇑	-12.0427
▁䇒	-12.0427
▁䇓	-12.0427
▁䇔	-12.0427
▁䇕	-12.0427
▁䇖	-12.0427
▁䇗	-12.0427
▁䇘	-12.0427
▁䇙	-12.0427
▁䇚	-12.0427
▁䇛	-12.0427
▁䇜	-12.0427
▁䇝	-12.0427
▁䇞	-12.0427
▁䇟	-12.0427
▁䇠	-12.0427
▁䇡	-12.0427
▁䇢	-12.0427
▁䇣	-12.0427
▁䇤	-12.0427
▁䇥	-12.0427
▁䇦	-12.0427
▁䇧	-12.0427
▁䇨	-12.0427
▁䇩	-12.0427
▁䇪	-12.0427
▁䇫	-12.0427
▁䇬	-12.0427
▁䇭	-12.0427
▁䇮	-12.0427
▁䇯	-12.0427
▁䇰	-12.0427
▁䇱	-12.0427
▁䇳	-12.0427
▁䇴	-12.0427
▁䇵	-12.0427
▁䇶	-12.0427
▁䇷	-12.0427
▁䇸	-12.0427
▁䇹	-12.0427
▁䇺	-12.0427
▁䇻	-12.0427
▁䇼	-12.0427
▁䇽	-12.0427
▁䇾	-12.0427
▁䇿	-12.0427
▁䈀	-12.0427
▁䈁	-12.0427
▁䈂	-12.0427
▁䈃	-12.0427
▁䈄	-12.0427
▁䈅	-12.0427
▁䈆	-12.0427
▁䈇	-12.0427
▁䈈	-12.0427
▁䈉	-12.0427
▁䈊	-12.0427
▁䈋	-12.0427
▁䈌	-12.0427
▁䈍	-12.0427
▁䈎	-12.0427
▁䈏	-12.0427
▁䈐	-12.0427
▁䈑	-12.0427
▁䈒	-12.0427
▁䈓	-12.0427
▁䈔	-12.0427
▁䈕	-12.0427
▁䈖	-12.0427
▁䈗	-12.0427
▁䈘	-12.0427
▁䈙	-12.0427
▁䈚	-12.0427
▁䈛	-12.0427
▁䈜	-12.0427
▁䈝	-12.0427
▁䈞	-12.0427
▁䈟	-12.0427
▁䈠	-12.0427
▁䈡	-12.0427
▁䈢	-12.0427
▁䈣	-12.0427
▁䈤	-12.0427
▁䈥	-12.0427
▁䈦	-12.0427
▁䈧	-12.0427
▁䈨	-12.0427
▁䈩	-12.0427
▁䈪	-12.0427
▁䈫	-12.0427
▁䈬	-12.0427
▁䈭	-12.0427
▁䈮	-12.0427
▁䈯	-12.0427
▁䈰	-12.0427
▁䈱	-12.0427
▁䈲	-12.0427
▁䈳	-12.0427
▁䈴	-12.0427
▁䈵	-12.0427
▁䈶	-12.0427
▁䈷	-12.0427
▁䈸	-12.0427
▁䈹	-12.0427
▁䈺	-12.0427
▁䈻	-12.0427
▁䈼	-12.0427
▁䈽	-12.0427
▁䈾	-12.0427
▁䈿	-12.0427
▁䉀	-12.0427
▁䉁	-12.0427
▁䉂	-12.0427
▁䉃	-12.0427
▁䉄	-12.0427
▁䉅	-12.0427
▁䉆	-12.0427
▁䉇	-12.0427
▁䉈	-12.0427
▁䉉	-12.0427
▁䉊	-12.0427
▁䉋	-12.0427
▁䉌	-12.0427
▁䉍	-12.0427
▁䉎	-12.0427
▁䉏	-12.0427
▁䉐	-12.0427
▁䉑	-12.0427
▁䉒	-12.0427
▁䉓	-12.0427
▁䉔	-12.0427
▁䉕	-12.0427
▁䉖	-12.0427
▁䉗	-12.0427
▁䉘	-12.0427
▁䉙	-12.0427
▁䉚	-12.0427
▁䉛	-12.0427
▁䉜	-12.0427
▁䉝	-12.0427
▁䉞	-12.0427
▁䉟	-12.0427
▁䉠	-12.0427
▁䉡	-12.0427
▁䉢	-12.0427
▁䉣	-12.0427
▁䉥	-12.0427
▁䉦	-12.0427
▁䉧	-12.0427
▁䉨	-12.0427
▁䉩	-12.0427
▁䉪	-12.0427
▁䉫	-12.0427
▁䉬	-12.0427
▁䉭	-12.0427
▁䉮	-12.0427
▁䉯	-12.0427
▁䉰	-12.0427
▁䉱	-12.0427
▁䉲	-12.0427
▁䉳	-12.0427
▁䉴	-12.0427
▁䉵	-12.0427
▁䉶	-12.0427
▁䉷	-12.0427
▁䉸	-12.0427
▁䉹	-12.0427
▁䉺	-12.0427
▁䉻	-12.0427
▁䉼	-12.0427
▁䉽	-12.0427
▁䉾	-12.0427
▁䉿	-12.0427
▁䊀	-12.0427
▁䊁	-12.0427
▁䊂	-12.0427
▁䊃	-12.0427
▁䊄	-12.0427
▁䊅	-12.0427
▁䊆	-12.0427
▁䊇	-12.0427
▁䊈	-12.0427
▁䊉	-12.0427
▁䊊	-12.0427
▁䊋	-12.0427
▁䊌	-12.0427
▁䊍	-12.0427
▁䊎	-12.0427
▁䊏	-12.0427
▁䊐	-12.0427
▁䊑	-12.0427
▁䊒	-12.0427
▁䊓	-12.0427
▁䊔	-12.0427
▁䊕	-12.0427
▁䊖	-12.0427
▁䊗	-12.0427
▁䊘	-12.0427
▁䊙	-12.0427
▁䊚	-12.0427
▁䊛	-12.0427
▁䊜	-12.0427
▁䊝	-12.0427
▁䊞	-12.0427
▁䊟	-12.0427
▁䊠	-12.0427
▁䊡	-12.0427
▁䊢	-12.0427
▁䊣	-12.0427
▁䊤	-12.0427
▁䊥	-12.0427
▁䊦	-12.0427
▁䊧	-12.0427
▁䊨	-12.0427
▁䊩	-12.0427
▁䊪	-12.0427
▁䊫	-12.0427
▁䊬	-12.0427
▁䊭	-12.0427
▁䊮	-12.0427
▁䊯	-12.0427
▁䊰	-12.0427
▁䊱	-12.0427
▁䊲	-12.0427
▁䊳	-12.0427
▁䊴	-12.0427
▁䊵	-12.0427
▁䊶	-12.0427
▁䊷	-12.0427
▁䊸	-12.0427
▁䊹	-12.0427
▁䊺	-12.0427
▁䊻	-12.0427
▁䊼	-12.0427
▁䊽	-12.0427
▁䊾	-12.0427
▁䊿	-12.0427
▁䋀	-12.0427
▁䋁	-12.0427
▁䋂	-12.0427
▁䋃	-12.0427
▁䋄	-12.0427
▁䋅	-12.0427
▁䋆	-12.0427
▁䋇	-12.0427
▁䋈	-12.0427
▁䋉	-12.0427
▁䋊	-12.0427
▁䋋	-12.0427
▁䋌	-12.0427
▁䋍	-12.0427
▁䋎	-12.0427
▁䋏	-12.0427
▁䋐	-12.0427
▁䋑	-12.0427
▁䋒	-12.0427
▁䋓	-12.0427
▁䋔	-12.0427
▁䋕	-12.0427
▁䋖	-12.0427
▁䋗	-12.0427
▁䋘	-12.0427
▁䋙	-12.0427
▁䋚	-12.0427
▁䋛	-12.0427
▁䋜	-12.0427
▁䋝	-12.0427
▁䋞	-12.0427
▁䋟	-12.0427
▁䋠	-12.0427
▁䋡	-12.0427
▁䋢	-12.0427
▁䋣	-12.0427
▁䋤	-12.0427
▁䋥	-12.0427
▁䋦	-12.0427
▁䋧	-12.0427
▁䋨	-12.0427
▁䋩	-12.0427
▁䋪	-12.0427
▁䋫	-12.0427
▁䋬	-12.0427
▁䋭	-12.0427
▁䋮	-12.0427
▁䋯	-12.0427
▁䋰	-12.0427
▁䋱	-12.0427
▁䋲	-12.0427
▁䋳	-12.0427
▁䋴	-12.0427
▁䋵	-12.0427
▁䋶	-12.0427
▁䋷	-12.0427
▁䋸	-12.0427
▁䋹	-12.0427
▁䋺	-12.0427
▁䋻	-12.0427
▁䋼	-12.0427
▁䋽	-12.0427
▁䋾	-12.0427
▁䋿	-12.0427
▁䌀	-12.0427
▁䌁	-12.0427
▁䌂	-12.0427
▁䌃	-12.0427
▁䌄	-12.0427
▁䌅	-12.0427
▁䌆	-12.0427
▁䌇	-12.0427
▁䌈	-12.0427
▁䌉	-12.0427
▁䌊	-12.0427
▁䌋	-12.0427
▁䌌	-12.0427
▁䌍	-12.0427
▁䌎	-12.0427
▁䌏	-12.0427
▁䌐	-12.0427
▁䌑	-12.0427
▁䌒	-12.0427
▁䌓	-12.0427
▁䌔	-12.0427
▁䌕	-12.0427
▁䌖	-12.0427
▁䌗	-12.0427
▁䌘	-12.0427
▁䌙	-12.0427
▁䌚	-12.0427
▁䌛	-12.0427
▁䌜	-12.0427
▁䌝	-12.0427
▁䌞	-12.0427
▁䌟	-12.0427
▁䌠	-12.0427
▁䌡	-12.0427
▁䌢	-12.0427
▁䌣	-12.0427
▁䌤	-12.0427
▁䌥	-12.0427
▁䌦	-12.0427
▁䌧	-12.0427
▁䌨	-12.0427
▁䌩	-12.0427
▁䌪	-12.0427
▁䌫	-12.0427
▁䌬	-12.0427
▁䌭	-12.0427
▁䌮	-12.0427
▁䌯	-12.0427
▁䌰	-12.0427
▁䌱	-12.0427
▁䌲	-12.0427
▁䌳	-12.0427
▁䌴	-12.0427
▁䌵	-12.0427
▁䍂	-12.0427
▁䍃	-12.0427
▁䍄	-12.0427
▁䍅	-12.0427
▁䍆	-12.0427
▁䍇	-12.0427
▁䍈	-12.0427
▁䍉	-12.0427
▁䍊	-12.0427
▁䍋	-12.0427
▁䍌	-12.0427
▁䍍	-12.0427
▁䍎	-12.0427
▁䍏	-12.0427
▁䍐	-12.0427
▁䍑	-12.0427
▁䍒	-12.0427
▁䍓	-12.0427
▁䍔	-12.0427
▁䍕	-12.0427
▁䍖	-12.0427
▁䍗	-12.0427
▁䍘	-12.0427
▁䍙	-12.0427
▁䍚	-12.0427
▁䍛	-12.0427
▁䍜	-12.0427
▁䍝	-12.0427
▁䍞	-12.0427
▁䍟	-12.0427
▁䍡	-12.0427
▁䍢	-12.0427
▁䍣	-12.0427
▁䍤	-12.0427
▁䍥	-12.0427
▁䍦	-12.0427
▁䍧	-12.0427
▁䍨	-12.0427
▁䍩	-12.0427
▁䍪	-12.0427
▁䍫	-12.0427
▁䍬	-12.0427
▁䍭	-12.0427
▁䍮	-12.0427
▁䍯	-12.0427
▁䍰	-12.0427
▁䍱	-12.0427
▁䍲	-12.0427
▁䍳	-12.0427
▁䍴	-12.0427
▁䍵	-12.0427
▁䍶	-12.0427
▁䍷	-12.0427
▁䍸	-12.0427
▁䍹	-12.0427
▁䍺	-12.0427
▁䍻	-12.0427
▁䍼	-12.0427
▁䍽	-12.0427
▁䍾	-12.0427
▁䍿	-12.0427
▁䎀	-12.0427
▁䎁	-12.0427
▁䎂	-12.0427
▁䎃	-12.0427
▁䎄	-12.0427
▁䎅	-12.0427
▁䎆	-12.0427
▁䎇	-12.0427
▁䎈	-12.0427
▁䎉	-12.0427
▁䎊	-12.0427
▁䎋	-12.0427
▁䎌	-12.0427
▁䎍	-12.0427
▁䎎	-12.0427
▁䎏	-12.0427
▁䎐	-12.0427
▁䎑	-12.0427
▁䎒	-12.0427
▁䎓	-12.0427
▁䎔	-12.0427
▁䎕	-12.0427
▁䎖	-12.0427
▁䎗	-12.0427
▁䎘	-12.0427
▁䎙	-12.0427
▁䎚	-12.0427
▁䎛	-12.0427
▁䎜	-12.0427
▁䎝	-12.0427
▁䎞	-12.0427
▁䎟	-12.0427
▁䎠	-12.0427
▁䎡	-12.0427
▁䎢	-12.0427
▁䎣	-12.0427
▁䎤	-12.0427
▁䎥	-12.0427
▁䎦	-12.0427
▁䎧	-12.0427
▁䎨	-12.0427
▁䎩	-12.0427
▁䎪	-12.0427
▁䎫	-12.0427
▁䎭	-12.0427
▁䎮	-12.0427
▁䎯	-12.0427
▁䎰	-12.0427
▁䎱	-12.0427
▁䎲	-12.0427
▁䎳	-12.0427
▁䎴	-12.0427
▁䎵	-12.0427
▁䎶	-12.0427
▁䎷	-12.0427
▁䎸	-12.0427
▁䎹	-12.0427
▁䎺	-12.0427
▁䎻	-12.0427
▁䎼	-12.0427
▁䎽	-12.0427
▁䎾	-12.0427
▁䎿	-12.0427
▁䏀	-12.0427
▁䏁	-12.0427
▁䏂	-12.0427
▁䏃	-12.0427
▁䏄	-12.0427
▁䏅	-12.0427
▁䏆	-12.0427
▁䏇	-12.0427
▁䏈	-12.0427
▁䏉	-12.0427
▁䏊	-12.0427
▁䏋	-12.0427
▁䏌	-12.0427
▁䏍	-12.0427
▁䏎	-12.0427
▁䏏	-12.0427
▁䏐	-12.0427
▁䏑	-12.0427
▁䏒	-12.0427
▁䏓	-12.0427
▁䏔	-12.0427
▁䏕	-12.0427
▁䏖	-12.0427
▁䏗	-12.0427
▁䏘	-12.0427
▁䏙	-12.0427
▁䏚	-12.0427
▁䏛	-12.0427
▁䏜	-12.0427
▁䏞	-12.0427
▁䏟	-12.0427
▁䏠	-12.0427
▁䏡	-12.0427
▁䏢	-12.0427
▁䏣	-12.0427
▁䏤	-12.0427
▁䏥	-12.0427
▁䏦	-12.0427
▁䏧	-12.0427
▁䏨	-12.0427
▁䏩	-12.0427
▁䏪	-12.0427
▁䏫	-12.0427
▁䏬	-12.0427
▁䏭	-12.0427
▁䏮	-12.0427
▁䏯	-12.0427
▁䏰	-12.0427
▁䏱	-12.0427
▁䏲	-12.0427
▁䏳	-12.0427
▁䏴	-12.0427
▁䏵	-12.0427
▁䏶	-12.0427
▁䏷	-12.0427
▁䏸	-12.0427
▁䏹	-12.0427
▁䏺	-12.0427
▁䏻	-12.0427
▁䏼	-12.0427
▁䏽	-12.0427
▁䏾	-12.0427
▁䏿	-12.0427
▁䐀	-12.0427
▁䐁	-12.0427
▁䐂	-12.0427
▁䐃	-12.0427
▁䐄	-12.0427
▁䐅	-12.0427
▁䐆	-12.0427
▁䐇	-12.0427
▁䐈	-12.0427
▁䐉	-12.0427
▁䐊	-12.0427
▁䐋	-12.0427
▁䐌	-12.0427
▁䐍	-12.0427
▁䐎	-12.0427
▁䐏	-12.0427
▁䐐	-12.0427
▁䐑	-12.0427
▁䐒	-12.0427
▁䐓	-12.0427
▁䐔	-12.0427
▁䐕	-12.0427
▁䐖	-12.0427
▁䐗	-12.0427
▁䐘	-12.0427
▁䐙	-12.0427
▁䐚	-12.0427
▁䐛	-12.0427
▁䐜	-12.0427
▁䐝	-12.0427
▁䐞	-12.0427
▁䐟	-12.0427
▁䐠	-12.0427
▁䐡	-12.0427
▁䐢	-12.0427
▁䐣	-12.0427
▁䐤	-12.0427
▁䐥	-12.0427
▁䐦	-12.0427
▁䐧	-12.0427
▁䐨	-12.0427
▁䐩	-12.0427
▁䐪	-12.0427
▁䐫	-12.0427
▁䐬	-12.0427
▁䐭	-12.0427
▁䐮	-12.0427
▁䐯	-12.0427
▁䐰	-12.0427
▁䐱	-12.0427
▁䐲	-12.0427
▁䐳	-12.0427
▁䐴	-12.0427
▁䐵	-12.0427
▁䐶	-12.0427
▁䐷	-12.0427
▁䐸	-12.0427
▁䐹	-12.0427
▁䐺	-12.0427
▁䐻	-12.0427
▁䐼	-12.0427
▁䐽	-12.0427
▁䐾	-12.0427
▁䐿	-12.0427
▁䑀	-12.0427
▁䑁	-12.0427
▁䑂	-12.0427
▁䑃	-12.0427
▁䑄	-12.0427
▁䑅	-12.0427
▁䑆	-12.0427
▁䑇	-12.0427
▁䑈	-12.0427
▁䑉	-12.0427
▁䑊	-12.0427
▁䑋	-12.0427
▁䑌	-12.0427
▁䑍	-12.0427
▁䑎	-12.0427
▁䑏	-12.0427
▁䑐	-12.0427
▁䑑	-12.0427
▁䑒	-12.0427
▁䑓	-12.0427
▁䑔	-12.0427
▁䑕	-12.0427
▁䑖	-12.0427
▁䑗	-12.0427
▁䑘	-12.0427
▁䑙	-12.0427
▁䑚	-12.0427
▁䑛	-12.0427
▁䑜	-12.0427
▁䑜糖	-12.0427
▁䑝	-12.0427
▁䑞	-12.0427
▁䑟	-12.0427
▁䑠	-12.0427
▁䑡	-12.0427
▁䑢	-12.0427
▁䑣	-12.0427
▁䑤	-12.0427
▁䑥	-12.0427
▁䑦	-12.0427
▁䑧	-12.0427
▁䑨	-12.0427
▁䑩	-12.0427
▁䑪	-12.0427
▁䑫	-12.0427
▁䑬	-12.0427
▁䑭	-12.0427
▁䑮	-12.0427
▁䑯	-12.0427
▁䑰	-12.0427
▁䑱	-12.0427
▁䑲	-12.0427
▁䑳	-12.0427
▁䑴	-12.0427
▁䑵	-12.0427
▁䑶	-12.0427
▁䑷	-12.0427
▁䑸	-12.0427
▁䑹	-12.0427
▁䑺	-12.0427
▁䑻	-12.0427
▁䑼	-12.0427
▁䑾	-12.0427
▁䑿	-12.0427
▁䒀	-12.0427
▁䒁	-12.0427
▁䒂	-12.0427
▁䒃	-12.0427
▁䒄	-12.0427
▁䒅	-12.0427
▁䒆	-12.0427
▁䒇	-12.0427
▁䒈	-12.0427
▁䒉	-12.0427
▁䒊	-12.0427
▁䒋	-12.0427
▁䒌	-12.0427
▁䒍	-12.0427
▁䒎	-12.0427
▁䒏	-12.0427
▁䒐	-12.0427
▁䒐䒏	-12.0427
▁䒑	-12.0427
▁䒒	-12.0427
▁䒓	-12.0427
▁䒔	-12.0427
▁䒕	-12.0427
▁䒖	-12.0427
▁䒗	-12.0427
▁䒘	-12.0427
▁䒙	-12.0427
▁䒚	-12.0427
▁䒛	-12.0427
▁䒜	-12.0427
▁䒝	-12.0427
▁䒞	-12.0427
▁䒟	-12.0427
▁䒠	-12.0427
▁䒡	-12.0427
▁䒢	-12.0427
▁䒣	-12.0427
▁䒤	-12.0427
▁䒥	-12.0427
▁䒦	-12.0427
▁䒧	-12.0427
▁䒨	-12.0427
▁䒩	-12.0427
▁䒪	-12.0427
▁䒫	-12.0427
▁䒬	-12.0427
▁䒭	-12.0427
▁䒮	-12.0427
▁䒯	-12.0427
▁䒰	-12.0427
▁䒱	-12.0427
▁䒲	-12.0427
▁䒳	-12.0427
▁䒴	-12.0427
▁䒵	-12.0427
▁䒶	-12.0427
▁䒷	-12.0427
▁䒸	-12.0427
▁䒹	-12.0427
▁䒺	-12.0427
▁䒻	-12.0427
▁䒼	-12.0427
▁䒽	-12.0427
▁䒾	-12.0427
▁䒿	-12.0427
▁䓀	-12.0427
▁䓁	-12.0427
▁䓂	-12.0427
▁䓃	-12.0427
▁䓄	-12.0427
▁䓅	-12.0427
▁䓆	-12.0427
▁䓇	-12.0427
▁䓈	-12.0427
▁䓉	-12.0427
▁䓊	-12.0427
▁䓋	-12.0427
▁䓌	-12.0427
▁䓍	-12.0427
▁䓎	-12.0427
▁䓏	-12.0427
▁䓐	-12.0427
▁䓑	-12.0427
▁䓒	-12.0427
▁䓔	-12.0427
▁䓗	-12.0427
▁䓘	-12.0427
▁䓙	-12.0427
▁䓚	-12.0427
▁䓛	-12.0427
▁䓜	-12.0427
▁䓝	-12.0427
▁䓞	-12.0427
▁䓟	-12.0427
▁䓠	-12.0427
▁䓡	-12.0427
▁䓢	-12.0427
▁䓣	-12.0427
▁䓤	-12.0427
▁䓤油餅	-12.0427
▁䓥	-12.0427
▁䓦	-12.0427
▁䓧	-12.0427
▁䓩	-12.0427
▁䓪	-12.0427
▁䓫	-12.0427
▁䓬	-12.0427
▁䓭	-12.0427
▁䓮	-12.0427
▁䓯	-12.0427
▁䓰	-12.0427
▁䓱	-12.0427
▁䓲	-12.0427
▁䓳	-12.0427
▁䓴	-12.0427
▁䓵	-12.0427
▁䓶	-12.0427
▁䓷	-12.0427
▁䓸	-12.0427
▁䓹	-12.0427
▁䓺	-12.0427
▁䓻	-12.0427
▁䓼	-12.0427
▁䓽	-12.0427
▁䓾	-12.0427
▁䓿	-12.0427
▁䔀	-12.0427
▁䔁	-12.0427
▁䔂	-12.0427
▁䔃	-12.0427
▁䔄	-12.0427
▁䔅	-12.0427
▁䔆	-12.0427
▁䔇	-12.0427
▁䔈	-12.0427
▁䔉	-12.0427
▁䔊	-12.0427
▁䔋	-12.0427
▁䔌	-12.0427
▁䔍	-12.0427
▁䔎	-12.0427
▁䔏	-12.0427
▁䔐	-12.0427
▁䔑	-12.0427
▁䔒	-12.0427
▁䔓	-12.0427
▁䔔	-12.0427
▁䔕	-12.0427
▁䔖	-12.0427
▁䔗	-12.0427
▁䔘	-12.0427
▁䔙	-12.0427
▁䔚	-12.0427
▁䔛	-12.0427
▁䔜	-12.0427
▁䔝	-12.0427
▁䔞	-12.0427
▁䔟	-12.0427
▁䔠	-12.0427
▁䔡	-12.0427
▁䔢	-12.0427
▁䔣	-12.0427
▁䔤	-12.0427
▁䔥	-12.0427
▁䔦	-12.0427
▁䔧	-12.0427
▁䔨	-12.0427
▁䔩	-12.0427
▁䔪	-12.0427
▁䔫	-12.0427
▁䔬	-12.0427
▁䔭	-12.0427
▁䔮	-12.0427
▁䔯	-12.0427
▁䔰	-12.0427
▁䔱	-12.0427
▁䔲	-12.0427
▁䔳	-12.0427
▁䔴	-12.0427
▁䔵	-12.0427
▁䔶	-12.0427
▁䔷	-12.0427
▁䔸	-12.0427
▁䔹	-12.0427
▁䔺	-12.0427
▁䔻	-12.0427
▁䔼	-12.0427
▁䔽	-12.0427
▁䔾	-12.0427
▁䔿	-12.0427
▁䕀	-12.0427
▁䕁	-12.0427
▁䕂	-12.0427
▁䕃	-12.0427
▁䕄	-12.0427
▁䕅	-12.0427
▁䕆	-12.0427
▁䕇	-12.0427
▁䕈	-12.0427
▁䕉	-12.0427
▁䕊	-12.0427
▁䕋	-12.0427
▁䕌	-12.0427
▁䕍	-12.0427
▁䕎	-12.0427
▁䕏	-12.0427
▁䕐	-12.0427
▁䕑	-12.0427
▁䕒	-12.0427
▁䕓	-12.0427
▁䕔	-12.0427
▁䕕	-12.0427
▁䕖	-12.0427
▁䕗	-12.0427
▁䕘	-12.0427
▁䕙	-12.0427
▁䕚	-12.0427
▁䕛	-12.0427
▁䕜	-12.0427
▁䕝	-12.0427
▁䕞	-12.0427
▁䕟	-12.0427
▁䕠	-12.0427
▁䕡	-12.0427
▁䕢	-12.0427
▁䕣	-12.0427
▁䕤	-12.0427
▁䕥	-12.0427
▁䕦	-12.0427
▁䕧	-12.0427
▁䕨	-12.0427
▁䕩	-12.0427
▁䕪	-12.0427
▁䕫	-12.0427
▁䕬	-12.0427
▁䕭	-12.0427
▁䕮	-12.0427
▁䕯	-12.0427
▁䕰	-12.0427
▁䕱	-12.0427
▁䕲	-12.0427
▁䕳	-12.0427
▁䕴	-12.0427
▁䕵	-12.0427
▁䕶	-12.0427
▁䕷	-12.0427
▁䕸	-12.0427
▁䕹	-12.0427
▁䕺	-12.0427
▁䕻	-12.0427
▁䕼	-12.0427
▁䕽	-12.0427
▁䕾	-12.0427
▁䕿	-12.0427
▁䖀	-12.0427
▁䖁	-12.0427
▁䖂	-12.0427
▁䖃	-12.0427
▁䖄	-12.0427
▁䖅	-12.0427
▁䖆	-12.0427
▁䖇	-12.0427
▁䖈	-12.0427
▁䖉	-12.0427
▁䖊	-12.0427
▁䖋	-12.0427
▁䖌	-12.0427
▁䖍	-12.0427
▁䖎	-12.0427
▁䖏	-12.0427
▁䖐	-12.0427
▁䖑	-12.0427
▁䖒	-12.0427
▁䖓	-12.0427
▁䖔	-12.0427
▁䖕	-12.0427
▁䖖	-12.0427
▁䖗	-12.0427
▁䖘	-12.0427
▁䖙	-12.0427
▁䖚	-12.0427
▁䖛	-12.0427
▁䖜	-12.0427
▁䖝	-12.0427
▁䖞	-12.0427
▁䖟	-12.0427
▁䖠	-12.0427
▁䖡	-12.0427
▁䖢	-12.0427
▁䖣	-12.0427
▁䖤	-12.0427
▁䖥	-12.0427
▁䖦	-12.0427
▁䖧	-12.0427
▁䖨	-12.0427
▁䖩	-12.0427
▁䖪	-12.0427
▁䖫	-12.0427
▁䖬	-12.0427
▁䖭	-12.0427
▁䖮	-12.0427
▁䖯	-12.0427
▁䖰	-12.0427
▁䖱	-12.0427
▁䖲	-12.0427
▁䖳	-12.0427
▁䖴	-12.0427
▁䖵	-12.0427
▁䖶	-12.0427
▁䖷	-12.0427
▁䖸	-12.0427
▁䖹	-12.0427
▁䖺	-12.0427
▁䖻	-12.0427
▁䖼	-12.0427
▁䖽	-12.0427
▁䖾	-12.0427
▁䖿	-12.0427
▁䗀	-12.0427
▁䗁	-12.0427
▁䗂	-12.0427
▁䗃	-12.0427
▁䗄	-12.0427
▁䗅	-12.0427
▁䗆	-12.0427
▁䗇	-12.0427
▁䗈	-12.0427
▁䗉	-12.0427
▁䗊	-12.0427
▁䗋	-12.0427
▁䗌	-12.0427
▁䗍	-12.0427
▁䗎	-12.0427
▁䗏	-12.0427
▁䗐	-12.0427
▁䗑	-12.0427
▁䗒	-12.0427
▁䗓	-12.0427
▁䗔	-12.0427
▁䗕	-12.0427
▁䗗	-12.0427
▁䗘	-12.0427
▁䗙	-12.0427
▁䗚	-12.0427
▁䗛	-12.0427
▁䗜	-12.0427
▁䗝	-12.0427
▁䗞	-12.0427
▁䗟	-12.0427
▁䗠	-12.0427
▁䗡	-12.0427
▁䗢	-12.0427
▁䗣	-12.0427
▁䗤	-12.0427
▁䗥	-12.0427
▁䗦	-12.0427
▁䗧	-12.0427
▁䗨	-12.0427
▁䗩	-12.0427
▁䗪	-12.0427
▁䗫	-12.0427
▁䗬	-12.0427
▁䗭	-12.0427
▁䗮	-12.0427
▁䗯	-12.0427
▁䗰	-12.0427
▁䗱	-12.0427
▁䗲	-12.0427
▁䗳	-12.0427
▁䗴	-12.0427
▁䗵	-12.0427
▁䗶	-12.0427
▁䗷	-12.0427
▁䗸	-12.0427
▁䗹	-12.0427
▁䗺	-12.0427
▁䗻	-12.0427
▁䗼	-12.0427
▁䗽	-12.0427
▁䗾	-12.0427
▁䗿	-12.0427
▁䘀	-12.0427
▁䘁	-12.0427
▁䘂	-12.0427
▁䘃	-12.0427
▁䘄	-12.0427
▁䘅	-12.0427
▁䘆	-12.0427
▁䘇	-12.0427
▁䘈	-12.0427
▁䘉	-12.0427
▁䘊	-12.0427
▁䘋	-12.0427
▁䘌	-12.0427
▁䘍	-12.0427
▁䘎	-12.0427
▁䘏	-12.0427
▁䘐	-12.0427
▁䘑	-12.0427
▁䘒	-12.0427
▁䘒䘒	-12.0427
▁䘓	-12.0427
▁䘔	-12.0427
▁䘕	-12.0427
▁䘖	-12.0427
▁䘗	-12.0427
▁䘘	-12.0427
▁䘙	-12.0427
▁䘚	-12.0427
▁䘜	-12.0427
▁䘝	-12.0427
▁䘟	-12.0427
▁䘠	-12.0427
▁䘡	-12.0427
▁䘢	-12.0427
▁䘣	-12.0427
▁䘤	-12.0427
▁䘥	-12.0427
▁䘦	-12.0427
▁䘧	-12.0427
▁䘨	-12.0427
▁䘩	-12.0427
▁䘪	-12.0427
▁䘫	-12.0427
▁䘬	-12.0427
▁䘭	-12.0427
▁䘮	-12.0427
▁䘯	-12.0427
▁䘰	-12.0427
▁䘱	-12.0427
▁䘲	-12.0427
▁䘳	-12.0427
▁䘴	-12.0427
▁䘵	-12.0427
▁䘶	-12.0427
▁䘷	-12.0427
▁䘸	-12.0427
▁䘹	-12.0427
▁䘺	-12.0427
▁䘻	-12.0427
▁䘼	-12.0427
▁䘽	-12.0427
▁䘾	-12.0427
▁䘿	-12.0427
▁䙀	-12.0427
▁䙁	-12.0427
▁䙂	-12.0427
▁䙃	-12.0427
▁䙄	-12.0427
▁䙅	-12.0427
▁䙆	-12.0427
▁䙇	-12.0427
▁䙈	-12.0427
▁䙉	-12.0427
▁䙋	-12.0427
▁䙍	-12.0427
▁䙎	-12.0427
▁䙏	-12.0427
▁䙐	-12.0427
▁䙑	-12.0427
▁䙒	-12.0427
▁䙔	-12.0427
▁䙕	-12.0427
▁䙖	-12.0427
▁䙗	-12.0427
▁䙘	-12.0427
▁䙙	-12.0427
▁䙚	-12.0427
▁䙛	-12.0427
▁䙜	-12.0427
▁䙝	-12.0427
▁䙞	-12.0427
▁䙟	-12.0427
▁䙠	-12.0427
▁䙡	-12.0427
▁䙢	-12.0427
▁䙣	-12.0427
▁䙤	-12.0427
▁䙥	-12.0427
▁䙦	-12.0427
▁䙧	-12.0427
▁䙨	-12.0427
▁䙩	-12.0427
▁䙪	-12.0427
▁䙫	-12.0427
▁䙬	-12.0427
▁䙭	-12.0427
▁䙮	-12.0427
▁䙯	-12.0427
▁䙰	-12.0427
▁䙱	-12.0427
▁䙲	-12.0427
▁䙳	-12.0427
▁䙴	-12.0427
▁䙵	-12.0427
▁䙶	-12.0427
▁䙷	-12.0427
▁䙸	-12.0427
▁䙹	-12.0427
▁䙺	-12.0427
▁䙻	-12.0427
▁䙼	-12.0427
▁䙽	-12.0427
▁䙾	-12.0427
▁䙿	-12.0427
▁䚀	-12.0427
▁䚁	-12.0427
▁䚂	-12.0427
▁䚃	-12.0427
▁䚄	-12.0427
▁䚅	-12.0427
▁䚆	-12.0427
▁䚇	-12.0427
▁䚈	-12.0427
▁䚉	-12.0427
▁䚊	-12.0427
▁䚋	-12.0427
▁䚌	-12.0427
▁䚍	-12.0427
▁䚎	-12.0427
▁䚏	-12.0427
▁䚐	-12.0427
▁䚑	-12.0427
▁䚒	-12.0427
▁䚓	-12.0427
▁䚔	-12.0427
▁䚕	-12.0427
▁䚖	-12.0427
▁䚗	-12.0427
▁䚘	-12.0427
▁䚙	-12.0427
▁䚚	-12.0427
▁䚛	-12.0427
▁䚜	-12.0427
▁䚝	-12.0427
▁䚞	-12.0427
▁䚟	-12.0427
▁䚠	-12.0427
▁䚡	-12.0427
▁䚢	-12.0427
▁䚣	-12.0427
▁䚤	-12.0427
▁䚥	-12.0427
▁䚦	-12.0427
▁䚧	-12.0427
▁䚨	-12.0427
▁䚩	-12.0427
▁䚪	-12.0427
▁䚫	-12.0427
▁䚬	-12.0427
▁䚭	-12.0427
▁䚮	-12.0427
▁䚯	-12.0427
▁䚰	-12.0427
▁䚱	-12.0427
▁䚲	-12.0427
▁䚳	-12.0427
▁䚴	-12.0427
▁䚵	-12.0427
▁䚶	-12.0427
▁䚷	-12.0427
▁䚸	-12.0427
▁䚹	-12.0427
▁䚺	-12.0427
▁䚻	-12.0427
▁䚼	-12.0427
▁䚽	-12.0427
▁䚾	-12.0427
▁䚿	-12.0427
▁䛀	-12.0427
▁䛁	-12.0427
▁䛂	-12.0427
▁䛃	-12.0427
▁䛄	-12.0427
▁䛅	-12.0427
▁䛆	-12.0427
▁䛇	-12.0427
▁䛈	-12.0427
▁䛉	-12.0427
▁䛊	-12.0427
▁䛋	-12.0427
▁䛌	-12.0427
▁䛍	-12.0427
▁䛎	-12.0427
▁䛏	-12.0427
▁䛐	-12.0427
▁䛑	-12.0427
▁䛒	-12.0427
▁䛓	-12.0427
▁䛔	-12.0427
▁䛕	-12.0427
▁䛖	-12.0427
▁䛗	-12.0427
▁䛘	-12.0427
▁䛙	-12.0427
▁䛚	-12.0427
▁䛛	-12.0427
▁䛜	-12.0427
▁䛝	-12.0427
▁䛞	-12.0427
▁䛟	-12.0427
▁䛠	-12.0427
▁䛡	-12.0427
▁䛢	-12.0427
▁䛣	-12.0427
▁䛤	-12.0427
▁䛥	-12.0427
▁䛦	-12.0427
▁䛧	-12.0427
▁䛨	-12.0427
▁䛩	-12.0427
▁䛪	-12.0427
▁䛫	-12.0427
▁䛬	-12.0427
▁䛭	-12.0427
▁䛮	-12.0427
▁䛯	-12.0427
▁䛰	-12.0427
▁䛱	-12.0427
▁䛲	-12.0427
▁䛳	-12.0427
▁䛴	-12.0427
▁䛵	-12.0427
▁䛶	-12.0427
▁䛷	-12.0427
▁䛸	-12.0427
▁䛹	-12.0427
▁䛺	-12.0427
▁䛻	-12.0427
▁䛼	-12.0427
▁䛽	-12.0427
▁䛾	-12.0427
▁䛿	-12.0427
▁䜀	-12.0427
▁䜁	-12.0427
▁䜂	-12.0427
▁䜃	-12.0427
▁䜄	-12.0427
▁䜅	-12.0427
▁䜆	-12.0427
▁䜇	-12.0427
▁䜈	-12.0427
▁䜉	-12.0427
▁䜊	-12.0427
▁䜋	-12.0427
▁䜌	-12.0427
▁䜍	-12.0427
▁䜎	-12.0427
▁䜏	-12.0427
▁䜐	-12.0427
▁䜑	-12.0427
▁䜒	-12.0427
▁䜓	-12.0427
▁䜔	-12.0427
▁䜕	-12.0427
▁䜖	-12.0427
▁䜗	-12.0427
▁䜘	-12.0427
▁䜙	-12.0427
▁䜚	-12.0427
▁䜛	-12.0427
▁䜜	-12.0427
▁䜝	-12.0427
▁䜞	-12.0427
▁䜟	-12.0427
▁䜠	-12.0427
▁䜡	-12.0427
▁䜢	-12.0427
▁䜦	-12.0427
▁䜨	-12.0427
▁䜪	-12.0427
▁䜫	-12.0427
▁䜬	-12.0427
▁䜭	-12.0427
▁䜮	-12.0427
▁䜯	-12.0427
▁䜰	-12.0427
▁䜱	-12.0427
▁䜲	-12.0427
▁䜳	-12.0427
▁䜴	-12.0427
▁䜵	-12.0427
▁䜶	-12.0427
▁䜷	-12.0427
▁䜸	-12.0427
▁䜹	-12.0427
▁䜺	-12.0427
▁䜻	-12.0427
▁䜼	-12.0427
▁䜽	-12.0427
▁䜾	-12.0427
▁䜿	-12.0427
▁䝀	-12.0427
▁䝁	-12.0427
▁䝂	-12.0427
▁䝃	-12.0427
▁䝄	-12.0427
▁䝅	-12.0427
▁䝆	-12.0427
▁䝇	-12.0427
▁䝈	-12.0427
▁䝉	-12.0427
▁䝊	-12.0427
▁䝋	-12.0427
▁䝌	-12.0427
▁䝍	-12.0427
▁䝎	-12.0427
▁䝏	-12.0427
▁䝐	-12.0427
▁䝑	-12.0427
▁䝒	-12.0427
▁䝓	-12.0427
▁䝔	-12.0427
▁䝕	-12.0427
▁䝖	-12.0427
▁䝗	-12.0427
▁䝘	-12.0427
▁䝚	-12.0427
▁䝛	-12.0427
▁䝜	-12.0427
▁䝝	-12.0427
▁䝞	-12.0427
▁䝟	-12.0427
▁䝠	-12.0427
▁䝡	-12.0427
▁䝢	-12.0427
▁䝣	-12.0427
▁䝤	-12.0427
▁䝥	-12.0427
▁䝦	-12.0427
▁䝧	-12.0427
▁䝨	-12.0427
▁䝩	-12.0427
▁䝪	-12.0427
▁䝫	-12.0427
▁䝬	-12.0427
▁䝭	-12.0427
▁䝮	-12.0427
▁䝯	-12.0427
▁䝰	-12.0427
▁䝱	-12.0427
▁䝲	-12.0427
▁䝳	-12.0427
▁䝴	-12.0427
▁䝵	-12.0427
▁䝶	-12.0427
▁䝷	-12.0427
▁䝸	-12.0427
▁䝹	-12.0427
▁䝺	-12.0427
▁䝻	-12.0427
▁䝼	-12.0427
▁䝽	-12.0427
▁䝾	-12.0427
▁䝿	-12.0427
▁䞀	-12.0427
▁䞁	-12.0427
▁䞂	-12.0427
▁䞃	-12.0427
▁䞄	-12.0427
▁䞅	-12.0427
▁䞆	-12.0427
▁䞇	-12.0427
▁䞈	-12.0427
▁䞉	-12.0427
▁䞊	-12.0427
▁䞋	-12.0427
▁䞏	-12.0427
▁䞑	-12.0427
▁䞒	-12.0427
▁䞓	-12.0427
▁䞔	-12.0427
▁䞕	-12.0427
▁䞖	-12.0427
▁䞗	-12.0427
▁䞘	-12.0427
▁䞙	-12.0427
▁䞚	-12.0427
▁䞛	-12.0427
▁䞜	-12.0427
▁䞝	-12.0427
▁䞞	-12.0427
▁䞟	-12.0427
▁䞠	-12.0427
▁䞡	-12.0427
▁䞢	-12.0427
▁䞣	-12.0427
▁䞤	-12.0427
▁䞥	-12.0427
▁䞦	-12.0427
▁䞧	-12.0427
▁䞨	-12.0427
▁䞩	-12.0427
▁䞪	-12.0427
▁䞫	-12.0427
▁䞬	-12.0427
▁䞭	-12.0427
▁䞮	-12.0427
▁䞯	-12.0427
▁䞰	-12.0427
▁䞱	-12.0427
▁䞲	-12.0427
▁䞳	-12.0427
▁䞴	-12.0427
▁䞵	-12.0427
▁䞶	-12.0427
▁䞷	-12.0427
▁䞸	-12.0427
▁䞹	-12.0427
▁䞺	-12.0427
▁䞻	-12.0427
▁䞼	-12.0427
▁䞽	-12.0427
▁䞾	-12.0427
▁䞿	-12.0427
▁䟀	-12.0427
▁䟁	-12.0427
▁䟂	-12.0427
▁䟃	-12.0427
▁䟄	-12.0427
▁䟅	-12.0427
▁䟆	-12.0427
▁䟇	-12.0427
▁䟈	-12.0427
▁䟉	-12.0427
▁䟊	-12.0427
▁䟋	-12.0427
▁䟌	-12.0427
▁䟍	-12.0427
▁䟎	-12.0427
▁䟏	-12.0427
▁䟐	-12.0427
▁䟑	-12.0427
▁䟒	-12.0427
▁䟓	-12.0427
▁䟔	-12.0427
▁䟕	-12.0427
▁䟖	-12.0427
▁䟗	-12.0427
▁䟘	-12.0427
▁䟙	-12.0427
▁䟚	-12.0427
▁䟛	-12.0427
▁䟜	-12.0427
▁䟝	-12.0427
▁䟞	-12.0427
▁䟟	-12.0427
▁䟠	-12.0427
▁䟡	-12.0427
▁䟣	-12.0427
▁䟤	-12.0427
▁䟥	-12.0427
▁䟦	-12.0427
▁䟧	-12.0427
▁䟨	-12.0427
▁䟩	-12.0427
▁䟪	-12.0427
▁䟫	-12.0427
▁䟬	-12.0427
▁䟭	-12.0427
▁䟮	-12.0427
▁䟯	-12.0427
▁䟰	-12.0427
▁䟱	-12.0427
▁䟲	-12.0427
▁䟳	-12.0427
▁䟴	-12.0427
▁䟴䟴下	-12.0427
▁䟴䟴板	-12.0427
▁䟴䟴腳	-12.0427
▁䟴腳	-12.0427
▁䟴身䟴勢	-12.0427
▁䟴高	-12.0427
▁䟵	-12.0427
▁䟶	-12.0427
▁䟷	-12.0427
▁䟸	-12.0427
▁䟹	-12.0427
▁䟺	-12.0427
▁䟻	-12.0427
▁䟼	-12.0427
▁䟽	-12.0427
▁䟾	-12.0427
▁䟿	-12.0427
▁䠀	-12.0427
▁䠁	-12.0427
▁䠂	-12.0427
▁䠃	-12.0427
▁䠄	-12.0427
▁䠅	-12.0427
▁䠆	-12.0427
▁䠇	-12.0427
▁䠈	-12.0427
▁䠉	-12.0427
▁䠊	-12.0427
▁䠋	-12.0427
▁䠌	-12.0427
▁䠍	-12.0427
▁䠎	-12.0427
▁䠏	-12.0427
▁䠐	-12.0427
▁䠑	-12.0427
▁䠒	-12.0427
▁䠓	-12.0427
▁䠔	-12.0427
▁䠕	-12.0427
▁䠖	-12.0427
▁䠗	-12.0427
▁䠘	-12.0427
▁䠙	-12.0427
▁䠚	-12.0427
▁䠛	-12.0427
▁䠜	-12.0427
▁䠝	-12.0427
▁䠞	-12.0427
▁䠟	-12.0427
▁䠠	-12.0427
▁䠡	-12.0427
▁䠢	-12.0427
▁䠣	-12.0427
▁䠤	-12.0427
▁䠥	-12.0427
▁䠦	-12.0427
▁䠧	-12.0427
▁䠨	-12.0427
▁䠩	-12.0427
▁䠪	-12.0427
▁䠫	-12.0427
▁䠬	-12.0427
▁䠭	-12.0427
▁䠮	-12.0427
▁䠯	-12.0427
▁䠰	-12.0427
▁䠱	-12.0427
▁䠲	-12.0427
▁䠳	-12.0427
▁䠴	-12.0427
▁䠵	-12.0427
▁䠶	-12.0427
▁䠷	-12.0427
▁䠸	-12.0427
▁䠹	-12.0427
▁䠺	-12.0427
▁䠻	-12.0427
▁䠼	-12.0427
▁䠽	-12.0427
▁䠾	-12.0427
▁䠿	-12.0427
▁䡀	-12.0427
▁䡁	-12.0427
▁䡂	-12.0427
▁䡃	-12.0427
▁䡄	-12.0427
▁䡅	-12.0427
▁䡆	-12.0427
▁䡇	-12.0427
▁䡈	-12.0427
▁䡉	-12.0427
▁䡊	-12.0427
▁䡋	-12.0427
▁䡌	-12.0427
▁䡍	-12.0427
▁䡎	-12.0427
▁䡏	-12.0427
▁䡐	-12.0427
▁䡑	-12.0427
▁䡒	-12.0427
▁䡓	-12.0427
▁䡔	-12.0427
▁䡕	-12.0427
▁䡖	-12.0427
▁䡗	-12.0427
▁䡘	-12.0427
▁䡙	-12.0427
▁䡚	-12.0427
▁䡛	-12.0427
▁䡜	-12.0427
▁䡝	-12.0427
▁䡞	-12.0427
▁䡟	-12.0427
▁䡠	-12.0427
▁䡡	-12.0427
▁䡢	-12.0427
▁䡣	-12.0427
▁䡣路	-12.0427
▁䡤	-12.0427
▁䡥	-12.0427
▁䡦	-12.0427
▁䡧	-12.0427
▁䡨	-12.0427
▁䡩	-12.0427
▁䡪	-12.0427
▁䡫	-12.0427
▁䡬	-12.0427
▁䡭	-12.0427
▁䡮	-12.0427
▁䡯	-12.0427
▁䡰	-12.0427
▁䡱	-12.0427
▁䡲	-12.0427
▁䡳	-12.0427
▁䡴	-12.0427
▁䡵	-12.0427
▁䡶	-12.0427
▁䡷	-12.0427
▁䡸	-12.0427
▁䡹	-12.0427
▁䡺	-12.0427
▁䡻	-12.0427
▁䡼	-12.0427
▁䡽	-12.0427
▁䡾	-12.0427
▁䡿	-12.0427
▁䢃	-12.0427
▁䢄	-12.0427
▁䢅	-12.0427
▁䢆	-12.0427
▁䢇	-12.0427
▁䢈	-12.0427
▁䢉	-12.0427
▁䢊	-12.0427
▁䢋	-12.0427
▁䢌	-12.0427
▁䢍	-12.0427
▁䢎	-12.0427
▁䢏	-12.0427
▁䢐	-12.0427
▁䢑	-12.0427
▁䢒	-12.0427
▁䢓	-12.0427
▁䢔	-12.0427
▁䢕	-12.0427
▁䢖	-12.0427
▁䢗	-12.0427
▁䢘	-12.0427
▁䢙	-12.0427
▁䢚	-12.0427
▁䢛	-12.0427
▁䢜	-12.0427
▁䢝	-12.0427
▁䢞	-12.0427
▁䢟	-12.0427
▁䢠	-12.0427
▁䢡	-12.0427
▁䢢	-12.0427
▁䢣	-12.0427
▁䢤	-12.0427
▁䢥	-12.0427
▁䢦	-12.0427
▁䢧	-12.0427
▁䢨	-12.0427
▁䢩	-12.0427
▁䢪	-12.0427
▁䢫	-12.0427
▁䢬	-12.0427
▁䢭	-12.0427
▁䢮	-12.0427
▁䢯	-12.0427
▁䢰	-12.0427
▁䢱	-12.0427
▁䢲	-12.0427
▁䢳	-12.0427
▁䢴	-12.0427
▁䢵	-12.0427
▁䢶	-12.0427
▁䢷	-12.0427
▁䢸	-12.0427
▁䢹	-12.0427
▁䢺	-12.0427
▁䢻	-12.0427
▁䢼	-12.0427
▁䢽	-12.0427
▁䢾	-12.0427
▁䢿	-12.0427
▁䣀	-12.0427
▁䣁	-12.0427
▁䣂	-12.0427
▁䣃	-12.0427
▁䣄	-12.0427
▁䣅	-12.0427
▁䣆	-12.0427
▁䣇	-12.0427
▁䣈	-12.0427
▁䣉	-12.0427
▁䣊	-12.0427
▁䣋	-12.0427
▁䣌	-12.0427
▁䣍	-12.0427
▁䣎	-12.0427
▁䣏	-12.0427
▁䣐	-12.0427
▁䣑	-12.0427
▁䣒	-12.0427
▁䣓	-12.0427
▁䣔	-12.0427
▁䣕	-12.0427
▁䣖	-12.0427
▁䣗	-12.0427
▁䣘	-12.0427
▁䣙	-12.0427
▁䣚	-12.0427
▁䣛	-12.0427
▁䣜	-12.0427
▁䣝	-12.0427
▁䣞	-12.0427
▁䣟	-12.0427
▁䣠	-12.0427
▁䣡	-12.0427
▁䣢	-12.0427
▁䣣	-12.0427
▁䣤	-12.0427
▁䣥	-12.0427
▁䣦	-12.0427
▁䣧	-12.0427
▁䣨	-12.0427
▁䣩	-12.0427
▁䣪	-12.0427
▁䣫	-12.0427
▁䣬	-12.0427
▁䣭	-12.0427
▁䣮	-12.0427
▁䣯	-12.0427
▁䣰	-12.0427
▁䣱	-12.0427
▁䣲	-12.0427
▁䣳	-12.0427
▁䣴	-12.0427
▁䣵	-12.0427
▁䣶	-12.0427
▁䣷	-12.0427
▁䣸	-12.0427
▁䣹	-12.0427
▁䣺	-12.0427
▁䣻	-12.0427
▁䣼	-12.0427
▁䣽	-12.0427
▁䣾	-12.0427
▁䣿	-12.0427
▁䤀	-12.0427
▁䤁	-12.0427
▁䤂	-12.0427
▁䤃	-12.0427
▁䤄	-12.0427
▁䤅	-12.0427
▁䤆	-12.0427
▁䤇	-12.0427
▁䤈	-12.0427
▁䤉	-12.0427
▁䤊	-12.0427
▁䤋	-12.0427
▁䤌	-12.0427
▁䤍	-12.0427
▁䤎	-12.0427
▁䤏	-12.0427
▁䤐	-12.0427
▁䤑	-12.0427
▁䤒	-12.0427
▁䤓	-12.0427
▁䤔	-12.0427
▁䤕	-12.0427
▁䤖	-12.0427
▁䤗	-12.0427
▁䤘	-12.0427
▁䤙	-12.0427
▁䤚	-12.0427
▁䤛	-12.0427
▁䤜	-12.0427
▁䤝	-12.0427
▁䤞	-12.0427
▁䤟	-12.0427
▁䤠	-12.0427
▁䤡	-12.0427
▁䤢	-12.0427
▁䤣	-12.0427
▁䤤	-12.0427
▁䤥	-12.0427
▁䤦	-12.0427
▁䤧	-12.0427
▁䤨	-12.0427
▁䤩	-12.0427
▁䤪	-12.0427
▁䤫	-12.0427
▁䤬	-12.0427
▁䤭	-12.0427
▁䤮	-12.0427
▁䤯	-12.0427
▁䤰	-12.0427
▁䤱	-12.0427
▁䤲	-12.0427
▁䤳	-12.0427
▁䤴	-12.0427
▁䤵	-12.0427
▁䤶	-12.0427
▁䤷	-12.0427
▁䤸	-12.0427
▁䤹	-12.0427
▁䤺	-12.0427
▁䤻	-12.0427
▁䤼	-12.0427
▁䤽	-12.0427
▁䤾	-12.0427
▁䤿	-12.0427
▁䥀	-12.0427
▁䥁	-12.0427
▁䥂	-12.0427
▁䥃	-12.0427
▁䥄	-12.0427
▁䥅	-12.0427
▁䥆	-12.0427
▁䥇	-12.0427
▁䥈	-12.0427
▁䥉	-12.0427
▁䥊	-12.0427
▁䥋	-12.0427
▁䥌	-12.0427
▁䥍	-12.0427
▁䥎	-12.0427
▁䥏	-12.0427
▁䥐	-12.0427
▁䥑	-12.0427
▁䥒	-12.0427
▁䥓	-12.0427
▁䥔	-12.0427
▁䥕	-12.0427
▁䥖	-12.0427
▁䥗	-12.0427
▁䥘	-12.0427
▁䥙	-12.0427
▁䥚	-12.0427
▁䥛	-12.0427
▁䥜	-12.0427
▁䥝	-12.0427
▁䥞	-12.0427
▁䥟	-12.0427
▁䥠	-12.0427
▁䥡	-12.0427
▁䥢	-12.0427
▁䥣	-12.0427
▁䥤	-12.0427
▁䥥	-12.0427
▁䥦	-12.0427
▁䥧	-12.0427
▁䥨	-12.0427
▁䥩	-12.0427
▁䥪	-12.0427
▁䥫	-12.0427
▁䥬	-12.0427
▁䥭	-12.0427
▁䥮	-12.0427
▁䥯	-12.0427
▁䥰	-12.0427
▁䥱	-12.0427
▁䥲	-12.0427
▁䥳	-12.0427
▁䥴	-12.0427
▁䥵	-12.0427
▁䥶	-12.0427
▁䥷	-12.0427
▁䥸	-12.0427
▁䥹	-12.0427
▁䥻	-12.0427
▁䥼	-12.0427
▁䦄	-12.0427
▁䦇	-12.0427
▁䦈	-12.0427
▁䦉	-12.0427
▁䦊	-12.0427
▁䦋	-12.0427
▁䦌	-12.0427
▁䦍	-12.0427
▁䦎	-12.0427
▁䦏	-12.0427
▁䦐	-12.0427
▁䦑	-12.0427
▁䦒	-12.0427
▁䦓	-12.0427
▁䦔	-12.0427
▁䦕	-12.0427
▁䦖	-12.0427
▁䦗	-12.0427
▁䦘	-12.0427
▁䦙	-12.0427
▁䦚	-12.0427
▁䦛	-12.0427
▁䦜	-12.0427
▁䦝	-12.0427
▁䦞	-12.0427
▁䦟	-12.0427
▁䦠	-12.0427
▁䦡	-12.0427
▁䦢	-12.0427
▁䦣	-12.0427
▁䦤	-12.0427
▁䦥	-12.0427
▁䦦	-12.0427
▁䦧	-12.0427
▁䦨	-12.0427
▁䦩	-12.0427
▁䦪	-12.0427
▁䦫	-12.0427
▁䦬	-12.0427
▁䦭	-12.0427
▁䦮	-12.0427
▁䦯	-12.0427
▁䦰	-12.0427
▁䦱	-12.0427
▁䦲	-12.0427
▁䦳	-12.0427
▁䦴	-12.0427
▁䦵	-12.0427
▁䦸	-12.0427
▁䦹	-12.0427
▁䦺	-12.0427
▁䦻	-12.0427
▁䦼	-12.0427
▁䦽	-12.0427
▁䦾	-12.0427
▁䦿	-12.0427
▁䧀	-12.0427
▁䧁	-12.0427
▁䧂	-12.0427
▁䧃	-12.0427
▁䧄	-12.0427
▁䧅	-12.0427
▁䧆	-12.0427
▁䧇	-12.0427
▁䧈	-12.0427
▁䧉	-12.0427
▁䧊	-12.0427
▁䧋	-12.0427
▁䧌	-12.0427
▁䧍	-12.0427
▁䧎	-12.0427
▁䧏	-12.0427
▁䧐	-12.0427
▁䧑	-12.0427
▁䧒	-12.0427
▁䧓	-12.0427
▁䧔	-12.0427
▁䧕	-12.0427
▁䧖	-12.0427
▁䧗	-12.0427
▁䧘	-12.0427
▁䧙	-12.0427
▁䧚	-12.0427
▁䧛	-12.0427
▁䧜	-12.0427
▁䧝	-12.0427
▁䧞	-12.0427
▁䧟	-12.0427
▁䧠	-12.0427
▁䧡	-12.0427
▁䧢	-12.0427
▁䧣	-12.0427
▁䧤	-12.0427
▁䧥	-12.0427
▁䧦	-12.0427
▁䧧	-12.0427
▁䧨	-12.0427
▁䧩	-12.0427
▁䧪	-12.0427
▁䧫	-12.0427
▁䧬	-12.0427
▁䧭	-12.0427
▁䧮	-12.0427
▁䧯	-12.0427
▁䧰	-12.0427
▁䧱	-12.0427
▁䧲	-12.0427
▁䧳	-12.0427
▁䧴	-12.0427
▁䧵	-12.0427
▁䧶	-12.0427
▁䧷	-12.0427
▁䧸	-12.0427
▁䧹	-12.0427
▁䧺	-12.0427
▁䧻	-12.0427
▁䧼	-12.0427
▁䧽	-12.0427
▁䧾	-12.0427
▁䧿	-12.0427
▁䨀	-12.0427
▁䨁	-12.0427
▁䨂	-12.0427
▁䨃	-12.0427
▁䨄	-12.0427
▁䨅	-12.0427
▁䨆	-12.0427
▁䨇	-12.0427
▁䨈	-12.0427
▁䨉	-12.0427
▁䨊	-12.0427
▁䨋	-12.0427
▁䨌	-12.0427
▁䨍	-12.0427
▁䨎	-12.0427
▁䨏	-12.0427
▁䨐	-12.0427
▁䨑	-12.0427
▁䨒	-12.0427
▁䨓	-12.0427
▁䨔	-12.0427
▁䨕	-12.0427
▁䨖	-12.0427
▁䨗	-12.0427
▁䨘	-12.0427
▁䨙	-12.0427
▁䨚	-12.0427
▁䨛	-12.0427
▁䨜	-12.0427
▁䨝	-12.0427
▁䨞	-12.0427
▁䨟	-12.0427
▁䨠	-12.0427
▁䨡	-12.0427
▁䨢	-12.0427
▁䨣	-12.0427
▁䨤	-12.0427
▁䨥	-12.0427
▁䨦	-12.0427
▁䨧	-12.0427
▁䨨	-12.0427
▁䨩	-12.0427
▁䨪	-12.0427
▁䨫	-12.0427
▁䨬	-12.0427
▁䨭	-12.0427
▁䨮	-12.0427
▁䨯	-12.0427
▁䨰	-12.0427
▁䨱	-12.0427
▁䨲	-12.0427
▁䨳	-12.0427
▁䨴	-12.0427
▁䨵	-12.0427
▁䨶	-12.0427
▁䨷	-12.0427
▁䨸	-12.0427
▁䨹	-12.0427
▁䨺	-12.0427
▁䨻	-12.0427
▁䨼	-12.0427
▁䨽	-12.0427
▁䨾	-12.0427
▁䨿	-12.0427
▁䩀	-12.0427
▁䩁	-12.0427
▁䩂	-12.0427
▁䩃	-12.0427
▁䩅	-12.0427
▁䩆	-12.0427
▁䩇	-12.0427
▁䩈	-12.0427
▁䩉	-12.0427
▁䩊	-12.0427
▁䩋	-12.0427
▁䩌	-12.0427
▁䩌曬皮	-12.0427
▁䩌皮	-12.0427
▁䩌皮咪𠵼	-12.0427
▁䩌皮掹雞	-12.0427
▁䩍	-12.0427
▁䩎	-12.0427
▁䩏	-12.0427
▁䩐	-12.0427
▁䩑	-12.0427
▁䩒	-12.0427
▁䩓	-12.0427
▁䩔	-12.0427
▁䩕	-12.0427
▁䩖	-12.0427
▁䩗	-12.0427
▁䩘	-12.0427
▁䩙	-12.0427
▁䩚	-12.0427
▁䩛	-12.0427
▁䩜	-12.0427
▁䩝	-12.0427
▁䩞	-12.0427
▁䩟	-12.0427
▁䩠	-12.0427
▁䩡	-12.0427
▁䩢	-12.0427
▁䩣	-12.0427
▁䩤	-12.0427
▁䩥	-12.0427
▁䩦	-12.0427
▁䩧	-12.0427
▁䩨	-12.0427
▁䩩	-12.0427
▁䩪	-12.0427
▁䩫	-12.0427
▁䩬	-12.0427
▁䩭	-12.0427
▁䩮	-12.0427
▁䩯	-12.0427
▁䩰	-12.0427
▁䩱	-12.0427
▁䩲	-12.0427
▁䩳	-12.0427
▁䩴	-12.0427
▁䩵	-12.0427
▁䩶	-12.0427
▁䩷	-12.0427
▁䩸	-12.0427
▁䩹	-12.0427
▁䩺	-12.0427
▁䩻	-12.0427
▁䩼	-12.0427
▁䩽	-12.0427
▁䩾	-12.0427
▁䩿	-12.0427
▁䪀	-12.0427
▁䪁	-12.0427
▁䪂	-12.0427
▁䪃	-12.0427
▁䪄	-12.0427
▁䪅	-12.0427
▁䪆	-12.0427
▁䪇	-12.0427
▁䪈	-12.0427
▁䪉	-12.0427
▁䪊	-12.0427
▁䪋	-12.0427
▁䪌	-12.0427
▁䪍	-12.0427
▁䪎	-12.0427
▁䪏	-12.0427
▁䪐	-12.0427
▁䪑	-12.0427
▁䪒	-12.0427
▁䪓	-12.0427
▁䪔	-12.0427
▁䪕	-12.0427
▁䪖	-12.0427
▁䪗	-12.0427
▁䪘	-12.0427
▁䪙	-12.0427
▁䪚	-12.0427
▁䪛	-12.0427
▁䪜	-12.0427
▁䪝	-12.0427
▁䪞	-12.0427
▁䪟	-12.0427
▁䪠	-12.0427
▁䪡	-12.0427
▁䪢	-12.0427
▁䪣	-12.0427
▁䪤	-12.0427
▁䪥	-12.0427
▁䪦	-12.0427
▁䪧	-12.0427
▁䪨	-12.0427
▁䪩	-12.0427
▁䪪	-12.0427
▁䪫	-12.0427
▁䪬	-12.0427
▁䪭	-12.0427
▁䪮	-12.0427
▁䪯	-12.0427
▁䪰	-12.0427
▁䪱	-12.0427
▁䪲	-12.0427
▁䪳	-12.0427
▁䪴	-12.0427
▁䪵	-12.0427
▁䪶	-12.0427
▁䪷	-12.0427
▁䪸	-12.0427
▁䪹	-12.0427
▁䪺	-12.0427
▁䪻	-12.0427
▁䪼	-12.0427
▁䪽	-12.0427
▁䪾	-12.0427
▁䪿	-12.0427
▁䫀	-12.0427
▁䫁	-12.0427
▁䫂	-12.0427
▁䫃	-12.0427
▁䫄	-12.0427
▁䫅	-12.0427
▁䫆	-12.0427
▁䫇	-12.0427
▁䫈	-12.0427
▁䫉	-12.0427
▁䫊	-12.0427
▁䫋	-12.0427
▁䫌	-12.0427
▁䫍	-12.0427
▁䫎	-12.0427
▁䫏	-12.0427
▁䫐	-12.0427
▁䫑	-12.0427
▁䫒	-12.0427
▁䫓	-12.0427
▁䫔	-12.0427
▁䫕	-12.0427
▁䫖	-12.0427
▁䫗	-12.0427
▁䫘	-12.0427
▁䫙	-12.0427
▁䫚	-12.0427
▁䫛	-12.0427
▁䫜	-12.0427
▁䫝	-12.0427
▁䫞	-12.0427
▁䫟	-12.0427
▁䫠	-12.0427
▁䫡	-12.0427
▁䫢	-12.0427
▁䫣	-12.0427
▁䫤	-12.0427
▁䫥	-12.0427
▁䫦	-12.0427
▁䫧	-12.0427
▁䫨	-12.0427
▁䫩	-12.0427
▁䫪	-12.0427
▁䫫	-12.0427
▁䫬	-12.0427
▁䫭	-12.0427
▁䫮	-12.0427
▁䫯	-12.0427
▁䫰	-12.0427
▁䫱	-12.0427
▁䫲	-12.0427
▁䫳	-12.0427
▁䫴	-12.0427
▁䫵	-12.0427
▁䫶	-12.0427
▁䫷	-12.0427
▁䫸	-12.0427
▁䫹	-12.0427
▁䫺	-12.0427
▁䫻	-12.0427
▁䫼	-12.0427
▁䫽	-12.0427
▁䫾	-12.0427
▁䫿	-12.0427
▁䬀	-12.0427
▁䬁	-12.0427
▁䬂	-12.0427
▁䬃	-12.0427
▁䬄	-12.0427
▁䬅	-12.0427
▁䬆	-12.0427
▁䬇	-12.0427
▁䬈	-12.0427
▁䬉	-12.0427
▁䬊	-12.0427
▁䬋	-12.0427
▁䬌	-12.0427
▁䬍	-12.0427
▁䬎	-12.0427
▁䬏	-12.0427
▁䬐	-12.0427
▁䬑	-12.0427
▁䬒	-12.0427
▁䬓	-12.0427
▁䬔	-12.0427
▁䬕	-12.0427
▁䬖	-12.0427
▁䬗	-12.0427
▁䬘	-12.0427
▁䬙	-12.0427
▁䬚	-12.0427
▁䬛	-12.0427
▁䬜	-12.0427
▁䬝	-12.0427
▁䬞	-12.0427
▁䬟	-12.0427
▁䬠	-12.0427
▁䬡	-12.0427
▁䬢	-12.0427
▁䬣	-12.0427
▁䬤	-12.0427
▁䬥	-12.0427
▁䬦	-12.0427
▁䬧	-12.0427
▁䬨	-12.0427
▁䬩	-12.0427
▁䬪	-12.0427
▁䬫	-12.0427
▁䬬	-12.0427
▁䬭	-12.0427
▁䬮	-12.0427
▁䬯	-12.0427
▁䬰	-12.0427
▁䬱	-12.0427
▁䬲	-12.0427
▁䬳	-12.0427
▁䬴	-12.0427
▁䬵	-12.0427
▁䬶	-12.0427
▁䬷	-12.0427
▁䬸	-12.0427
▁䬹	-12.0427
▁䬺	-12.0427
▁䬻	-12.0427
▁䬼	-12.0427
▁䬽	-12.0427
▁䬾	-12.0427
▁䬿	-12.0427
▁䭀	-12.0427
▁䭁	-12.0427
▁䭂	-12.0427
▁䭃	-12.0427
▁䭄	-12.0427
▁䭅	-12.0427
▁䭆	-12.0427
▁䭇	-12.0427
▁䭈	-12.0427
▁䭉	-12.0427
▁䭊	-12.0427
▁䭋	-12.0427
▁䭌	-12.0427
▁䭍	-12.0427
▁䭎	-12.0427
▁䭏	-12.0427
▁䭐	-12.0427
▁䭑	-12.0427
▁䭒	-12.0427
▁䭓	-12.0427
▁䭔	-12.0427
▁䭕	-12.0427
▁䭖	-12.0427
▁䭗	-12.0427
▁䭘	-12.0427
▁䭙	-12.0427
▁䭚	-12.0427
▁䭛	-12.0427
▁䭜	-12.0427
▁䭝	-12.0427
▁䭞	-12.0427
▁䭟	-12.0427
▁䭠	-12.0427
▁䭡	-12.0427
▁䭢	-12.0427
▁䭣	-12.0427
▁䭤	-12.0427
▁䭥	-12.0427
▁䭦	-12.0427
▁䭧	-12.0427
▁䭨	-12.0427
▁䭩	-12.0427
▁䭫	-12.0427
▁䭬	-12.0427
▁䭭	-12.0427
▁䭮	-12.0427
▁䭯	-12.0427
▁䭰	-12.0427
▁䭱	-12.0427
▁䭲	-12.0427
▁䭳	-12.0427
▁䭴	-12.0427
▁䭵	-12.0427
▁䭶	-12.0427
▁䭷	-12.0427
▁䭸	-12.0427
▁䭹	-12.0427
▁䭺	-12.0427
▁䭻	-12.0427
▁䭼	-12.0427
▁䭽	-12.0427
▁䭾	-12.0427
▁䭿	-12.0427
▁䮀	-12.0427
▁䮁	-12.0427
▁䮂	-12.0427
▁䮃	-12.0427
▁䮄	-12.0427
▁䮅	-12.0427
▁䮆	-12.0427
▁䮇	-12.0427
▁䮈	-12.0427
▁䮉	-12.0427
▁䮊	-12.0427
▁䮋	-12.0427
▁䮌	-12.0427
▁䮍	-12.0427
▁䮎	-12.0427
▁䮏	-12.0427
▁䮐	-12.0427
▁䮑	-12.0427
▁䮒	-12.0427
▁䮓	-12.0427
▁䮔	-12.0427
▁䮕	-12.0427
▁䮖	-12.0427
▁䮗	-12.0427
▁䮘	-12.0427
▁䮙	-12.0427
▁䮚	-12.0427
▁䮛	-12.0427
▁䮜	-12.0427
▁䮝	-12.0427
▁䮞	-12.0427
▁䮟	-12.0427
▁䮠	-12.0427
▁䮡	-12.0427
▁䮢	-12.0427
▁䮣	-12.0427
▁䮤	-12.0427
▁䮥	-12.0427
▁䮦	-12.0427
▁䮧	-12.0427
▁䮨	-12.0427
▁䮩	-12.0427
▁䮪	-12.0427
▁䮫	-12.0427
▁䮬	-12.0427
▁䮭	-12.0427
▁䮮	-12.0427
▁䮯	-12.0427
▁䮰	-12.0427
▁䮱	-12.0427
▁䮲	-12.0427
▁䮳	-12.0427
▁䮴	-12.0427
▁䮵	-12.0427
▁䮶	-12.0427
▁䮷	-12.0427
▁䮸	-12.0427
▁䮹	-12.0427
▁䮺	-12.0427
▁䮻	-12.0427
▁䮼	-12.0427
▁䮽	-12.0427
▁䮾	-12.0427
▁䮿	-12.0427
▁䯀	-12.0427
▁䯁	-12.0427
▁䯂	-12.0427
▁䯆	-12.0427
▁䯇	-12.0427
▁䯈	-12.0427
▁䯉	-12.0427
▁䯊	-12.0427
▁䯋	-12.0427
▁䯌	-12.0427
▁䯍	-12.0427
▁䯎	-12.0427
▁䯏	-12.0427
▁䯐	-12.0427
▁䯑	-12.0427
▁䯒	-12.0427
▁䯓	-12.0427
▁䯔	-12.0427
▁䯕	-12.0427
▁䯖	-12.0427
▁䯗	-12.0427
▁䯘	-12.0427
▁䯙	-12.0427
▁䯚	-12.0427
▁䯛	-12.0427
▁䯜	-12.0427
▁䯝	-12.0427
▁䯞	-12.0427
▁䯟	-12.0427
▁䯠	-12.0427
▁䯡	-12.0427
▁䯢	-12.0427
▁䯣	-12.0427
▁䯤	-12.0427
▁䯥	-12.0427
▁䯦	-12.0427
▁䯧	-12.0427
▁䯨	-12.0427
▁䯩	-12.0427
▁䯪	-12.0427
▁䯫	-12.0427
▁䯬	-12.0427
▁䯭	-12.0427
▁䯮	-12.0427
▁䯯	-12.0427
▁䯰	-12.0427
▁䯱	-12.0427
▁䯲	-12.0427
▁䯳	-12.0427
▁䯴	-12.0427
▁䯵	-12.0427
▁䯶	-12.0427
▁䯷	-12.0427
▁䯸	-12.0427
▁䯹	-12.0427
▁䯺	-12.0427
▁䯻	-12.0427
▁䯼	-12.0427
▁䯽	-12.0427
▁䯾	-12.0427
▁䯿	-12.0427
▁䰀	-12.0427
▁䰁	-12.0427
▁䰂	-12.0427
▁䰃	-12.0427
▁䰄	-12.0427
▁䰅	-12.0427
▁䰆	-12.0427
▁䰇	-12.0427
▁䰈	-12.0427
▁䰉	-12.0427
▁䰊	-12.0427
▁䰋	-12.0427
▁䰌	-12.0427
▁䰍	-12.0427
▁䰎	-12.0427
▁䰏	-12.0427
▁䰐	-12.0427
▁䰑	-12.0427
▁䰒	-12.0427
▁䰓	-12.0427
▁䰔	-12.0427
▁䰕	-12.0427
▁䰖	-12.0427
▁䰗	-12.0427
▁䰘	-12.0427
▁䰙	-12.0427
▁䰚	-12.0427
▁䰛	-12.0427
▁䰜	-12.0427
▁䰝	-12.0427
▁䰞	-12.0427
▁䰟	-12.0427
▁䰠	-12.0427
▁䰡	-12.0427
▁䰢	-12.0427
▁䰣	-12.0427
▁䰤	-12.0427
▁䰥	-12.0427
▁䰦	-12.0427
▁䰧	-12.0427
▁䰨	-12.0427
▁䰩	-12.0427
▁䰪	-12.0427
▁䰫	-12.0427
▁䰬	-12.0427
▁䰭	-12.0427
▁䰮	-12.0427
▁䰯	-12.0427
▁䰰	-12.0427
▁䰱	-12.0427
▁䰲	-12.0427
▁䰳	-12.0427
▁䰴	-12.0427
▁䰵	-12.0427
▁䰶	-12.0427
▁䰷	-12.0427
▁䰸	-12.0427
▁䰹	-12.0427
▁䰺	-12.0427
▁䰻	-12.0427
▁䰼	-12.0427
▁䰽	-12.0427
▁䰾	-12.0427
▁䰾魚	-12.0427
▁䰿	-12.0427
▁䱀	-12.0427
▁䱁	-12.0427
▁䱂	-12.0427
▁䱃	-12.0427
▁䱄	-12.0427
▁䱅	-12.0427
▁䱆	-12.0427
▁䱇	-12.0427
▁䱈	-12.0427
▁䱉	-12.0427
▁䱊	-12.0427
▁䱋	-12.0427
▁䱌	-12.0427
▁䱍	-12.0427
▁䱎	-12.0427
▁䱏	-12.0427
▁䱐	-12.0427
▁䱑	-12.0427
▁䱒	-12.0427
▁䱓	-12.0427
▁䱔	-12.0427
▁䱕	-12.0427
▁䱖	-12.0427
▁䱗	-12.0427
▁䱘	-12.0427
▁䱙	-12.0427
▁䱚	-12.0427
▁䱛	-12.0427
▁䱜	-12.0427
▁䱝	-12.0427
▁䱞	-12.0427
▁䱟	-12.0427
▁䱠	-12.0427
▁䱡	-12.0427
▁䱢	-12.0427
▁䱣	-12.0427
▁䱤	-12.0427
▁䱥	-12.0427
▁䱦	-12.0427
▁䱧	-12.0427
▁䱨	-12.0427
▁䱩	-12.0427
▁䱪	-12.0427
▁䱫	-12.0427
▁䱬	-12.0427
▁䱭	-12.0427
▁䱮	-12.0427
▁䱯	-12.0427
▁䱰	-12.0427
▁䱱	-12.0427
▁䱲	-12.0427
▁䱳	-12.0427
▁䱴	-12.0427
▁䱵	-12.0427
▁䱶	-12.0427
▁䱷	-12.0427
▁䱸	-12.0427
▁䱹	-12.0427
▁䱺	-12.0427
▁䱻	-12.0427
▁䱼	-12.0427
▁䱽	-12.0427
▁䱽魚	-12.0427
▁䱾	-12.0427
▁䱿	-12.0427
▁䲀	-12.0427
▁䲁	-12.0427
▁䲂	-12.0427
▁䲃	-12.0427
▁䲄	-12.0427
▁䲅	-12.0427
▁䲆	-12.0427
▁䲇	-12.0427
▁䲈	-12.0427
▁䲉	-12.0427
▁䲊	-12.0427
▁䲋	-12.0427
▁䲌	-12.0427
▁䲍	-12.0427
▁䲎	-12.0427
▁䲏	-12.0427
▁䲐	-12.0427
▁䲑	-12.0427
▁䲒	-12.0427
▁䲓	-12.0427
▁䲔	-12.0427
▁䲕	-12.0427
▁䲖	-12.0427
▁䲗	-12.0427
▁䲘	-12.0427
▁䲙	-12.0427
▁䲚	-12.0427
▁䲛	-12.0427
▁䲜	-12.0427
▁䲤	-12.0427
▁䲥	-12.0427
▁䲦	-12.0427
▁䲧	-12.0427
▁䲨	-12.0427
▁䲩	-12.0427
▁䲪	-12.0427
▁䲫	-12.0427
▁䲬	-12.0427
▁䲭	-12.0427
▁䲮	-12.0427
▁䲯	-12.0427
▁䲰	-12.0427
▁䲱	-12.0427
▁䲲	-12.0427
▁䲳	-12.0427
▁䲴	-12.0427
▁䲵	-12.0427
▁䲶	-12.0427
▁䲷	-12.0427
▁䲸	-12.0427
▁䲹	-12.0427
▁䲺	-12.0427
▁䲻	-12.0427
▁䲼	-12.0427
▁䲽	-12.0427
▁䲾	-12.0427
▁䲿	-12.0427
▁䳀	-12.0427
▁䳁	-12.0427
▁䳂	-12.0427
▁䳃	-12.0427
▁䳄	-12.0427
▁䳅	-12.0427
▁䳆	-12.0427
▁䳇	-12.0427
▁䳈	-12.0427
▁䳉	-12.0427
▁䳊	-12.0427
▁䳋	-12.0427
▁䳌	-12.0427
▁䳍	-12.0427
▁䳎	-12.0427
▁䳏	-12.0427
▁䳐	-12.0427
▁䳑	-12.0427
▁䳒	-12.0427
▁䳓	-12.0427
▁䳔	-12.0427
▁䳕	-12.0427
▁䳖	-12.0427
▁䳗	-12.0427
▁䳘	-12.0427
▁䳙	-12.0427
▁䳚	-12.0427
▁䳛	-12.0427
▁䳜	-12.0427
▁䳝	-12.0427
▁䳞	-12.0427
▁䳟	-12.0427
▁䳠	-12.0427
▁䳡	-12.0427
▁䳢	-12.0427
▁䳣	-12.0427
▁䳤	-12.0427
▁䳥	-12.0427
▁䳦	-12.0427
▁䳧	-12.0427
▁䳨	-12.0427
▁䳩	-12.0427
▁䳪	-12.0427
▁䳫	-12.0427
▁䳬	-12.0427
▁䳭	-12.0427
▁䳮	-12.0427
▁䳯	-12.0427
▁䳰	-12.0427
▁䳱	-12.0427
▁䳲	-12.0427
▁䳳	-12.0427
▁䳴	-12.0427
▁䳵	-12.0427
▁䳶	-12.0427
▁䳷	-12.0427
▁䳸	-12.0427
▁䳹	-12.0427
▁䳺	-12.0427
▁䳻	-12.0427
▁䳼	-12.0427
▁䳽	-12.0427
▁䳾	-12.0427
▁䳿	-12.0427
▁䴀	-12.0427
▁䴁	-12.0427
▁䴂	-12.0427
▁䴃	-12.0427
▁䴄	-12.0427
▁䴅	-12.0427
▁䴆	-12.0427
▁䴇	-12.0427
▁䴈	-12.0427
▁䴉	-12.0427
▁䴉嘴鷸	-12.0427
▁䴊	-12.0427
▁䴋	-12.0427
▁䴌	-12.0427
▁䴍	-12.0427
▁䴎	-12.0427
▁䴏	-12.0427
▁䴐	-12.0427
▁䴑	-12.0427
▁䴒	-12.0427
▁䴚	-12.0427
▁䴛	-12.0427
▁䴜	-12.0427
▁䴝	-12.0427
▁䴞	-12.0427
▁䴟	-12.0427
▁䴠	-12.0427
▁䴡	-12.0427
▁䴢	-12.0427
▁䴣	-12.0427
▁䴤	-12.0427
▁䴥	-12.0427
▁䴦	-12.0427
▁䴧	-12.0427
▁䴨	-12.0427
▁䴩	-12.0427
▁䴪	-12.0427
▁䴫	-12.0427
▁䴬	-12.0427
▁䴭	-12.0427
▁䴮	-12.0427
▁䴯	-12.0427
▁䴰	-12.0427
▁䴱	-12.0427
▁䴲	-12.0427
▁䴳	-12.0427
▁䴴	-12.0427
▁䴵	-12.0427
▁䴶	-12.0427
▁䴷	-12.0427
▁䴸	-12.0427
▁䴹	-12.0427
▁䴺	-12.0427
▁䴻	-12.0427
▁䴼	-12.0427
▁䴽	-12.0427
▁䴾	-12.0427
▁䴿	-12.0427
▁䵀	-12.0427
▁䵁	-12.0427
▁䵂	-12.0427
▁䵃	-12.0427
▁䵄	-12.0427
▁䵅	-12.0427
▁䵆	-12.0427
▁䵇	-12.0427
▁䵈	-12.0427
▁䵉	-12.0427
▁䵊	-12.0427
▁䵋	-12.0427
▁䵌	-12.0427
▁䵍	-12.0427
▁䵎	-12.0427
▁䵏	-12.0427
▁䵐	-12.0427
▁䵑	-12.0427
▁䵒	-12.0427
▁䵓	-12.0427
▁䵔	-12.0427
▁䵕	-12.0427
▁䵖	-12.0427
▁䵗	-12.0427
▁䵘	-12.0427
▁䵙	-12.0427
▁䵚	-12.0427
▁䵛	-12.0427
▁䵜	-12.0427
▁䵝	-12.0427
▁䵞	-12.0427
▁䵟	-12.0427
▁䵠	-12.0427
▁䵡	-12.0427
▁䵢	-12.0427
▁䵣	-12.0427
▁䵤	-12.0427
▁䵥	-12.0427
▁䵦	-12.0427
▁䵧	-12.0427
▁䵨	-12.0427
▁䵩	-12.0427
▁䵪	-12.0427
▁䵫	-12.0427
▁䵬	-12.0427
▁䵭	-12.0427
▁䵮	-12.0427
▁䵯	-12.0427
▁䵰	-12.0427
▁䵱	-12.0427
▁䵲	-12.0427
▁䵳	-12.0427
▁䵴	-12.0427
▁䵵	-12.0427
▁䵶	-12.0427
▁䵷	-12.0427
▁䵸	-12.0427
▁䵹	-12.0427
▁䵺	-12.0427
▁䵻	-12.0427
▁䵼	-12.0427
▁䵽	-12.0427
▁䵾	-12.0427
▁䵿	-12.0427
▁䶀	-12.0427
▁䶁	-12.0427
▁䶂	-12.0427
▁䶃	-12.0427
▁䶄	-12.0427
▁䶅	-12.0427
▁䶆	-12.0427
▁䶇	-12.0427
▁䶈	-12.0427
▁䶉	-12.0427
▁䶊	-12.0427
▁䶋	-12.0427
▁䶌	-12.0427
▁䶍	-12.0427
▁䶎	-12.0427
▁䶏	-12.0427
▁䶐	-12.0427
▁䶑	-12.0427
▁䶒	-12.0427
▁䶓	-12.0427
▁䶔	-12.0427
▁䶕	-12.0427
▁䶖	-12.0427
▁䶗	-12.0427
▁䶘	-12.0427
▁䶙	-12.0427
▁䶚	-12.0427
▁䶛	-12.0427
▁䶜	-12.0427
▁䶝	-12.0427
▁䶞	-12.0427
▁䶟	-12.0427
▁䶠	-12.0427
▁䶡	-12.0427
▁䶢	-12.0427
▁䶣	-12.0427
▁䶤	-12.0427
▁䶥	-12.0427
▁䶦	-12.0427
▁䶧	-12.0427
▁䶨	-12.0427
▁䶩	-12.0427
▁䶪	-12.0427
▁䶫	-12.0427
▁䶬	-12.0427
▁䶭	-12.0427
▁䶯	-12.0427
▁䶰	-12.0427
▁䶱	-12.0427
▁䶲	-12.0427
▁䶳	-12.0427
▁䶴	-12.0427
▁䶵	-12.0427
▁一	-12.0427
▁一q清枱	-12.0427
▁一q清袋	-12.0427
▁一take過	-12.0427
▁一㓤就穿	-12.0427
▁一㧻就穿	-12.0427
▁一䊆飯	-12.0427
▁一一	-12.0427
▁一一對應	-12.0427
▁一一映射	-12.0427
▁一丁不識	-12.0427
▁一丁友	-12.0427
▁一丁點	-12.0427
▁一上一落	-12.0427
▁一下	-12.0427
▁一下一下	-12.0427
▁一下兒	-12.0427
▁一下子	-12.0427
▁一不做,二不休	-12.0427
▁一不做二不休	-12.0427
▁一不小心	-12.0427
▁一世	-12.0427
▁一世人	-12.0427
▁一世英名	-12.0427
▁一丘之貉	-12.0427
▁一並	-12.0427
▁一中一臺	-12.0427
▁一中原則	-12.0427
▁一串	-12.0427
▁一之爲甚	-12.0427
▁一之謂甚	-12.0427
▁一九	-12.0427
▁一九九七年	-12.0427
▁一九九三年	-12.0427
▁一九六六	-12.0427
▁一九四三年	-12.0427
▁一九四九年	-12.0427
▁一乾	-12.0427
▁一乾二淨	-12.0427
▁一了百了	-12.0427
▁一事	-12.0427
▁一事無成	-12.0427
▁一二	-12.0427
▁一二便	-12.0427
▁一二八事變	-12.0427
▁一二邊	-12.0427
▁一五一十	-12.0427
▁一五五零	-12.0427
▁一些	-12.0427
▁一些些	-12.0427
▁一人做事一人當	-12.0427
▁一人得道,雞犬昇天	-12.0427
▁一人行一步	-12.0427
▁一人計短,二人計長	-12.0427
▁一人計短二人計長	-12.0427
▁一人退一步	-12.0427
▁一介	-12.0427
▁一介不取	-12.0427
▁一代	-12.0427
▁一代不如一代	-12.0427
▁一代新人換舊人	-12.0427
▁一代英豪	-12.0427
▁一代豪傑	-12.0427
▁一以貫之	-12.0427
▁一件還一件	-12.0427
▁一件頭	-12.0427
▁一任	-12.0427
▁一份	-12.0427
▁一份子	-12.0427
▁一住	-12.0427
▁一併	-12.0427
▁一來	-12.0427
▁一來二去	-12.0427
▁一來到	-12.0427
▁一便	-12.0427
▁一係	-12.0427
▁一個	-12.0427
▁一個一個	-12.0427
▁一個中國	-12.0427
▁一個中國政策	-12.0427
▁一個二個	-12.0427
▁一個人	-12.0427
▁一個個	-12.0427
▁一個做好,一個做醜	-12.0427
▁一個億	-12.0427
▁一個勁	-12.0427
▁一個勁兒	-12.0427
▁一個包	-12.0427
▁一個啫	-12.0427
▁一個大話冚一個大話	-12.0427
▁一個大話𢫏一個大話	-12.0427
▁一個字	-12.0427
▁一個對	-12.0427
▁一個崩	-12.0427
▁一個巴仙	-12.0427
▁一個巴掌拍不響	-12.0427
▁一個幽靈在歐洲遊蕩	-12.0427
▁一個招牌矺落嚟都矺死幾件	-12.0427
▁一個招牌砸落嚟都砸死幾件	-12.0427
▁一個招牌磧落嚟都磧死幾件	-12.0427
▁一個接一個	-12.0427
▁一個樣	-12.0427
▁一個站	-12.0427
▁一個蘿蔔一個坑	-12.0427
▁一個酸梅兩個核	-12.0427
▁一個鐘	-12.0427
▁一個開	-12.0427
▁一個頭兩個大	-12.0427
▁一個願打,一個願捱	-12.0427
▁一個願打一個願捱	-12.0427
▁一個餅印	-12.0427
▁一個餅印噉	-12.0427
▁一個骨	-12.0427
▁一個鼻哥窿出氣	-12.0427
▁一倍	-12.0427
▁一借冇回頭	-12.0427
▁一側化	-12.0427
▁一傳十,十傳百	-12.0427
▁一僕一碌	-12.0427
▁一僕一趢	-12.0427
▁一僕一轆	-12.0427
▁一價	-12.0427
▁一億	-12.0427
▁一元	-12.0427
▁一元化	-12.0427
▁一元復始	-12.0427
▁一元方程	-12.0427
▁一元方程式	-12.0427
▁一元論	-12.0427
▁一元醇	-12.0427
▁一兆	-12.0427
▁一入	-12.0427
▁一入到	-12.0427
▁一兩個	-12.0427
▁一兩天	-12.0427
▁一兩日	-12.0427
▁一兩次	-12.0427
▁一兩首	-12.0427
▁一六八	-12.0427
▁一共	-12.0427
▁一再	-12.0427
▁一凹一凸	-12.0427
▁一刀兩斷	-12.0427
▁一刀切	-12.0427
▁一分	-12.0427
▁一分一毫	-12.0427
▁一分一秒	-12.0427
▁一分子	-12.0427
▁一分爲二	-12.0427
▁一分耕耘,一分收穫	-12.0427
▁一分耕耘一分收穫	-12.0427
▁一分錢	-12.0427
▁一分錢一分貨	-12.0427
▁一分錢兩分貨	-12.0427
▁一切	-12.0427
▁一切事物	-12.0427
▁一切向錢看	-12.0427
▁一切如舊	-12.0427
▁一切就緒	-12.0427
▁一切險	-12.0427
▁一刻	-12.0427
▁一刻千金	-12.0427
▁一則	-12.0427
▁一則以喜,一則以憂	-12.0427
▁一剎那	-12.0427
▁一剔一點	-12.0427
▁一剔過	-12.0427
▁一劈屎	-12.0427
▁一劈泥	-12.0427
▁一力扚	-12.0427
▁一力承擔	-12.0427
▁一動不動	-12.0427
▁一動不如一靜	-12.0427
▁一勞永逸	-12.0427
▁一匙	-12.0427
▁一匹布咁長	-12.0427
▁一十	-12.0427
▁一千	-12.0427
▁一千三百	-12.0427
▁一千二百	-12.0427
▁一千四百	-12.0427
▁一千幾二千	-12.0427
▁一千幾百	-12.0427
▁一千幾百猶如垃圾	-12.0427
▁一千零一	-12.0427
▁一千零一夜	-12.0427
▁一半	-12.0427
▁一半天	-12.0427
▁一卡通	-12.0427
▁一去不回	-12.0427
▁一去不復返	-12.0427
▁一去不返	-12.0427
▁一去無影蹤	-12.0427
▁一反常態	-12.0427
▁一口	-12.0427
▁一口價	-12.0427
▁一口吃不成胖子	-12.0427
▁一口吃個胖子	-12.0427
▁一口咬定	-12.0427
▁一口氣	-12.0427
▁一口氣兒	-12.0427
▁一口菸	-12.0427
▁一古腦兒	-12.0427
▁一句	-12.0427
▁一句話	-12.0427
▁一句講曬	-12.0427
▁一句起兩句止	-12.0427
▁一句鐘	-12.0427
▁一同	-12.0427
▁一吐爲快	-12.0427
▁一向	-12.0427
▁一味	-12.0427
▁一味靠黐	-12.0427
▁一呼百應	-12.0427
▁一呼百諾	-12.0427
▁一命二運三風水	-12.0427
▁一命嗚呼	-12.0427
▁一命歸天	-12.0427
▁一命歸西	-12.0427
▁一命歸陰	-12.0427
▁一品	-12.0427
▁一品紅	-12.0427
▁一品鍋	-12.0427
▁一哄而上	-12.0427
▁一哄而起	-12.0427
▁一哥	-12.0427
▁一哭二鬧三上吊	-12.0427
▁一唱一和	-12.0427
▁一唱三歎	-12.0427
▁一問一答	-12.0427
▁一問三不知	-12.0427
▁一啖	-12.0427
▁一啖砂糖一啖屎	-12.0427
▁一啖飯	-12.0427
▁一啲	-12.0427
▁一啲啲	-12.0427
▁一單	-12.0427
▁一嘢	-12.0427
▁一嚟到	-12.0427
▁一嚿	-12.0427
▁一嚿嘢	-12.0427
▁一嚿嚿	-12.0427
▁一嚿水	-12.0427
▁一嚿溜	-12.0427
▁一嚿雲	-12.0427
▁一嚿飯	-12.0427
▁一嚿飯噉	-12.0427
▁一囗	-12.0427
▁一四八	-12.0427
▁一回	-12.0427
▁一回事	-12.0427
▁一回生二回熟	-12.0427
▁一回生兩回熟	-12.0427
▁一國三公	-12.0427
▁一國之主	-12.0427
▁一國之君	-12.0427
▁一國兩制	-12.0427
▁一團	-12.0427
▁一團和氣	-12.0427
▁一團漆黑	-12.0427
▁一團火	-12.0427
▁一團糟	-12.0427
▁一地	-12.0427
▁一地眼鏡碎	-12.0427
▁一坺	-12.0427
▁一坺迾	-12.0427
▁一堂	-12.0427
▁一堆	-12.0427
▁一堆人	-12.0427
▁一場	-12.0427
▁一場兄弟	-12.0427
▁一場歡喜一場空	-12.0427
▁一場空	-12.0427
▁一場雨	-12.0427
▁一塊	-12.0427
▁一塊兒	-12.0427
▁一塌糊塗	-12.0427
▁一塵不染	-12.0427
▁一壁	-12.0427
▁一壁廂	-12.0427
▁一夔已足	-12.0427
▁一夕之間	-12.0427
▁一夕數驚	-12.0427
▁一多對應	-12.0427
▁一夜之間	-12.0427
▁一夜夫妻百二蚊	-12.0427
▁一夜夫妻百夜恩	-12.0427
▁一夜夫妻百日恩	-12.0427
▁一夜情	-12.0427
▁一夜爆紅	-12.0427
▁一夜致富	-12.0427
▁一夜露水	-12.0427
▁一夜風流	-12.0427
▁一大兩細	-12.0427
▁一大早	-12.0427
▁一大早兒	-12.0427
▁一大段	-12.0427
▁一大班	-12.0427
▁一大疊	-12.0427
▁一大籮	-12.0427
▁一大輪	-12.0427
▁一大餐	-12.0427
▁一天	-12.0427
▁一天一個樣	-12.0427
▁一天假	-12.0427
▁一天光曬	-12.0427
▁一天到晚	-12.0427
▁一天都光曬	-12.0427
▁一夫	-12.0427
▁一夫一妻	-12.0427
▁一夫一妻制	-12.0427
▁一夫多妻	-12.0427
▁一夫當關	-12.0427
▁一夫當關,萬夫莫敵	-12.0427
▁一夫當關,萬夫莫開	-12.0427
▁一失足成千古恨	-12.0427
▁一套	-12.0427
▁一如	-12.0427
▁一如以往	-12.0427
▁一如往昔	-12.0427
▁一如所料	-12.0427
▁一如既往	-12.0427
▁一妻制	-12.0427
▁一妻多夫	-12.0427
▁一妻多夫制	-12.0427
▁一姐	-12.0427
▁一子錯,滿盤皆落索	-12.0427
▁一孔之見	-12.0427
▁一字	-12.0427
▁一字一淚	-12.0427
▁一字不差	-12.0427
▁一字不提	-12.0427
▁一字不漏	-12.0427
▁一字不落	-12.0427
▁一字不識	-12.0427
▁一字之差	-12.0427
▁一字之師	-12.0427
▁一字千金	-12.0427
▁一字咁淺	-12.0427
▁一字咁錢	-12.0427
▁一字巾	-12.0427
▁一字膊	-12.0427
▁一字褒貶	-12.0427
▁一字角	-12.0427
▁一字馬	-12.0427
▁一學就識	-12.0427
▁一官半職	-12.0427
▁一定	-12.0427
▁一定會	-12.0427
▁一定要	-12.0427
▁一家	-12.0427
▁一家之主	-12.0427
▁一家人	-12.0427
▁一家便宜兩家着	-12.0427
▁一家便宜兩家着數	-12.0427
▁一家唔知一家事	-12.0427
▁一家團聚	-12.0427
▁一家大小	-12.0427
▁一家大細	-12.0427
▁一家子	-12.0427
▁一實	-12.0427
▁一審	-12.0427
▁一寸光陰一寸金	-12.0427
▁一寸光陰一寸金,寸金難買寸光陰	-12.0427
▁一將功成萬骨枯	-12.0427
▁一對	-12.0427
▁一對一	-12.0427
▁一對一鬥牛	-12.0427
▁一對兒	-12.0427
▁一對多	-12.0427
▁一小撮	-12.0427
▁一小撮人	-12.0427
▁一小時	-12.0427
▁一小部分	-12.0427
▁一小陣兒	-12.0427
▁一就一,二就二	-12.0427
▁一就一二就二	-12.0427
▁一尾	-12.0427
▁一局	-12.0427
▁一展身手	-12.0427
▁一層	-12.0427
▁一層層	-12.0427
▁一山不能藏二虎	-12.0427
▁一山還有一山高	-12.0427
▁一山還比一山高	-12.0427
▁一巖一窟	-12.0427
▁一己之私	-12.0427
▁一己之見	-12.0427
▁一巴	-12.0427
▁一巴掌	-12.0427
▁一帆風順	-12.0427
▁一席之地	-12.0427
▁一席話	-12.0427
▁一帶	-12.0427
▁一帶一路	-12.0427
▁一帶而過	-12.0427
▁一幢幢	-12.0427
▁一干嘢	-12.0427
▁一年	-12.0427
▁一年一度	-12.0427
▁一年三造	-12.0427
▁一年之計在於春	-12.0427
▁一年之計在於春,一日之計在於晨	-12.0427
▁一年到頭	-12.0427
▁一年半	-12.0427
▁一年半載	-12.0427
▁一年四季	-12.0427
▁一年多	-12.0427
▁一年期	-12.0427
▁一年生	-12.0427
▁一年級	-12.0427
▁一年被蛇咬十年怕井繩	-12.0427
▁一年間	-12.0427
▁一度	-12.0427
▁一廂情願	-12.0427
▁一式	-12.0427
▁一式一樣	-12.0427
▁一式二份	-12.0427
▁一式兩份	-12.0427
▁一弓射兩箭	-12.0427
▁一張	-12.0427
▁一張嘢	-12.0427
▁一彈指頃	-12.0427
▁一往	-12.0427
▁一往情深	-12.0427
▁一往無前	-12.0427
▁一往直前	-12.0427
▁一律	-12.0427
▁一徑	-12.0427
▁一德路	-12.0427
▁一心	-12.0427
▁一心一德	-12.0427
▁一心一意	-12.0427
▁一心二用	-12.0427
▁一心向上	-12.0427
▁一忍再忍	-12.0427
▁一念之差	-12.0427
▁一念之間	-12.0427
▁一怒之下	-12.0427
▁一怔	-12.0427
▁一息尚存	-12.0427
▁一息間	-12.0427
▁一意	-12.0427
▁一意孤行	-12.0427
▁一應	-12.0427
▁一應俱全	-12.0427
▁一成	-12.0427
▁一成不變	-12.0427
▁一戙	-12.0427
▁一戰	-12.0427
▁一房一廳	-12.0427
▁一手	-12.0427
▁一手一腳	-12.0427
▁一手交錢	-12.0427
▁一手交錢,一手交貨	-12.0427
▁一手包辦	-12.0427
▁一手搶過來	-12.0427
▁一手遮天	-12.0427
▁一打	-12.0427
▁一批	-12.0427
▁一技之長	-12.0427
▁一技傍身	-12.0427
▁一技旁身	-12.0427
▁一把	-12.0427
▁一把好手	-12.0427
▁一把屎一把尿	-12.0427
▁一把手	-12.0427
▁一把抓	-12.0427
▁一把死拿	-12.0427
▁一把火	-12.0427
▁一把眼淚一把鼻涕	-12.0427
▁一把鑰匙開一把鎖	-12.0427
▁一抓一大把	-12.0427
▁一折兩段	-12.0427
▁一抽一掕	-12.0427
▁一抽二掕	-12.0427
▁一抽二褦	-12.0427
▁一抿子	-12.0427
▁一拍兩散	-12.0427
▁一拍即合	-12.0427
▁一拍行	-12.0427
▁一招	-12.0427
▁一招半式	-12.0427
▁一掃而光	-12.0427
▁一掃而空	-12.0427
▁一排	-12.0427
▁一排排	-12.0427
▁一掬同情之淚	-12.0427
▁一揮而就	-12.0427
▁一搊一掕	-12.0427
▁一搊二掕	-12.0427
▁一搊二褦	-12.0427
▁一撇嘢	-12.0427
▁一撇水	-12.0427
▁一撥兒	-12.0427
▁一撲一碌	-12.0427
▁一撻即着	-12.0427
▁一擁而上	-12.0427
▁一擁而入	-12.0427
▁一擊入洞	-12.0427
▁一擔擔	-12.0427
▁一擗	-12.0427
▁一擗泥	-12.0427
▁一擲千金	-12.0427
▁一攬子	-12.0427
▁一支公	-12.0427
▁一改	-12.0427
▁一改故轍	-12.0427
▁一敗塗地	-12.0427
▁一整日	-12.0427
▁一文	-12.0427
▁一文不值	-12.0427
▁一文不名	-12.0427
▁一斑	-12.0427
▁一斤嘢	-12.0427
▁一方	-12.0427
▁一方面	-12.0427
▁一於	-12.0427
▁一旁	-12.0427
▁一族	-12.0427
▁一日	-12.0427
▁一日三秋	-12.0427
▁一日三餐	-12.0427
▁一日不見,如隔三秋	-12.0427
▁一日之計在於晨	-12.0427
▁一日之雅	-12.0427
▁一日到黑	-12.0427
▁一日千里	-12.0427
▁一日夫妻百日恩	-12.0427
▁一日爲師,終身爲父	-12.0427
▁一旦	-12.0427
▁一早	-12.0427
▁一早就	-12.0427
▁一星半點	-12.0427
▁一時	-12.0427
▁一時一樣	-12.0427
▁一時三刻	-12.0427
▁一時之間	-12.0427
▁一時半刻	-12.0427
▁一時半晌	-12.0427
▁一時半會	-12.0427
▁一時半會兒	-12.0427
▁一時半霎	-12.0427
▁一時口快	-12.0427
▁一時好一時壞	-12.0427
▁一時時	-12.0427
▁一時瑜亮	-12.0427
▁一時糊塗	-12.0427
▁一時興起	-12.0427
▁一時間	-12.0427
▁一晃	-12.0427
▁一晝一戙	-12.0427
▁一暴十寒	-12.0427
▁一曝十寒	-12.0427
▁一更	-12.0427
▁一會	-12.0427
▁一會兒	-12.0427
▁一月	-12.0427
▁一月份	-12.0427
▁一朕味	-12.0427
▁一朕煙	-12.0427
▁一朕風	-12.0427
▁一望無垠	-12.0427
▁一望無邊	-12.0427
▁一望無際	-12.0427
▁一望而知	-12.0427
▁一朝	-12.0427
▁一朝一夕	-12.0427
▁一朝天子一朝臣	-12.0427
▁一朝得志	-12.0427
▁一朝早	-12.0427
▁一朝被蛇咬	-12.0427
▁一朝被蛇咬,十年怕井繩	-12.0427
▁一期一會	-12.0427
▁一木難支	-12.0427
▁一本	-12.0427
▁一本便利	-12.0427
▁一本正經	-12.0427
▁一本萬利	-12.0427
▁一本通書睇到老	-12.0427
▁一朵鮮花插在牛糞上	-12.0427
▁一杯羹	-12.0427
▁一東一西	-12.0427
▁一板一眼	-12.0427
▁一板三眼	-12.0427
▁一枕黃粱	-12.0427
▁一枝之棲	-12.0427
▁一枝公	-12.0427
▁一枝獨秀	-12.0427
▁一架	-12.0427
▁一柱擎天	-12.0427
▁一柴	-12.0427
▁一根筋	-12.0427
▁一根繩上的螞蚱	-12.0427
▁一桿進洞	-12.0427
▁一條	-12.0427
▁一條冷	-12.0427
▁一條心	-12.0427
▁一條數	-12.0427
▁一條條	-12.0427
▁一條氣	-12.0427
▁一條繩上的螞蚱	-12.0427
▁一條道走到黑	-12.0427
▁一條龍	-12.0427
▁一條龍服務	-12.0427
▁一梯兩夥	-12.0427
▁一棚人	-12.0427
▁一棟	-12.0427
▁一棟嘢	-12.0427
▁一概	-12.0427
▁一概而論	-12.0427
▁一槌	-12.0427
▁一槌定音	-12.0427
▁一樂也	-12.0427
▁一樓一	-12.0427
▁一樓一架步	-12.0427
▁一樓一鳯	-12.0427
▁一樓一鳳	-12.0427
▁一模一樣	-12.0427
▁一樣	-12.0427
▁一樣嘢	-12.0427
▁一樣米養百樣人	-12.0427
▁一樹梨花壓海棠	-12.0427
▁一樹百穫	-12.0427
▁一橛	-12.0427
▁一檔	-12.0427
▁一次	-12.0427
▁一次函數	-12.0427
▁一次半次	-12.0427
▁一次又一次	-12.0427
▁一次定生死	-12.0427
▁一次性	-12.0427
▁一次方程	-12.0427
▁一次方程式	-12.0427
▁一次生,兩次熟	-12.0427
▁一次生兩次熟	-12.0427
▁一次總付	-12.0427
▁一次起兩次止	-12.0427
▁一次過	-12.0427
▁一步	-12.0427
▁一步一個腳印	-12.0427
▁一步一步	-12.0427
▁一步一趨	-12.0427
▁一步到位	-12.0427
▁一步步	-12.0427
▁一步登天	-12.0427
▁一死一傷	-12.0427
▁一死了之	-12.0427
▁一段	-12.0427
▁一殼眼淚	-12.0427
▁一毛不拔	-12.0427
▁一毛錢	-12.0427
▁一氣	-12.0427
▁一氣之下	-12.0427
▁一氣呵成	-12.0427
▁一氧化二氮	-12.0427
▁一氧化氮	-12.0427
▁一氧化物	-12.0427
▁一氧化碳	-12.0427
▁一氧化碳中毒	-12.0427
▁一水兒	-12.0427
▁一池春水	-12.0427
▁一池死水	-12.0427
▁一池秋水	-12.0427
▁一決勝負	-12.0427
▁一決雌雄	-12.0427
▁一沉百踩	-12.0427
▁一沐三握髮	-12.0427
▁一波三折	-12.0427
▁一波又起	-12.0427
▁一波未平	-12.0427
▁一波未平,一波又起	-12.0427
▁一注香	-12.0427
▁一洗塵俗	-12.0427
▁一派	-12.0427
▁一派胡言	-12.0427
▁一派謊言	-12.0427
▁一流	-12.0427
▁一浪	-12.0427
▁一浪接一浪	-12.0427
▁一清二楚	-12.0427
▁一清二白	-12.0427
▁一清如水	-12.0427
▁一清早	-12.0427
▁一準	-12.0427
▁一溜煙	-12.0427
▁一潭死水	-12.0427
▁一瀉千里	-12.0427
▁一炮打響	-12.0427
▁一炮而紅	-12.0427
▁一炮過	-12.0427
▁一無可取	-12.0427
▁一無所動	-12.0427
▁一無所得	-12.0427
▁一無所恃	-12.0427
▁一無所有	-12.0427
▁一無所獲	-12.0427
▁一無所知	-12.0427
▁一無所聞	-12.0427
▁一無所長	-12.0427
▁一無是處	-12.0427
▁一無長物	-12.0427
▁一爲神功,二爲弟子	-12.0427
▁一片	-12.0427
▁一片丹心	-12.0427
▁一片汪洋	-12.0427
▁一片漆黑	-12.0427
▁一片癡心	-12.0427
▁一片苦心	-12.0427
▁一牌	-12.0427
▁一物剋一物	-12.0427
▁一物治一物,糯米治木蝨	-12.0427
▁一物治一物糯米治木蝨	-12.0427
▁一物降一物	-12.0427
▁一狐之腋	-12.0427
▁一猜嘢	-12.0427
▁一班	-12.0427
▁一班人	-12.0427
▁一班嘩鬼	-12.0427
▁一球	-12.0427
▁一理通,百理明	-12.0427
▁一理通百理明	-12.0427
▁一琴一鶴	-12.0427
▁一生	-12.0427
▁一生一世	-12.0427
▁一生人	-12.0427
▁一生受用不盡	-12.0427
▁一甲	-12.0427
▁一甲子	-12.0427
▁一番	-12.0427
▁一番苦心	-12.0427
▁一疋布咁長	-12.0427
▁一病不起	-12.0427
▁一瘸一拐	-12.0427
▁一登	-12.0427
▁一登龍門	-12.0427
▁一發	-12.0427
▁一發不可收拾	-12.0427
▁一白遮三醜	-12.0427
▁一百	-12.0427
▁一百一	-12.0427
▁一百五十	-12.0427
▁一百六十八	-12.0427
▁一百幾	-12.0427
▁一百萬	-12.0427
▁一百零一	-12.0427
▁一百零幾	-12.0427
▁一皇兩後	-12.0427
▁一皇多後	-12.0427
▁一皇雙後	-12.0427
▁一皮	-12.0427
▁一皮嘢	-12.0427
▁一盅兩件	-12.0427
▁一盤散沙	-12.0427
▁一盤水	-12.0427
▁一目十行	-12.0427
▁一目瞭然	-12.0427
▁一直	-12.0427
▁一直以來	-12.0427
▁一直去	-12.0427
▁一直往前	-12.0427
▁一直行	-12.0427
▁一相情願	-12.0427
▁一眨眼	-12.0427
▁一眼	-12.0427
▁一眼望去	-12.0427
▁一眼看穿	-12.0427
▁一眼睇曬	-12.0427
▁一眼關七	-12.0427
▁一着不慎,滿盤皆輸	-12.0427
▁一睇	-12.0427
▁一睹	-12.0427
▁一瞥	-12.0427
▁一瞬	-12.0427
▁一瞬間	-12.0427
▁一矢中的	-12.0427
▁一矢雙鵰	-12.0427
▁一知半解	-12.0427
▁一石二鳥	-12.0427
▁一石兩鳥	-12.0427
▁一碌木	-12.0427
▁一碌杉	-12.0427
▁一碌蔗	-12.0427
▁一碌鳩	-12.0427
▁一碗	-12.0427
▁一碟齋	-12.0427
▁一磚豆腐想昇仙	-12.0427
▁一祕	-12.0427
▁一神教	-12.0427
▁一神論	-12.0427
▁一秉虔誠	-12.0427
▁一種	-12.0427
▁一種米養百種人	-12.0427
▁一空	-12.0427
▁一窩蜂	-12.0427
▁一窮二白	-12.0427
▁一窺究竟	-12.0427
▁一窿蛇	-12.0427
▁一竅不通	-12.0427
▁一站式	-12.0427
▁一端	-12.0427
▁一竹篙打一船人	-12.0427
▁一竹篙打曬一船人	-12.0427
▁一竹篙打死一船人	-12.0427
▁一竹篙揇咗一船人	-12.0427
▁一竹篙揇沉一船人	-12.0427
▁一笑了之	-12.0427
▁一笑置之	-12.0427
▁一筆out銷	-12.0427
▁一筆不苟	-12.0427
▁一筆勾銷	-12.0427
▁一筆抹殺	-12.0427
▁一筆抹煞	-12.0427
▁一筆過	-12.0427
▁一筆還一筆	-12.0427
▁一等	-12.0427
▁一等兵	-12.0427
▁一等獎	-12.0427
▁一等艙	-12.0427
▁一箭之仇	-12.0427
▁一箭雙雕	-12.0427
▁一箭雙鵰	-12.0427
▁一箸夾中	-12.0427
▁一箸菜	-12.0427
▁一節淡三墟	-12.0427
▁一節詩	-12.0427
▁一篇文章	-12.0427
▁一籌莫展	-12.0427
▁一籮筐	-12.0427
▁一籮籮	-12.0427
▁一粒嘢	-12.0427
▁一粒神	-12.0427
▁一粒老鼠屎壞了一鍋粥	-12.0427
▁一粒臣	-12.0427
▁一粒花	-12.0427
▁一粒鐘	-12.0427
▁一粒骰噉	-12.0427
▁一系列	-12.0427
▁一紙空文	-12.0427
▁一級	-12.0427
▁一級士官	-12.0427
▁一級方程式	-12.0427
▁一級棒	-12.0427
▁一級頭	-12.0427
▁一索得男	-12.0427
▁一絕	-12.0427
▁一統	-12.0427
▁一統天下	-12.0427
▁一絲	-12.0427
▁一絲一毫	-12.0427
▁一絲不掛	-12.0427
▁一絲不苟	-12.0427
▁一經	-12.0427
▁一維	-12.0427
▁一網成擒	-12.0427
▁一網打盡	-12.0427
▁一線	-12.0427
▁一線之間	-12.0427
▁一線之隔	-12.0427
▁一線希望	-12.0427
▁一線微光	-12.0427
▁一線牽	-12.0427
▁一線生機	-12.0427
▁一總	-12.0427
▁一羣	-12.0427
▁一老一幼	-12.0427
▁一而再	-12.0427
▁一而再,再而三	-12.0427
▁一聲	-12.0427
▁一聲不吭	-12.0427
▁一聲不響	-12.0427
▁一聲令下	-12.0427
▁一肚子	-12.0427
▁一肚屎計	-12.0427
▁一肚氣	-12.0427
▁一肚火	-12.0427
▁一肚皮	-12.0427
▁一股子	-12.0427
▁一股腦	-12.0427
▁一股腦兒	-12.0427
▁一胎制	-12.0427
▁一胎化	-12.0427
▁一脈相傳	-12.0427
▁一脈相承	-12.0427
▁一腔	-12.0427
▁一腔熱血	-12.0427
▁一腔熱誠	-12.0427
▁一腳牛屎	-12.0427
▁一腳踏兩船	-12.0427
▁一腳踏幾船	-12.0427
▁一腳踢	-12.0427
▁一腳踢開	-12.0427
▁一臂之力	-12.0427
▁一臉茫然	-12.0427
▁一自	-12.0427
▁一致	-12.0427
▁一致字	-12.0427
▁一致性	-12.0427
▁一致性效應	-12.0427
▁一致資源定址器	-12.0427
▁一舉	-12.0427
▁一舉一動	-12.0427
▁一舉兩得	-12.0427
▁一舉成功	-12.0427
▁一舉成名	-12.0427
▁一舉手一投足	-12.0427
▁一舊	-12.0427
▁一舊木	-12.0427
▁一舊舊	-12.0427
▁一舊雲	-12.0427
▁一舊飯	-12.0427
▁一般	-12.0427
▁一般人	-12.0427
▁一般來說	-12.0427
▁一般來講	-12.0427
▁一般原則	-12.0427
▁一般嚟講	-12.0427
▁一般常識	-12.0427
▁一般性	-12.0427
▁一般情形	-12.0427
▁一般狀況	-12.0427
▁一般而言	-12.0427
▁一般見識	-12.0427
▁一般規定	-12.0427
▁一般說來	-12.0427
▁一般貿易	-12.0427
▁一色	-12.0427
▁一色一樣	-12.0427
▁一草	-12.0427
▁一草嘢	-12.0427
▁一萬	-12.0427
▁一萬九千幾	-12.0427
▁一萬五千幾	-12.0427
▁一萬四千	-12.0427
▁一萬銀	-12.0427
▁一落千丈	-12.0427
▁一葉扁舟	-12.0427
▁一葉知秋	-12.0427
▁一葉障目	-12.0427
▁一處	-12.0427
▁一號	-12.0427
▁一號木桿	-12.0427
▁一號電池	-12.0427
▁一蚊雞	-12.0427
▁一蟹不如一蟹	-12.0427
▁一蟹不如蟹	-12.0427
▁一衆	-12.0427
▁一行	-12.0427
▁一衣帶水	-12.0427
▁一表人才	-12.0427
▁一表人材	-12.0427
▁一表斯文	-12.0427
▁一見	-12.0427
▁一見傾心	-12.0427
▁一見如故	-12.0427
▁一見鍾情	-12.0427
▁一見鐘情	-12.0427
▁一見高低	-12.0427
▁一視同仁	-12.0427
▁一親芳澤	-12.0427
▁一覺醒來	-12.0427
▁一覽	-12.0427
▁一覽無遺	-12.0427
▁一覽無餘	-12.0427
▁一覽表	-12.0427
▁一角銀幣	-12.0427
▁一觸即潰	-12.0427
▁一觸即發	-12.0427
▁一言	-12.0427
▁一言一動	-12.0427
▁一言一行	-12.0427
▁一言不發	-12.0427
▁一言中的	-12.0427
▁一言九頂	-12.0427
▁一言九鼎	-12.0427
▁一言以蔽	-12.0427
▁一言以蔽之	-12.0427
▁一言千金	-12.0427
▁一言半語	-12.0427
▁一言喪邦	-12.0427
▁一言堂	-12.0427
▁一言抄百總	-12.0427
▁一言既出	-12.0427
▁一言既出,駟馬難追	-12.0427
▁一言既出駟馬難追	-12.0427
▁一言爲定	-12.0427
▁一言爲重	-12.0427
▁一言興邦	-12.0427
▁一言興邦,一言喪邦	-12.0427
▁一言難盡	-12.0427
▁一言驚醒夢中人	-12.0427
▁一言驚醒洛克人	-12.0427
▁一試便知龍與鳯	-12.0427
▁一語不發	-12.0427
▁一語中的	-12.0427
▁一語成讖	-12.0427
▁一語破的	-12.0427
▁一語道破	-12.0427
▁一語雙關	-12.0427
▁一誤再誤	-12.0427
▁一說	-12.0427
▁一諾值千金	-12.0427
▁一諾千金	-12.0427
▁一講曹操,曹操就到	-12.0427
▁一講曹操曹操就到	-12.0427
▁一讀	-12.0427
▁一貌堂堂	-12.0427
▁一貧如洗	-12.0427
▁一貫	-12.0427
▁一走了之	-12.0427
▁一起	-12.0427
▁一跌再跌	-12.0427
▁一跑	-12.0427
▁一路	-12.0427
▁一路上	-12.0427
▁一路以來	-12.0427
▁一路以爲	-12.0427
▁一路來	-12.0427
▁一路好走	-12.0427
▁一路平安	-12.0427
▁一路發	-12.0427
▁一路路	-12.0427
▁一路順風	-12.0427
▁一路風塵	-12.0427
▁一蹴即至	-12.0427
▁一蹴可幾	-12.0427
▁一蹴而就	-12.0427
▁一蹴而得	-12.0427
▁一蹶不振	-12.0427
▁一躍而起	-12.0427
▁一身	-12.0427
▁一身債	-12.0427
▁一身兩役	-12.0427
▁一身是膽	-12.0427
▁一身汗	-12.0427
▁一身腥	-12.0427
▁一身蟻	-12.0427
▁一身鬆	-12.0427
▁一較高下	-12.0427
▁一輩	-12.0427
▁一輩子	-12.0427
▁一輪	-12.0427
▁一輪嘴	-12.0427
▁一轆木	-12.0427
▁一轆木噉	-12.0427
▁一轆杉	-12.0427
▁一轉眼	-12.0427
▁一辭莫贊	-12.0427
▁一通百通	-12.0427
▁一逞獸欲	-12.0427
▁一連	-12.0427
▁一連串	-12.0427
▁一週	-12.0427
▁一遍	-12.0427
▁一遍又一遍	-12.0427
▁一過性	-12.0427
▁一道	-12.0427
▁一達	-12.0427
▁一遞一個	-12.0427
▁一遞一聲	-12.0427
▁一適間	-12.0427
▁一邊	-12.0427
▁一邊倒	-12.0427
▁一部	-12.0427
▁一部二十四史,不知從何說起	-12.0427
▁一部份	-12.0427
▁一部分	-12.0427
▁一醉方休	-12.0427
▁一醉解千愁	-12.0427
▁一針見血	-12.0427
▁一鋪	-12.0427
▁一鋪清袋	-12.0427
▁一錘子買賣	-12.0427
▁一錘定音	-12.0427
▁一錢不值	-12.0427
▁一錢如命	-12.0427
▁一錯再錯	-12.0427
▁一鍋粥	-12.0427
▁一鑊	-12.0427
▁一鑊撬起	-12.0427
▁一鑊泡	-12.0427
▁一鑊炒起	-12.0427
▁一鑊熟	-12.0427
▁一鑊粥	-12.0427
▁一鑊繑起	-12.0427
▁一門	-12.0427
▁一門心思	-12.0427
▁一閃即逝	-12.0427
▁一閃念	-12.0427
▁一閃而過	-12.0427
▁一間間	-12.0427
▁一闊三大	-12.0427
▁一院	-12.0427
▁一陣	-12.0427
▁一陣先	-12.0427
▁一陣子	-12.0427
▁一陣間	-12.0427
▁一陣陣	-12.0427
▁一陣風	-12.0427
▁一隅	-12.0427
▁一隻乸	-12.0427
▁一隻二隻	-12.0427
▁一隻屐	-12.0427
▁一隻屐噉	-12.0427
▁一隻履	-12.0427
▁一隻牛	-12.0427
▁一隻狗噉	-12.0427
▁一隻雀噉	-12.0427
▁一雙	-12.0427
▁一雙鞋	-12.0427
▁一雞嘢	-12.0427
▁一雞死,一雞鳴	-12.0427
▁一雞死一雞鳴	-12.0427
▁一雨成秋	-12.0427
▁一零八	-12.0427
▁一零四	-12.0427
▁一霎	-12.0427
▁一霎時	-12.0427
▁一霎眼	-12.0427
▁一霎間	-12.0427
▁一靈真性	-12.0427
▁一面	-12.0427
▁一面之交	-12.0427
▁一面之緣	-12.0427
▁一面之詞	-12.0427
▁一面倒	-12.0427
▁一面屁	-12.0427
▁一項	-12.0427
▁一項一項地	-12.0427
▁一頭	-12.0427
▁一頭半個月	-12.0427
▁一頭半月	-12.0427
▁一頭家	-12.0427
▁一頭栽進	-12.0427
▁一頭煙	-12.0427
▁一頭霧水	-12.0427
▁一頸血	-12.0427
▁一顆老鼠屎壞了一鍋湯	-12.0427
▁一顆老鼠屎壞了一鍋粥	-12.0427
▁一題	-12.0427
▁一額汗	-12.0427
▁一類	-12.0427
▁一類保護動物	-12.0427
▁一顰一笑	-12.0427
▁一飛沖天	-12.0427
▁一飛衝天	-12.0427
▁一飲而盡	-12.0427
▁一飽口福	-12.0427
▁一飽眼福	-12.0427
▁一飽耳福	-12.0427
▁一餐	-12.0427
▁一餐飯	-12.0427
▁一馬平川	-12.0427
▁一馬當先	-12.0427
▁一驚	-12.0427
▁一驚一乍	-12.0427
▁一骨碌	-12.0427
▁一體	-12.0427
▁一體兩面	-12.0427
▁一體化	-12.0427
▁一髮千鈞	-12.0427
▁一鬨而散	-12.0427
▁一鱗半爪	-12.0427
▁一鳴驚人	-12.0427
▁一黑早	-12.0427
▁一點	-12.0427
▁一點一滴	-12.0427
▁一點一點	-12.0427
▁一點不	-12.0427
▁一點兒	-12.0427
▁一點半	-12.0427
▁一點就通	-12.0427
▁一點水一個泡	-12.0427
▁一點鄰域	-12.0427
▁一點鐘	-12.0427
▁一點點	-12.0427
▁一黨	-12.0427
▁一黨制	-12.0427
▁一黨專制	-12.0427
▁一鼓作氣	-12.0427
▁一鼻孔出氣	-12.0427
▁一齊	-12.0427
▁一齊嚟	-12.0427
▁一齊送	-12.0427
▁一齋三雜	-12.0427
▁一齋兩雜	-12.0427
▁丁	-12.0427
▁丁丁	-12.0427
▁丁丁炒麪	-12.0427
▁丁丑	-12.0427
▁丁二烯	-12.0427
▁丁二醇	-12.0427
▁丁亥	-12.0427
▁丁克	-12.0427
▁丁內酯	-12.0427
▁丁冬	-12.0427
▁丁加奴	-12.0427
▁丁卯	-12.0427
▁丁卯戰爭	-12.0427
▁丁卯胡亂	-12.0427
▁丁咁多	-12.0427
▁丁咁大	-12.0427
▁丁圖	-12.0427
▁丁型肝炎	-12.0427
▁丁基	-12.0427
▁丁字	-12.0427
▁丁字尺	-12.0427
▁丁字形	-12.0427
▁丁字梁	-12.0427
▁丁字步	-12.0427
▁丁字街	-12.0427
▁丁字褲	-12.0427
▁丁字鎬	-12.0427
▁丁客	-12.0427
▁丁寧	-12.0427
▁丁寵家庭	-12.0427
▁丁屋	-12.0427
▁丁屎	-12.0427
▁丁巳	-12.0427
▁丁憂	-12.0427
▁丁是丁卯是卯	-12.0427
▁丁未	-12.0427
▁丁權	-12.0427
▁丁汝昌	-12.0427
▁丁烯	-12.0427
▁丁烷	-12.0427
▁丁玲	-12.0427
▁丁磊	-12.0427
▁丁等	-12.0427
▁丁糖	-12.0427
▁丁級	-12.0427
▁丁肇中	-12.0427
▁丁艱	-12.0427
▁丁蟹效應	-12.0427
▁丁酉	-12.0427
▁丁醇	-12.0427
▁丁醛	-12.0427
▁丁零噹啷	-12.0427
▁丁零襶褦	-12.0427
▁丁青	-12.0427
▁丁青縣	-12.0427
▁丁韙良	-12.0427
▁丁香	-12.0427
▁丁香油	-12.0427
▁丁香花	-12.0427
▁丁骨牛排	-12.0427
▁丁鯛	-12.0427
▁丁鱥	-12.0427
▁丁麪	-12.0427
▁丁點	-12.0427
▁丂	-12.0427
▁七	-12.0427
▁七一遊行	-12.0427
▁七七	-12.0427
▁七七事變	-12.0427
▁七七八八	-12.0427
▁七上八下	-12.0427
▁七下七下	-12.0427
▁七事	-12.0427
▁七仔	-12.0427
▁七個	-12.0427
▁七個一皮	-12.0427
▁七個字	-12.0427
▁七八九	-12.0427
▁七出	-12.0427
▁七分之一	-12.0427
▁七分褲	-12.0427
▁七十	-12.0427
▁七十一	-12.0427
▁七十七	-12.0427
▁七十七國集團	-12.0427
▁七十二行	-12.0427
▁七十二變	-12.0427
▁七十八	-12.0427
▁七十年代	-12.0427
▁七十幾	-12.0427
▁七千	-12.0427
▁七名	-12.0427
▁七味粉	-12.0427
▁七和絃	-12.0427
▁七咕碌	-12.0427
▁七喜	-12.0427
▁七嘴八張	-12.0427
▁七嘴八舌	-12.0427
▁七四七	-12.0427
▁七國咁亂	-12.0427
▁七國集團	-12.0427
▁七堵	-12.0427
▁七堵區	-12.0427
▁七夕	-12.0427
▁七夕樹	-12.0427
▁七夕節	-12.0427
▁七大工業國集團	-12.0427
▁七大洲	-12.0427
▁七姊妹	-12.0427
▁七姊妹星團	-12.0427
▁七姊妹道	-12.0427
▁七姐	-12.0427
▁七姐反宮衣	-12.0427
▁七孔	-12.0427
▁七孔流血	-12.0427
▁七孔生煙	-12.0427
▁七宗罪	-12.0427
▁七尺之驅	-12.0427
▁七層架構	-12.0427
▁七巧板	-12.0427
▁七帶石斑魚	-12.0427
▁七平八穩	-12.0427
▁七年之癢	-12.0427
▁七年級	-12.0427
▁七幾	-12.0427
▁七幾年	-12.0427
▁七張幾	-12.0427
▁七彩	-12.0427
▁七彩神仙	-12.0427
▁七彩繽紛	-12.0427
▁七律	-12.0427
▁七情	-12.0427
▁七情上面	-12.0427
▁七情六慾	-12.0427
▁七手八腳	-12.0427
▁七打扒	-12.0427
▁七扭八歪	-12.0427
▁七扶八插	-12.0427
▁七折八扣	-12.0427
▁七拐八拐	-12.0427
▁七拼八湊	-12.0427
▁七擒七縱	-12.0427
▁七支八離	-12.0427
▁七政四餘	-12.0427
▁七方	-12.0427
▁七旋斬	-12.0427
▁七日	-12.0427
▁七日熱	-12.0427
▁七日鮮	-12.0427
▁七早八早	-12.0427
▁七旬老人	-12.0427
▁七星	-12.0427
▁七星區	-12.0427
▁七星巖	-12.0427
▁七星瓢蟲	-12.0427
▁七星茶	-12.0427
▁七曜	-12.0427
▁七月	-12.0427
▁七月一號	-12.0427
▁七月三十號	-12.0427
▁七月份	-12.0427
▁七月有立秋,遲禾冇得收	-12.0427
▁七月落金,八月落銀	-12.0427
▁七橫八豎	-12.0427
▁七步之才	-12.0427
▁七步奇才	-12.0427
▁七步成詩	-12.0427
▁七步詩	-12.0427
▁七武士	-12.0427
▁七河州	-12.0427
▁七爺八爺	-12.0427
▁七百	-12.0427
▁七碌	-12.0427
▁七碳糖	-12.0427
▁七窮六絕	-12.0427
▁七竅	-12.0427
▁七竅冒煙	-12.0427
▁七竅生煙	-12.0427
▁七級	-12.0427
▁七級浮屠	-12.0427
▁七級豬	-12.0427
▁七絃琴	-12.0427
▁七美	-12.0427
▁七美鄉	-12.0427
▁七老八十	-12.0427
▁七聲	-12.0427
▁七聲音階	-12.0427
▁七股	-12.0427
▁七股鄉	-12.0427
▁七臺河	-12.0427
▁七臺河市	-12.0427
▁七萬	-12.0427
▁七葉樹	-12.0427
▁七葷八素	-12.0427
▁七號差館	-12.0427
▁七號電池	-12.0427
▁七行詩	-12.0427
▁七角形	-12.0427
▁七言	-12.0427
▁七言律詩	-12.0427
▁七言絕句	-12.0427
▁七言詩	-12.0427
▁七邊形	-12.0427
▁七里河	-12.0427
▁七里河區	-12.0427
▁七里香	-12.0427
▁七重唱	-12.0427
▁七重奏	-12.0427
▁七除八扣	-12.0427
▁七除八拆	-12.0427
▁七零八碎	-12.0427
▁七零八落	-12.0427
▁七項全能	-12.0427
▁七顛八倒	-12.0427
▁七魄	-12.0427
▁七鰓鰻	-12.0427
▁七點	-12.0427
▁七點半	-12.0427
▁七點鐘	-12.0427
▁七龍珠	-12.0427
▁丄	-12.0427
▁丅	-12.0427
▁丅裇	-12.0427
▁丆	-12.0427
▁万俟	-12.0427
▁丈	-12.0427
▁丈二和尚,摸不着頭腦	-12.0427
▁丈二金剛摸不着頭腦	-12.0427
▁丈人	-12.0427
▁丈夫	-12.0427
▁丈母	-12.0427
▁丈母孃	-12.0427
▁丈量	-12.0427
▁三	-12.0427
▁三c	-12.0427
▁三p	-12.0427
▁三t	-12.0427
▁三七	-12.0427
▁三七二十一	-12.0427
▁三七仔	-12.0427
▁三七開	-12.0427
▁三七開定論	-12.0427
▁三三兩兩	-12.0427
▁三三四	-12.0427
▁三下五落二	-12.0427
▁三下五除二	-12.0427
▁三不	-12.0427
▁三不五時	-12.0427
▁三不朽	-12.0427
▁三不知	-12.0427
▁三不管	-12.0427
▁三世	-12.0427
▁三中全會	-12.0427
▁三九兩丁七	-12.0427
▁三九唔識七	-12.0427
▁三九四零五二	-12.0427
▁三九天	-12.0427
▁三五七	-12.0427
▁三五成羣	-12.0427
▁三五知己	-12.0427
▁三井	-12.0427
▁三亞	-12.0427
▁三亞市	-12.0427
▁三人口氣	-12.0427
▁三人性交	-12.0427
▁三人成虎	-12.0427
▁三人行	-12.0427
▁三人行,則必有我師	-12.0427
▁三人行,必有我師	-12.0427
▁三人行必有我師	-12.0427
▁三仇	-12.0427
▁三仔	-12.0427
▁三代	-12.0427
▁三代同堂	-12.0427
▁三令五申	-12.0427
▁三件套式西裝	-12.0427
▁三件頭	-12.0427
▁三伏	-12.0427
▁三伏天	-12.0427
▁三位	-12.0427
▁三位一體	-12.0427
▁三位博士	-12.0427
▁三位數	-12.0427
▁三保	-12.0427
▁三俠五義	-12.0427
▁三個世界	-12.0427
▁三個代表	-12.0427
▁三個女人一個墟	-12.0427
▁三個女人一臺戲	-12.0427
▁三個字	-12.0427
▁三個臭皮匠	-12.0427
▁三個臭皮匠,勝過一個諸葛亮	-12.0427
▁三個臭皮匠,合成一個諸葛亮	-12.0427
▁三個臭皮匠,賽過一個諸葛亮	-12.0427
▁三個臭皮匠,賽過諸葛亮	-12.0427
▁三個臭皮匠,頂個諸葛亮	-12.0427
▁三個骨	-12.0427
▁三個骨褲	-12.0427
▁三倍	-12.0427
▁三催四請	-12.0427
▁三價	-12.0427
▁三元區	-12.0427
▁三元及第	-12.0427
▁三元運算	-12.0427
▁三元醇	-12.0427
▁三元里	-12.0427
▁三元里站	-12.0427
▁三光	-12.0427
▁三光政策	-12.0427
▁三兩	-12.0427
▁三兩下手勢	-12.0427
▁三兩下手腳	-12.0427
▁三八	-12.0427
▁三八婦女節	-12.0427
▁三八線	-12.0427
▁三公	-12.0427
▁三公消費	-12.0427
▁三公經費	-12.0427
▁三六	-12.0427
▁三六九	-12.0427
▁三六滾一滾	-12.0427
▁三六香肉	-12.0427
▁三刀六洞	-12.0427
▁三刀六眼	-12.0427
▁三分	-12.0427
▁三分一	-12.0427
▁三分之一	-12.0427
▁三分二	-12.0427
▁三分波	-12.0427
▁三分熟	-12.0427
▁三分鐘熱度	-12.0427
▁三分頭	-12.0427
▁三分顏色上大紅	-12.0427
▁三剎位	-12.0427
▁三劃	-12.0427
▁三劃王	-12.0427
▁三包	-12.0427
▁三十	-12.0427
▁三十一日	-12.0427
▁三十一號	-12.0427
▁三十三	-12.0427
▁三十九	-12.0427
▁三十二	-12.0427
▁三十二位元	-12.0427
▁三十二相	-12.0427
▁三十八度線	-12.0427
▁三十六字母	-12.0427
▁三十六着走爲上着	-12.0427
▁三十六計	-12.0427
▁三十六計,走爲上策	-12.0427
▁三十幾	-12.0427
▁三十幾萬	-12.0427
▁三十日	-12.0427
▁三十而立	-12.0427
▁三十萬	-12.0427
▁三十號	-12.0427
▁三千	-12.0427
▁三千零	-12.0427
▁三原	-12.0427
▁三原則	-12.0427
▁三原縣	-12.0427
▁三原色	-12.0427
▁三叉戟	-12.0427
▁三叉神經	-12.0427
▁三叉蘇	-12.0427
▁三及第	-12.0427
▁三反	-12.0427
▁三反運動	-12.0427
▁三叔	-12.0427
▁三口兩脷	-12.0427
▁三口六面	-12.0427
▁三句不離	-12.0427
▁三句不離本行	-12.0427
▁三句話不離本行	-12.0427
▁三司會審	-12.0427
▁三合一	-12.0427
▁三合一疫苗	-12.0427
▁三合土	-12.0427
▁三合星	-12.0427
▁三合會	-12.0427
▁三合板	-12.0427
▁三味	-12.0427
▁三味線	-12.0427
▁三和絃	-12.0427
▁三唔識七	-12.0427
▁三四	-12.0427
▁三四百	-12.0427
▁三國	-12.0427
▁三國史記	-12.0427
▁三國志	-12.0427
▁三國時代	-12.0427
▁三國演義	-12.0427
▁三國誌	-12.0427
▁三國鼎立	-12.0427
▁三圍	-12.0427
▁三地門	-12.0427
▁三地門鄉	-12.0427
▁三大紀律八項注意	-12.0427
▁三天不打,上房揭瓦	-12.0427
▁三天兩頭	-12.0427
▁三天打魚,兩天曬網	-12.0427
▁三夷教	-12.0427
▁三奶	-12.0427
▁三姑六婆	-12.0427
▁三媽	-12.0427
▁三嬸	-12.0427
▁三字經	-12.0427
▁三官大帝	-12.0427
▁三家村	-12.0427
▁三寶	-12.0427
▁三寶太監	-12.0427
▁三寶鳥	-12.0427
▁三寸不爛之舌	-12.0427
▁三寸金蓮	-12.0427
▁三寸釘	-12.0427
▁三對三鬥牛	-12.0427
▁三少	-12.0427
▁三尖八角	-12.0427
▁三尖杉酯鹼	-12.0427
▁三屜桌	-12.0427
▁三層肉	-12.0427
▁三山	-12.0427
▁三山區	-12.0427
▁三岔口	-12.0427
▁三岔路口	-12.0427
▁三島由紀夫	-12.0427
▁三峽	-12.0427
▁三峽大壩	-12.0427
▁三峽水庫	-12.0427
▁三峽鎮	-12.0427
▁三幅被	-12.0427
▁三年	-12.0427
▁三年五載	-12.0427
▁三年唔發市,發市當三年	-12.0427
▁三年唔發市發市當三年	-12.0427
▁三年抱兩	-12.0427
▁三年級	-12.0427
▁三年零八個月	-12.0427
▁三幾	-12.0427
▁三幾兩	-12.0427
▁三度	-12.0427
▁三度板斧	-12.0427
▁三度空間	-12.0427
▁三廂	-12.0427
▁三廢	-12.0427
▁三得利	-12.0427
▁三從四德	-12.0427
▁三心二意	-12.0427
▁三心兩意	-12.0427
▁三思	-12.0427
▁三思而後行	-12.0427
▁三思而行	-12.0427
▁三急	-12.0427
▁三態	-12.0427
▁三態變化	-12.0427
▁三成	-12.0427
▁三房一廳	-12.0427
▁三房二廳	-12.0427
▁三手兩腳	-12.0427
▁三手病	-12.0427
▁三手菸	-12.0427
▁三手辮	-12.0427
▁三扒兩撥	-12.0427
▁三拗湯	-12.0427
▁三振	-12.0427
▁三振出局	-12.0427
▁三推四搪	-12.0427
▁三擊掌	-12.0427
▁三支香	-12.0427
▁三教	-12.0427
▁三教九流	-12.0427
▁三文治	-12.0427
▁三文魚	-12.0427
▁三斑家蚊	-12.0427
▁三料	-12.0427
▁三斤	-12.0427
▁三方	-12.0427
▁三族	-12.0427
▁三日	-12.0427
▁三日兩夜	-12.0427
▁三日兩頭	-12.0427
▁三日香	-12.0427
▁三旬九食	-12.0427
▁三明	-12.0427
▁三明市	-12.0427
▁三明治	-12.0427
▁三星	-12.0427
▁三星級	-12.0427
▁三星鄉	-12.0427
▁三星集團	-12.0427
▁三春	-12.0427
▁三昧	-12.0427
▁三更	-12.0427
▁三更半夜	-12.0427
▁三更窮五更富	-12.0427
▁三書六禮	-12.0427
▁三曹	-12.0427
▁三月	-12.0427
▁三月二十一號	-12.0427
▁三月份	-12.0427
▁三月街	-12.0427
▁三朋四友	-12.0427
▁三朝	-12.0427
▁三朝元老	-12.0427
▁三朝兩日	-12.0427
▁三板	-12.0427
▁三板斧	-12.0427
▁三枝桅	-12.0427
▁三柱門	-12.0427
▁三柴	-12.0427
▁三框欄	-12.0427
▁三條	-12.0427
▁三棟	-12.0427
▁三棟屋博物館	-12.0427
▁三棱草	-12.0427
▁三棱鏡	-12.0427
▁三極管	-12.0427
▁三權分立	-12.0427
▁三權鼎立	-12.0427
▁三次	-12.0427
▁三次冪	-12.0427
▁三次方	-12.0427
▁三次方程	-12.0427
▁三次曲線	-12.0427
▁三步揦埋兩步	-12.0427
▁三步擸埋兩步	-12.0427
▁三步擸埋兩步走	-12.0427
▁三歲定八十	-12.0427
▁三歸依	-12.0427
▁三段論	-12.0427
▁三毛貓	-12.0427
▁三民	-12.0427
▁三民主義	-12.0427
▁三民區	-12.0427
▁三民鄉	-12.0427
▁三氟化硼	-12.0427
▁三氯化磷	-12.0427
▁三氯化鐵	-12.0427
▁三氯已烯	-12.0427
▁三氯已烷	-12.0427
▁三氯氧磷	-12.0427
▁三氯氰胺	-12.0427
▁三氯甲烷	-12.0427
▁三水	-12.0427
▁三水區	-12.0427
▁三水縣	-12.0427
▁三江	-12.0427
▁三江並流	-12.0427
▁三江侗族自治縣	-12.0427
▁三江平原	-12.0427
▁三江源	-12.0427
▁三江生態旅遊區	-12.0427
▁三河	-12.0427
▁三河市	-12.0427
▁三河縣	-12.0427
▁三法司	-12.0427
▁三洋	-12.0427
▁三流	-12.0427
▁三浦梅園	-12.0427
▁三涿屁	-12.0427
▁三溫暖	-12.0427
▁三灣	-12.0427
▁三灣鄉	-12.0427
▁三焦	-12.0427
▁三煞位	-12.0427
▁三爬兩撥	-12.0427
▁三牲	-12.0427
▁三牲五禮	-12.0427
▁三班倒	-12.0427
▁三瓦兩舍	-12.0427
▁三生有幸	-12.0427
▁三用表	-12.0427
▁三田	-12.0427
▁三甲	-12.0427
▁三略	-12.0427
▁三番五次	-12.0427
▁三番四次	-12.0427
▁三畫王	-12.0427
▁三疊紀	-12.0427
▁三百	-12.0427
▁三百九十	-12.0427
▁三百二	-12.0427
▁三百五十萬	-12.0427
▁三百六十度	-12.0427
▁三百六十行	-12.0427
▁三百幾	-12.0427
▁三皇	-12.0427
▁三皇五帝	-12.0427
▁三皇炮捶	-12.0427
▁三相	-12.0427
▁三相點	-12.0427
▁三硝基甲苯	-12.0427
▁三碳糖	-12.0427
▁三磷酸腺苷	-12.0427
▁三秒膠	-12.0427
▁三穗	-12.0427
▁三穗縣	-12.0427
▁三等	-12.0427
▁三等分	-12.0427
▁三等分角	-12.0427
▁三等艙	-12.0427
▁三粒星	-12.0427
▁三粒花	-12.0427
▁三級	-12.0427
▁三級士官	-12.0427
▁三級片	-12.0427
▁三級跳	-12.0427
▁三級跳遠	-12.0427
▁三索	-12.0427
▁三索線	-12.0427
▁三索錦蛇	-12.0427
▁三絃	-12.0427
▁三絃樂器	-12.0427
▁三絃琴	-12.0427
▁三絲	-12.0427
▁三維	-12.0427
▁三維空間	-12.0427
▁三維電影	-12.0427
▁三綱五常	-12.0427
▁三緘其口	-12.0427
▁三缺一	-12.0427
▁三義	-12.0427
▁三義鄉	-12.0427
▁三聚氰胺	-12.0427
▁三聯書店	-12.0427
▁三聯管	-12.0427
▁三聲	-12.0427
▁三胚層動物	-12.0427
▁三胞胎	-12.0427
▁三腳	-12.0427
▁三腳兩步	-12.0427
▁三腳凳	-12.0427
▁三腳架	-12.0427
▁三腳櫈	-12.0427
▁三腳貓	-12.0427
▁三腳貓功夫	-12.0427
▁三腳雞	-12.0427
▁三膲	-12.0427
▁三自	-12.0427
▁三自愛國教會	-12.0427
▁三自教會	-12.0427
▁三臺	-12.0427
▁三臺縣	-12.0427
▁三色堇	-12.0427
▁三色紫羅蘭	-12.0427
▁三色貓	-12.0427
▁三芝	-12.0427
▁三芝鄉	-12.0427
▁三花	-12.0427
▁三茶兩飯	-12.0427
▁三茶六飯	-12.0427
▁三菱	-12.0427
▁三萬	-12.0427
▁三萬幾	-12.0427
▁三葉星雲	-12.0427
▁三葉膶	-12.0427
▁三葉草	-12.0427
▁三葉蟲	-12.0427
▁三蒸酒	-12.0427
▁三蕃市	-12.0427
▁三藏	-12.0427
▁三藏法師	-12.0427
▁三藩之亂	-12.0427
▁三藩叛亂	-12.0427
▁三藩市	-12.0427
▁三藩市交通局	-12.0427
▁三藩市城市鐵路	-12.0427
▁三藩市華埠	-12.0427
▁三蘇	-12.0427
▁三號	-12.0427
▁三號木桿	-12.0427
▁三號電池	-12.0427
▁三蛇	-12.0427
▁三蛇羹	-12.0427
▁三行	-12.0427
▁三行仔	-12.0427
▁三行佬	-12.0427
▁三衩㦸	-12.0427
▁三衰六旺	-12.0427
▁三親六故	-12.0427
▁三角	-12.0427
▁三角債	-12.0427
▁三角凳	-12.0427
▁三角函數	-12.0427
▁三角嘜	-12.0427
▁三角學	-12.0427
▁三角尺	-12.0427
▁三角巾	-12.0427
▁三角帆	-12.0427
▁三角座	-12.0427
▁三角形	-12.0427
▁三角恐龍	-12.0427
▁三角戀愛	-12.0427
▁三角旗	-12.0427
▁三角板	-12.0427
▁三角架	-12.0427
▁三角柱體	-12.0427
▁三角法	-12.0427
▁三角洲	-12.0427
▁三角測量	-12.0427
▁三角測量法	-12.0427
▁三角皮帶	-12.0427
▁三角眼	-12.0427
▁三角肌	-12.0427
▁三角腹帶	-12.0427
▁三角褲	-12.0427
▁三角褲衩	-12.0427
▁三角錐	-12.0427
▁三角鐵	-12.0427
▁三角龍	-12.0427
▁三言兩句	-12.0427
▁三言兩語	-12.0427
▁三論宗	-12.0427
▁三讀	-12.0427
▁三貂角	-12.0427
▁三貞九烈	-12.0427
▁三資企業	-12.0427
▁三足烏	-12.0427
▁三足金烏	-12.0427
▁三足鼎立	-12.0427
▁三趾啄木鳥	-12.0427
▁三趾濱鷸	-12.0427
▁三趾翠鳥	-12.0427
▁三趾鴉雀	-12.0427
▁三趾鷗	-12.0427
▁三跪九叩	-12.0427
▁三軍	-12.0427
▁三軍用命	-12.0427
▁三輪車	-12.0427
▁三輪車夫	-12.0427
▁三農	-12.0427
▁三農問題	-12.0427
▁三迭紀	-12.0427
▁三退	-12.0427
▁三途川	-12.0427
▁三通	-12.0427
▁三連勝	-12.0427
▁三道板斧	-12.0427
▁三道眉草鵐	-12.0427
▁三邊形	-12.0427
▁三部曲	-12.0427
▁三都水族自治縣	-12.0427
▁三都縣	-12.0427
▁三酸甘油酯	-12.0427
▁三里屯	-12.0427
▁三里河	-12.0427
▁三重	-12.0427
▁三重唱	-12.0427
▁三重奏	-12.0427
▁三重市	-12.0427
▁三重彩	-12.0427
▁三重縣	-12.0427
▁三鍵	-12.0427
▁三長兩短	-12.0427
▁三門	-12.0427
▁三門峽	-12.0427
▁三門峽市	-12.0427
▁三門縣	-12.0427
▁三阿姨	-12.0427
▁三陪	-12.0427
▁三陪小姐	-12.0427
▁三陽開泰	-12.0427
▁三隻手	-12.0427
▁三面體	-12.0427
▁三鞭酒	-12.0427
▁三音	-12.0427
▁三音度	-12.0427
▁三項	-12.0427
▁三項全能	-12.0427
▁三項式	-12.0427
▁三項鐵人	-12.0427
▁三頭六臂	-12.0427
▁三頭肌	-12.0427
▁三顧茅廬	-12.0427
▁三顧茅蘆	-12.0427
▁三餐不繼	-12.0427
▁三馬同槽	-12.0427
▁三駕馬車	-12.0427
▁三體	-12.0427
▁三體問題	-12.0427
▁三高	-12.0427
▁三魂	-12.0427
▁三魂七魄	-12.0427
▁三魂唔見七魄	-12.0427
▁三鮮	-12.0427
▁三鳥	-12.0427
▁三鳥成羣	-12.0427
▁三鹿	-12.0427
▁三鹿集團	-12.0427
▁三黃四月	-12.0427
▁三點	-12.0427
▁三點三	-12.0427
▁三點不露	-12.0427
▁三點全露	-12.0427
▁三點半	-12.0427
▁三點幾	-12.0427
▁三點式	-12.0427
▁三點水	-12.0427
▁三點畢露	-12.0427
▁三點盡露	-12.0427
▁三點鐘	-12.0427
▁三𠻺	-12.0427
▁三𠻺幾	-12.0427
▁上	-12.0427
▁上一個	-12.0427
▁上一條	-12.0427
▁上一次當,學一次乖	-12.0427
▁上一號	-12.0427
▁上一頁	-12.0427
▁上上下下	-12.0427
▁上上之策	-12.0427
▁上上網	-12.0427
▁上下	-12.0427
▁上下九	-12.0427
▁上下五千年	-12.0427
▁上下其手	-12.0427
▁上下左右	-12.0427
▁上下文	-12.0427
▁上下文菜單	-12.0427
▁上下牀	-12.0427
▁上下班	-12.0427
▁上下班時間	-12.0427
▁上下行	-12.0427
▁上中下游	-12.0427
▁上中農	-12.0427
▁上乘	-12.0427
▁上五寸下五寸	-12.0427
▁上交	-12.0427
▁上京	-12.0427
▁上代	-12.0427
▁上任	-12.0427
▁上位	-12.0427
▁上位概念	-12.0427
▁上低音號	-12.0427
▁上住	-12.0427
▁上來	-12.0427
▁上供	-12.0427
▁上便	-12.0427
▁上倉	-12.0427
▁上個	-12.0427
▁上個星期	-12.0427
▁上個月	-12.0427
▁上個禮拜	-12.0427
▁上傳	-12.0427
▁上億	-12.0427
▁上冊	-12.0427
▁上列	-12.0427
▁上前	-12.0427
▁上升	-12.0427
▁上升空間	-12.0427
▁上升趨勢	-12.0427
▁上午	-12.0427
▁上半	-12.0427
▁上半世	-12.0427
▁上半場	-12.0427
▁上半夜	-12.0427
▁上半天	-12.0427
▁上半年	-12.0427
▁上半晌	-12.0427
▁上半晝	-12.0427
▁上半葉	-12.0427
▁上半身	-12.0427
▁上半部	-12.0427
▁上半部分	-12.0427
▁上去	-12.0427
▁上口	-12.0427
▁上口齒	-12.0427
▁上古	-12.0427
▁上古時代	-12.0427
▁上古漢語	-12.0427
▁上司	-12.0427
▁上合	-12.0427
▁上合組織	-12.0427
▁上吊	-12.0427
▁上同調	-12.0427
▁上吐下瀉	-12.0427
▁上告	-12.0427
▁上呼吸道感染	-12.0427
▁上咩班	-12.0427
▁上品	-12.0427
▁上嚟	-12.0427
▁上回	-12.0427
▁上圍	-12.0427
▁上址	-12.0427
▁上坡	-12.0427
▁上坡段	-12.0427
▁上坡路	-12.0427
▁上坡道	-12.0427
▁上城區	-12.0427
▁上域	-12.0427
▁上堂	-12.0427
▁上報	-12.0427
▁上場	-12.0427
▁上墳	-12.0427
▁上壓	-12.0427
▁上士	-12.0427
▁上外	-12.0427
▁上多	-12.0427
▁上夜	-12.0427
▁上大學	-12.0427
▁上天	-12.0427
▁上天入地	-12.0427
▁上天堂	-12.0427
▁上天無路	-12.0427
▁上天無路,入地無門	-12.0427
▁上夸克	-12.0427
▁上契	-12.0427
▁上好	-12.0427
▁上妝	-12.0427
▁上學	-12.0427
▁上學校	-12.0427
▁上官	-12.0427
▁上客	-12.0427
▁上家	-12.0427
▁上將	-12.0427
▁上將軍	-12.0427
▁上尉	-12.0427
▁上尉軍官	-12.0427
▁上屋搬下屋,唔見一籮穀	-12.0427
▁上屋搬下屋唔見一籮穀	-12.0427
▁上層	-12.0427
▁上層建築	-12.0427
▁上層社會	-12.0427
▁上山	-12.0427
▁上山下海	-12.0427
▁上山下鄉	-12.0427
▁上岸	-12.0427
▁上崗	-12.0427
▁上工	-12.0427
▁上市	-12.0427
▁上市公司	-12.0427
▁上帝	-12.0427
▁上年	-12.0427
▁上座	-12.0427
▁上座部	-12.0427
▁上庭	-12.0427
▁上弦	-12.0427
▁上弦月	-12.0427
▁上彈	-12.0427
▁上得山多	-12.0427
▁上得山多終遇虎	-12.0427
▁上得山多遇着虎	-12.0427
▁上得牀嚟掀被冚	-12.0427
▁上心	-12.0427
▁上思	-12.0427
▁上思縣	-12.0427
▁上情下達	-12.0427
▁上意識	-12.0427
▁上慄	-12.0427
▁上慄縣	-12.0427
▁上戰場	-12.0427
▁上房	-12.0427
▁上手	-12.0427
▁上把	-12.0427
▁上把位	-12.0427
▁上排	-12.0427
▁上揚	-12.0427
▁上揚趨勢	-12.0427
▁上數	-12.0427
▁上文	-12.0427
▁上文下理	-12.0427
▁上斜	-12.0427
▁上新世	-12.0427
▁上方	-12.0427
▁上方寶劍	-12.0427
▁上早班	-12.0427
▁上旬	-12.0427
▁上昇	-12.0427
▁上星	-12.0427
▁上星期	-12.0427
▁上映	-12.0427
▁上映期間	-12.0427
▁上晝	-12.0427
▁上書	-12.0427
▁上會	-12.0427
▁上月	-12.0427
▁上有天堂,下有蘇杭	-12.0427
▁上有政策,下有對策	-12.0427
▁上有老下有小	-12.0427
▁上朝	-12.0427
▁上期	-12.0427
▁上杭	-12.0427
▁上杭縣	-12.0427
▁上林	-12.0427
▁上林縣	-12.0427
▁上架	-12.0427
▁上校	-12.0427
▁上校軍官	-12.0427
▁上格	-12.0427
▁上格牀	-12.0427
▁上桿	-12.0427
▁上榜	-12.0427
▁上榜名單	-12.0427
▁上樑不正下樑歪	-12.0427
▁上樓	-12.0427
▁上標	-12.0427
▁上樹	-12.0427
▁上橋	-12.0427
▁上機	-12.0427
▁上檯	-12.0427
▁上次	-12.0427
▁上款	-12.0427
▁上氣不接下氣	-12.0427
▁上氣唔接下氣	-12.0427
▁上水	-12.0427
▁上汽	-12.0427
▁上油	-12.0427
▁上流	-12.0427
▁上流人士	-12.0427
▁上流社會	-12.0427
▁上浣	-12.0427
▁上浮	-12.0427
▁上海	-12.0427
▁上海交通大學	-12.0427
▁上海人	-12.0427
▁上海合作組織	-12.0427
▁上海商務印書館	-12.0427
▁上海外國語大學	-12.0427
▁上海大劇院	-12.0427
▁上海大學	-12.0427
▁上海寶鋼集團公司	-12.0427
▁上海市	-12.0427
▁上海戲劇學院	-12.0427
▁上海振華港口機械	-12.0427
▁上海文廣新聞傳媒集團	-12.0427
▁上海汽車工業	-12.0427
▁上海汽車工業集團	-12.0427
▁上海浦東發展銀行	-12.0427
▁上海灘	-12.0427
▁上海環球金融中心	-12.0427
▁上海白菜	-12.0427
▁上海第二醫科大學	-12.0427
▁上海街	-12.0427
▁上海話	-12.0427
▁上海證券交易所	-12.0427
▁上海證券交易所綜合股價指	-12.0427
▁上海財經大學	-12.0427
▁上海醫科大學	-12.0427
▁上海音樂學院	-12.0427
▁上海風雲	-12.0427
▁上海體育場	-12.0427
▁上游	-12.0427
▁上游工業	-12.0427
▁上湯	-12.0427
▁上溜油	-12.0427
▁上滑	-12.0427
▁上漆	-12.0427
▁上演	-12.0427
▁上漲	-12.0427
▁上火	-12.0427
▁上牀	-12.0427
▁上牌	-12.0427
▁上猶	-12.0427
▁上猶縣	-12.0427
▁上班	-12.0427
▁上班一族	-12.0427
▁上班族	-12.0427
▁上班時間	-12.0427
▁上班服	-12.0427
▁上環	-12.0427
▁上甘嶺	-12.0427
▁上甘嶺區	-12.0427
▁上界	-12.0427
▁上畫	-12.0427
▁上當	-12.0427
▁上疏	-12.0427
▁上癮	-12.0427
▁上皮	-12.0427
▁上皮細胞	-12.0427
▁上皮組織	-12.0427
▁上盤	-12.0427
▁上相	-12.0427
▁上眼皮	-12.0427
▁上眼瞼	-12.0427
▁上瞼	-12.0427
▁上確界	-12.0427
▁上神檯	-12.0427
▁上移	-12.0427
▁上空	-12.0427
▁上空洗車	-12.0427
▁上空裝	-12.0427
▁上窰	-12.0427
▁上窰民俗文物館	-12.0427
▁上第	-12.0427
▁上等	-12.0427
▁上等兵	-12.0427
▁上等貨	-12.0427
▁上策	-12.0427
▁上算	-12.0427
▁上箭頭	-12.0427
▁上箭頭鍵	-12.0427
▁上粉沙打	-12.0427
▁上級	-12.0427
▁上級領導	-12.0427
▁上綱上線	-12.0427
▁上網	-12.0427
▁上網本	-12.0427
▁上緊	-12.0427
▁上緊班	-12.0427
▁上線	-12.0427
▁上繳	-12.0427
▁上聯	-12.0427
▁上聲	-12.0427
▁上肢	-12.0427
▁上肥	-12.0427
▁上脣	-12.0427
▁上腦	-12.0427
▁上膛	-12.0427
▁上臂	-12.0427
▁上臂骨	-12.0427
▁上臺	-12.0427
▁上舖	-12.0427
▁上船	-12.0427
▁上色	-12.0427
▁上艾瑟爾	-12.0427
▁上莊	-12.0427
▁上菜	-12.0427
▁上萬	-12.0427
▁上落	-12.0427
▁上落客	-12.0427
▁上蒼	-12.0427
▁上蓋	-12.0427
▁上蔡	-12.0427
▁上蔡縣	-12.0427
▁上虞	-12.0427
▁上虞市	-12.0427
▁上螺絲	-12.0427
▁上蠟	-12.0427
▁上行	-12.0427
▁上行下傚	-12.0427
▁上街	-12.0427
▁上街區	-12.0427
▁上衣	-12.0427
▁上衫	-12.0427
▁上裝	-12.0427
▁上西天	-12.0427
▁上覆	-12.0427
▁上訪	-12.0427
▁上訴	-12.0427
▁上訴人	-12.0427
▁上訴庭	-12.0427
▁上訴法庭	-12.0427
▁上訴法院	-12.0427
▁上試	-12.0427
▁上課	-12.0427
▁上調	-12.0427
▁上諭	-12.0427
▁上證	-12.0427
▁上證綜合指數	-12.0427
▁上議院	-12.0427
▁上貨	-12.0427
▁上賓	-12.0427
▁上足電	-12.0427
▁上跑道	-12.0427
▁上路	-12.0427
▁上身	-12.0427
▁上車	-12.0427
▁上車盤	-12.0427
▁上車點	-12.0427
▁上軌道	-12.0427
▁上載	-12.0427
▁上輩	-12.0427
▁上輩子	-12.0427
▁上農	-12.0427
▁上近	-12.0427
▁上述	-12.0427
▁上週	-12.0427
▁上進	-12.0427
▁上進心	-12.0427
▁上邊	-12.0427
▁上邊兒	-12.0427
▁上部	-12.0427
▁上都	-12.0427
▁上酒家	-12.0427
▁上釉	-12.0427
▁上野	-12.0427
▁上釣	-12.0427
▁上鉤	-12.0427
▁上鉤兒	-12.0427
▁上銀幕	-12.0427
▁上鋪	-12.0427
▁上錯天堂投錯胎	-12.0427
▁上鍊	-12.0427
▁上鎖	-12.0427
▁上鏈	-12.0427
▁上鏡	-12.0427
▁上鏡頭	-12.0427
▁上門	-12.0427
▁上門費	-12.0427
▁上限	-12.0427
▁上陣	-12.0427
▁上陣不離父子兵	-12.0427
▁上陣殺敵	-12.0427
▁上集	-12.0427
▁上雜	-12.0427
▁上電	-12.0427
▁上面	-12.0427
▁上面落嚟	-12.0427
▁上面蒸鬆糕,下面賣涼粉	-12.0427
▁上靶	-12.0427
▁上鞋	-12.0427
▁上頁	-12.0427
▁上頜	-12.0427
▁上頜骨	-12.0427
▁上頭	-12.0427
▁上頷	-12.0427
▁上額	-12.0427
▁上風	-12.0427
▁上館子	-12.0427
▁上饒	-12.0427
▁上饒地區	-12.0427
▁上饒市	-12.0427
▁上饒縣	-12.0427
▁上首	-12.0427
▁上香	-12.0427
▁上馬	-12.0427
▁上髀	-12.0427
▁上體	-12.0427
▁上高	-12.0427
▁上高縣	-12.0427
▁上齒	-12.0427
▁上齒齦	-12.0427
▁上齶	-12.0427
▁上齶正門齒	-12.0427
▁上齶骨	-12.0427
▁上龍	-12.0427
▁下	-12.0427
▁下一代	-12.0427
▁下一個	-12.0427
▁下一曲	-12.0427
▁下一次	-12.0427
▁下一步	-12.0427
▁下一站	-12.0427
▁下一頁	-12.0427
▁下下	-12.0427
▁下下之策	-12.0427
▁下不來	-12.0427
▁下不來臺	-12.0427
▁下不爲例	-12.0427
▁下世	-12.0427
▁下世投胎	-12.0427
▁下丘腦	-12.0427
▁下中農	-12.0427
▁下乘	-12.0427
▁下九流	-12.0427
▁下人	-12.0427
▁下令	-12.0427
▁下任	-12.0427
▁下位	-12.0427
▁下低	-12.0427
▁下來	-12.0427
▁下便	-12.0427
▁下修	-12.0427
▁下個	-12.0427
▁下個星期	-12.0427
▁下個月	-12.0427
▁下個禮拜	-12.0427
▁下先	-12.0427
▁下克上	-12.0427
▁下冊	-12.0427
▁下凡	-12.0427
▁下列	-12.0427
▁下剋上	-12.0427
▁下劃線	-12.0427
▁下功夫	-12.0427
▁下午	-12.0427
▁下午茶	-12.0427
▁下半	-12.0427
▁下半世	-12.0427
▁下半場	-12.0427
▁下半天	-12.0427
▁下半年	-12.0427
▁下半旗	-12.0427
▁下半晝	-12.0427
▁下半身	-12.0427
▁下去	-12.0427
▁下召	-12.0427
▁下啖氣	-12.0427
▁下單	-12.0427
▁下嘛	-12.0427
▁下嚥	-12.0427
▁下回	-12.0427
▁下坡	-12.0427
▁下坡路	-12.0427
▁下垂	-12.0427
▁下城區	-12.0427
▁下場	-12.0427
▁下場門	-12.0427
▁下墜	-12.0427
▁下壓	-12.0427
▁下夸克	-12.0427
▁下嫁	-12.0427
▁下定	-12.0427
▁下定決心	-12.0427
▁下定義	-12.0427
▁下家	-12.0427
▁下寒武	-12.0427
▁下寒武統	-12.0427
▁下屆	-12.0427
▁下層	-12.0427
▁下層社會	-12.0427
▁下層組織	-12.0427
▁下屬	-12.0427
▁下屬公司	-12.0427
▁下山	-12.0427
▁下崗	-12.0427
▁下崽	-12.0427
▁下工	-12.0427
▁下工夫	-12.0427
▁下巴	-12.0427
▁下巴輕輕	-12.0427
▁下巴頦	-12.0427
▁下年	-12.0427
▁下底	-12.0427
▁下廚	-12.0427
▁下弦	-12.0427
▁下弦月	-12.0427
▁下情	-12.0427
▁下情上達	-12.0427
▁下意識	-12.0427
▁下懷	-12.0427
▁下手	-12.0427
▁下扒	-12.0427
▁下扒輕輕	-12.0427
▁下把	-12.0427
▁下把位	-12.0427
▁下拜	-12.0427
▁下挫	-12.0427
▁下擺	-12.0427
▁下放	-12.0427
▁下文	-12.0427
▁下方	-12.0427
▁下旋	-12.0427
▁下旋削球	-12.0427
▁下旬	-12.0427
▁下星期	-12.0427
▁下晏	-12.0427
▁下晝	-12.0427
▁下月	-12.0427
▁下期	-12.0427
▁下架	-12.0427
▁下格	-12.0427
▁下棋	-12.0427
▁下榻	-12.0427
▁下標	-12.0427
▁下檻	-12.0427
▁下欄	-12.0427
▁下欄扮上菜	-12.0427
▁下欄錢	-12.0427
▁下次	-12.0427
▁下款	-12.0427
▁下死勁	-12.0427
▁下毒	-12.0427
▁下氣	-12.0427
▁下水	-12.0427
▁下水禮	-12.0427
▁下水管	-12.0427
▁下水船	-12.0427
▁下水道	-12.0427
▁下決心	-12.0427
▁下沉	-12.0427
▁下注	-12.0427
▁下流	-12.0427
▁下流人士	-12.0427
▁下流社會	-12.0427
▁下浣	-12.0427
▁下浮	-12.0427
▁下海	-12.0427
▁下游	-12.0427
▁下游工業	-12.0427
▁下滑	-12.0427
▁下火	-12.0427
▁下營	-12.0427
▁下營鄉	-12.0427
▁下爬	-12.0427
▁下片	-12.0427
▁下獄	-12.0427
▁下班	-12.0427
▁下班時間	-12.0427
▁下環	-12.0427
▁下界	-12.0427
▁下畫線	-12.0427
▁下盤	-12.0427
▁下眼皮	-12.0427
▁下眼瞼	-12.0427
▁下碇	-12.0427
▁下確界	-12.0427
▁下移	-12.0427
▁下筆	-12.0427
▁下等	-12.0427
▁下等貨	-12.0427
▁下策	-12.0427
▁下箭頭	-12.0427
▁下箭頭鍵	-12.0427
▁下級	-12.0427
▁下網	-12.0427
▁下線	-12.0427
▁下線儀式	-12.0427
▁下而上	-12.0427
▁下聘	-12.0427
▁下聯	-12.0427
▁下肢	-12.0427
▁下脣	-12.0427
▁下腳	-12.0427
▁下腳料	-12.0427
▁下腹	-12.0427
▁下腹部	-12.0427
▁下臂	-12.0427
▁下至上	-12.0427
▁下臺	-12.0427
▁下臺階	-12.0427
▁下花園	-12.0427
▁下花園區	-12.0427
▁下芳村	-12.0427
▁下莊	-12.0427
▁下落	-12.0427
▁下落不明	-12.0427
▁下葬	-12.0427
▁下蛋	-12.0427
▁下行	-12.0427
▁下裝	-12.0427
▁下襬	-12.0427
▁下西洋	-12.0427
▁下詔	-12.0427
▁下話	-12.0427
▁下課	-12.0427
▁下調	-12.0427
▁下議院	-12.0427
▁下議院議員	-12.0427
▁下賤	-12.0427
▁下跌	-12.0427
▁下跪	-12.0427
▁下路	-12.0427
▁下身	-12.0427
▁下車	-12.0427
▁下載	-12.0427
▁下輩	-12.0427
▁下輩子	-12.0427
▁下轄	-12.0427
▁下述	-12.0427
▁下逐客令	-12.0427
▁下週	-12.0427
▁下達	-12.0427
▁下邊	-12.0427
▁下邊兒	-12.0427
▁下部	-12.0427
▁下鄉	-12.0427
▁下酒	-12.0427
▁下酒菜	-12.0427
▁下里巴人	-12.0427
▁下野	-12.0427
▁下錨	-12.0427
▁下間	-12.0427
▁下閘	-12.0427
▁下關	-12.0427
▁下關區	-12.0427
▁下關市	-12.0427
▁下降	-12.0427
▁下限	-12.0427
▁下院	-12.0427
▁下陷	-12.0427
▁下陸	-12.0427
▁下陸區	-12.0427
▁下集	-12.0427
▁下雨	-12.0427
▁下雪	-12.0427
▁下面	-12.0427
▁下靶	-12.0427
▁下頁	-12.0427
▁下頜	-12.0427
▁下頜下腺	-12.0427
▁下頜骨	-12.0427
▁下頦	-12.0427
▁下頷	-12.0427
▁下頷骨	-12.0427
▁下額	-12.0427
▁下顎	-12.0427
▁下風	-12.0427
▁下風方向	-12.0427
▁下飛機	-12.0427
▁下館子	-12.0427
▁下馬	-12.0427
▁下馬威	-12.0427
▁下髀	-12.0427
▁下體	-12.0427
▁下麪	-12.0427
▁下鼻甲	-12.0427
▁下齒	-12.0427
▁下齶	-12.0427
▁下齶骨	-12.0427
▁下龍灣	-12.0427
▁丌	-12.0427
▁不	-12.0427
▁不一	-12.0427
▁不一定	-12.0427
▁不一會	-12.0427
▁不一樣	-12.0427
▁不一而足	-12.0427
▁不一致字	-12.0427
▁不三不四	-12.0427
▁不下	-12.0427
▁不丟包	-12.0427
▁不中不西	-12.0427
▁不中意	-12.0427
▁不中用	-12.0427
▁不丹	-12.0427
▁不主故常	-12.0427
▁不久	-12.0427
▁不久前	-12.0427
▁不乏	-12.0427
▁不乏其人	-12.0427
▁不乾不淨	-12.0427
▁不乾不淨,喫了沒病	-12.0427
▁不了	-12.0427
▁不了了之	-12.0427
▁不予	-12.0427
▁不予理會	-12.0427
▁不予置評	-12.0427
▁不予評論	-12.0427
▁不事生產	-12.0427
▁不二價	-12.0427
▁不二法門	-12.0427
▁不亞	-12.0427
▁不亞於	-12.0427
▁不亢不卑	-12.0427
▁不亦樂乎	-12.0427
▁不人道	-12.0427
▁不仁	-12.0427
▁不令人鼓舞	-12.0427
▁不以人廢言	-12.0427
▁不以為意	-12.0427
▁不以爲意	-12.0427
▁不以爲然	-12.0427
▁不以爲苦	-12.0427
▁不以物喜,不以己悲	-12.0427
▁不以規矩,不能成方圓	-12.0427
▁不以詞害誌	-12.0427
▁不以語人	-12.0427
▁不以辭害志	-12.0427
▁不伏燒埋	-12.0427
▁不休	-12.0427
▁不但	-12.0427
▁不住	-12.0427
▁不作爲	-12.0427
▁不佞	-12.0427
▁不佳	-12.0427
▁不使	-12.0427
▁不來梅	-12.0427
▁不來梅港	-12.0427
▁不依	-12.0427
▁不依不饒	-12.0427
▁不侷限	-12.0427
▁不便	-12.0427
▁不俗	-12.0427
▁不信任動議	-12.0427
▁不信任投票	-12.0427
▁不信任案	-12.0427
▁不信用	-12.0427
▁不修邊幅	-12.0427
▁不倒翁	-12.0427
▁不倦	-12.0427
▁不倫不類	-12.0427
▁不值	-12.0427
▁不值一提	-12.0427
▁不值一文	-12.0427
▁不值一顧	-12.0427
▁不值得	-12.0427
▁不值錢	-12.0427
▁不假外求	-12.0427
▁不假思索	-12.0427
▁不偏不倚	-12.0427
▁不偏斜	-12.0427
▁不偏極	-12.0427
▁不做	-12.0427
▁不做了	-12.0427
▁不做聲	-12.0427
▁不做虧心事,不怕鬼敲門	-12.0427
▁不停	-12.0427
▁不備	-12.0427
▁不傳	-12.0427
▁不傷和氣	-12.0427
▁不傷脾胃	-12.0427
▁不僅	-12.0427
▁不僅僅	-12.0427
▁不僅如此	-12.0427
▁不像樣	-12.0427
▁不像話	-12.0427
▁不儉則匱	-12.0427
▁不光	-12.0427
▁不光彩	-12.0427
▁不克	-12.0427
▁不免	-12.0427
▁不免一死	-12.0427
▁不入庫	-12.0427
▁不入時宜	-12.0427
▁不入虎穴	-12.0427
▁不入虎穴,焉得虎子	-12.0427
▁不公	-12.0427
▁不公不義	-12.0427
▁不公平	-12.0427
▁不公正	-12.0427
▁不共戴天	-12.0427
▁不共戴天之仇	-12.0427
▁不兼容性	-12.0427
▁不再	-12.0427
▁不冷不熱	-12.0427
▁不凍港	-12.0427
▁不凍港口	-12.0427
▁不凡	-12.0427
▁不出	-12.0427
▁不出所料	-12.0427
▁不出聲	-12.0427
▁不分	-12.0427
▁不分伯仲	-12.0427
▁不分勝敗	-12.0427
▁不分勝負	-12.0427
▁不分彼此	-12.0427
▁不分情由	-12.0427
▁不分晝夜	-12.0427
▁不分男女老幼	-12.0427
▁不分皁白	-12.0427
▁不分軒輊	-12.0427
▁不分輕重緩急	-12.0427
▁不分青紅皁白	-12.0427
▁不分高下	-12.0427
▁不切合實際	-12.0427
▁不切實際	-12.0427
▁不切題	-12.0427
▁不刊之論	-12.0427
▁不划算	-12.0427
▁不列顛	-12.0427
▁不列顛保衛戰	-12.0427
▁不列顛哥倫比亞	-12.0427
▁不列顛哥倫比亞省	-12.0427
▁不列顛戰役	-12.0427
▁不列顛諸島	-12.0427
▁不利	-12.0427
▁不到	-12.0427
▁不到長城非好漢	-12.0427
▁不到黃河心不死	-12.0427
▁不前不後	-12.0427
▁不力	-12.0427
▁不加	-12.0427
▁不加修飾	-12.0427
▁不加區別	-12.0427
▁不加思索	-12.0427
▁不加拘束	-12.0427
▁不加掩飾	-12.0427
▁不加牛奶	-12.0427
▁不加理睬	-12.0427
▁不加選擇	-12.0427
▁不動	-12.0427
▁不動搖	-12.0427
▁不動產	-12.0427
▁不動聲色	-12.0427
▁不動點	-12.0427
▁不動點定理	-12.0427
▁不務正業	-12.0427
▁不勝	-12.0427
▁不勝其擾	-12.0427
▁不勝其煩	-12.0427
▁不勝其苦	-12.0427
▁不勝感激	-12.0427
▁不勝枚舉	-12.0427
▁不勝負荷	-12.0427
▁不勝酒力	-12.0427
▁不勞無獲	-12.0427
▁不勞而獲	-12.0427
▁不匱	-12.0427
▁不區分大小寫	-12.0427
▁不升反降	-12.0427
▁不卑不亢	-12.0427
▁不協調	-12.0427
▁不即不離	-12.0427
▁不厭	-12.0427
▁不厭其煩	-12.0427
▁不厭其詳	-12.0427
▁不去理	-12.0427
▁不及	-12.0427
▁不及格	-12.0427
▁不及物動詞	-12.0427
▁不受歡迎	-12.0427
▁不受理	-12.0427
▁不受約束	-12.0427
▁不只	-12.0427
▁不可	-12.0427
▁不可一世	-12.0427
▁不可不	-12.0427
▁不可以	-12.0427
▁不可估量	-12.0427
▁不可侵犯	-12.0427
▁不可侵犯權	-12.0427
▁不可再生資源	-12.0427
▁不可分割	-12.0427
▁不可分離	-12.0427
▁不可勝數	-12.0427
▁不可勝言	-12.0427
▁不可同日而語	-12.0427
▁不可名狀	-12.0427
▁不可告人	-12.0427
▁不可多得	-12.0427
▁不可導	-12.0427
▁不可思議	-12.0427
▁不可想像	-12.0427
▁不可或缺	-12.0427
▁不可戰勝	-12.0427
▁不可抗力	-12.0427
▁不可抗拒	-12.0427
▁不可挽回	-12.0427
▁不可捉摸	-12.0427
▁不可撤銷信用證	-12.0427
▁不可收拾	-12.0427
▁不可救藥	-12.0427
▁不可數	-12.0427
▁不可數名詞	-12.0427
▁不可數集	-12.0427
▁不可方物	-12.0427
▁不可旁貸	-12.0427
▁不可枚舉	-12.0427
▁不可理喻	-12.0427
▁不可知論	-12.0427
▁不可磨滅	-12.0427
▁不可端倪	-12.0427
▁不可終日	-12.0427
▁不可缺少	-12.0427
▁不可置信	-12.0427
▁不可能	-12.0427
▁不可解	-12.0427
▁不可言喻	-12.0427
▁不可諱言	-12.0427
▁不可逆	-12.0427
▁不可逆轉	-12.0427
▁不可通約	-12.0427
▁不可逾越	-12.0427
▁不可避	-12.0427
▁不可避免	-12.0427
▁不可開交	-12.0427
▁不可限量	-12.0427
▁不可靠	-12.0427
▁不可飲用	-12.0427
▁不合	-12.0427
▁不合作	-12.0427
▁不合時宜	-12.0427
▁不合標準	-12.0427
▁不合法	-12.0427
▁不合理	-12.0427
▁不合規定	-12.0427
▁不合適	-12.0427
▁不合體統	-12.0427
▁不吉	-12.0427
▁不吉利	-12.0427
▁不同	-12.0427
▁不同以往	-12.0427
▁不同凡響	-12.0427
▁不同意	-12.0427
▁不同點	-12.0427
▁不名一文	-12.0427
▁不名數	-12.0427
▁不名譽	-12.0427
▁不吐不快	-12.0427
▁不吐氣	-12.0427
▁不吝	-12.0427
▁不吝指正	-12.0427
▁不吝珠玉	-12.0427
▁不吝賜教	-12.0427
▁不含	-12.0427
▁不含稅	-12.0427
▁不含糊	-12.0427
▁不吭一聲	-12.0427
▁不吭聲	-12.0427
▁不吵不鬧	-12.0427
▁不告而別	-12.0427
▁不周	-12.0427
▁不周山	-12.0427
▁不周延	-12.0427
▁不咋地	-12.0427
▁不和	-12.0427
▁不咎既往	-12.0427
▁不問	-12.0427
▁不問前因後果	-12.0427
▁不問好歹	-12.0427
▁不問就聽不到假話	-12.0427
▁不問是非曲直	-12.0427
▁不問自取	-12.0427
▁不問青紅皁白	-12.0427
▁不啻	-12.0427
▁不啻天淵	-12.0427
▁不善	-12.0427
▁不善於	-12.0427
▁不喜歡	-12.0427
▁不喫人間煙火	-12.0427
▁不單	-12.0427
▁不單只	-12.0427
▁不單止	-12.0427
▁不固定	-12.0427
▁不圓通	-12.0427
▁不在	-12.0427
▁不在乎	-12.0427
▁不在了	-12.0427
▁不在其位不謀其政	-12.0427
▁不在場	-12.0427
▁不在意	-12.0427
▁不在狀態	-12.0427
▁不在話下	-12.0427
▁不均	-12.0427
▁不堪	-12.0427
▁不堪一擊	-12.0427
▁不堪入目	-12.0427
▁不堪入耳	-12.0427
▁不堪回首	-12.0427
▁不堪忍受	-12.0427
▁不堪設想	-12.0427
▁不堪造就	-12.0427
▁不外	-12.0427
▁不外乎	-12.0427
▁不外如是	-12.0427
▁不外露	-12.0427
▁不多不少	-12.0427
▁不夜城	-12.0427
▁不夠	-12.0427
▁不夠洗	-12.0427
▁不夠質素	-12.0427
▁不大	-12.0427
▁不大不小	-12.0427
▁不大於	-12.0427
▁不大離	-12.0427
▁不大離兒	-12.0427
▁不失	-12.0427
▁不失時機	-12.0427
▁不失爲	-12.0427
▁不失良機	-12.0427
▁不失衆望	-12.0427
▁不奈煩	-12.0427
▁不好意思	-12.0427
▁不如	-12.0427
▁不如人意	-12.0427
▁不妙	-12.0427
▁不妥	-12.0427
▁不妥協	-12.0427
▁不妨	-12.0427
▁不嬲	-12.0427
▁不孕	-12.0427
▁不孕症	-12.0427
▁不孚衆望	-12.0427
▁不孝	-12.0427
▁不孝子	-12.0427
▁不孝有三	-12.0427
▁不孝有三,無後爲大	-12.0427
▁不學無術	-12.0427
▁不守信用	-12.0427
▁不安	-12.0427
▁不安其室	-12.0427
▁不安分	-12.0427
▁不安好心	-12.0427
▁不安本分	-12.0427
▁不完全中立	-12.0427
▁不完全歸納推理	-12.0427
▁不完全葉	-12.0427
▁不完善	-12.0427
▁不完整	-12.0427
▁不完美	-12.0427
▁不定	-12.0427
▁不定元	-12.0427
▁不定冠詞	-12.0427
▁不定式	-12.0427
▁不定形	-12.0427
▁不定方程	-12.0427
▁不定期	-12.0427
▁不定根	-12.0427
▁不定積分	-12.0427
▁不定詞	-12.0427
▁不定量	-12.0427
▁不宜	-12.0427
▁不客氣	-12.0427
▁不宣而戰	-12.0427
▁不容	-12.0427
▁不容分說	-12.0427
▁不容小覷	-12.0427
▁不容拒絕	-12.0427
▁不容有失	-12.0427
▁不容置疑	-12.0427
▁不容置辯	-12.0427
▁不寐	-12.0427
▁不寒而慄	-12.0427
▁不實	-12.0427
▁不寧	-12.0427
▁不專心	-12.0427
▁不對	-12.0427
▁不對勁	-12.0427
▁不對勁兒	-12.0427
▁不對盤	-12.0427
▁不對碴兒	-12.0427
▁不對稱	-12.0427
▁不對頭	-12.0427
▁不小心駕駛	-12.0427
▁不少	-12.0427
▁不屈	-12.0427
▁不屈不撓	-12.0427
▁不屑	-12.0427
▁不屑一顧	-12.0427
▁不巧	-12.0427
▁不差	-12.0427
▁不已	-12.0427
▁不帶	-12.0427
▁不帶電	-12.0427
▁不常	-12.0427
▁不干涉	-12.0427
▁不平	-12.0427
▁不平凡	-12.0427
▁不平則鳴	-12.0427
▁不平常	-12.0427
▁不平等	-12.0427
▁不平等條約	-12.0427
▁不平而鳴	-12.0427
▁不平衡	-12.0427
▁不幸	-12.0427
▁不幸中之大幸	-12.0427
▁不幸之事	-12.0427
▁不幸之幸	-12.0427
▁不幸受害	-12.0427
▁不幸的是	-12.0427
▁不弄	-12.0427
▁不影響	-12.0427
▁不待說	-12.0427
▁不很	-12.0427
▁不得	-12.0427
▁不得不	-12.0427
▁不得之了	-12.0427
▁不得了	-12.0427
▁不得人心	-12.0427
▁不得其法	-12.0427
▁不得其解	-12.0427
▁不得其門而入	-12.0427
▁不得勁	-12.0427
▁不得好死	-12.0427
▁不得已	-12.0427
▁不得已而爲之	-12.0427
▁不得而知	-12.0427
▁不得要領	-12.0427
▁不復	-12.0427
▁不必	-12.0427
▁不必要	-12.0427
▁不忍	-12.0427
▁不忍卒睹	-12.0427
▁不忍心	-12.0427
▁不忙	-12.0427
▁不忠	-12.0427
▁不快	-12.0427
▁不念舊惡	-12.0427
▁不忿	-12.0427
▁不忿氣	-12.0427
▁不怎麼	-12.0427
▁不怎麼樣	-12.0427
▁不怕	-12.0427
▁不怕一萬,就怕萬一	-12.0427
▁不怕不識貨,只怕貨比貨	-12.0427
▁不怕不識貨,就怕貨比貨	-12.0427
▁不怕官,只怕管	-12.0427
▁不怕慢,就怕站	-12.0427
▁不怕神一樣的對手,就怕豬一樣的隊友	-12.0427
▁不怠	-12.0427
▁不急不徐	-12.0427
▁不急之務	-12.0427
▁不恤	-12.0427
▁不恤人言	-12.0427
▁不恥	-12.0427
▁不恥下問	-12.0427
▁不恭	-12.0427
▁不息	-12.0427
▁不悅	-12.0427
▁不患寡而患不均	-12.0427
▁不情之請	-12.0427
▁不情願	-12.0427
▁不惑	-12.0427
▁不惑之年	-12.0427
▁不惜	-12.0427
▁不惜一切	-12.0427
▁不惜一戰	-12.0427
▁不惜工本	-12.0427
▁不惜犧牲	-12.0427
▁不惜血本	-12.0427
▁不惟	-12.0427
▁不惡	-12.0427
▁不想	-12.0427
▁不愉快	-12.0427
▁不意	-12.0427
▁不愧	-12.0427
▁不愧下學	-12.0427
▁不愧不怍	-12.0427
▁不慌不忙	-12.0427
▁不慎	-12.0427
▁不憤	-12.0427
▁不憤不啓	-12.0427
▁不懂裝懂	-12.0427
▁不懈	-12.0427
▁不懈怠	-12.0427
▁不應期	-12.0427
▁不懷好意	-12.0427
▁不成	-12.0427
▁不成功便成仁	-12.0427
▁不成問題	-12.0427
▁不成文	-12.0427
▁不成文法	-12.0427
▁不成文規定	-12.0427
▁不成材	-12.0427
▁不成樣子	-12.0427
▁不成氣候	-12.0427
▁不成熟	-12.0427
▁不成話	-12.0427
▁不成體統	-12.0427
▁不戰不和	-12.0427
▁不戰而敗	-12.0427
▁不戰而退	-12.0427
▁不才	-12.0427
▁不打不成器	-12.0427
▁不打不成才	-12.0427
▁不打不成相識	-12.0427
▁不打不相識	-12.0427
▁不打緊	-12.0427
▁不打自招	-12.0427
▁不承認	-12.0427
▁不承認主義	-12.0427
▁不折不扣	-12.0427
▁不抵抗主義	-12.0427
▁不拉嘰	-12.0427
▁不拉幾	-12.0427
▁不拘	-12.0427
▁不拘一格	-12.0427
▁不拘小節	-12.0427
▁不振	-12.0427
▁不捨	-12.0427
▁不捨得	-12.0427
▁不推文回覆	-12.0427
▁不提也罷	-12.0427
▁不插電	-12.0427
▁不換行	-12.0427
▁不揣冒昧	-12.0427
▁不搭理	-12.0427
▁不摟	-12.0427
▁不摸頭	-12.0427
▁不撞南牆不回頭	-12.0427
▁不擇手段	-12.0427
▁不擴散核武器條約	-12.0427
▁不支	-12.0427
▁不攻自破	-12.0427
▁不敗之地	-12.0427
▁不敢	-12.0427
▁不敢當	-12.0427
▁不敢自專	-12.0427
▁不敢苟同	-12.0427
▁不敢越雷池一步	-12.0427
▁不敢高攀	-12.0427
▁不敬	-12.0427
▁不敵	-12.0427
▁不文	-12.0427
▁不文物	-12.0427
▁不料	-12.0427
▁不新鮮	-12.0427
▁不斷	-12.0427
▁不方便	-12.0427
▁不日	-12.0427
▁不日放映	-12.0427
▁不明	-12.0427
▁不明不白	-12.0427
▁不明事理	-12.0427
▁不明就裏	-12.0427
▁不明所以	-12.0427
▁不明確	-12.0427
▁不明覺厲	-12.0427
▁不明飛行物	-12.0427
▁不明飛行物體	-12.0427
▁不易	-12.0427
▁不易之論	-12.0427
▁不是	-12.0427
▁不是一家人不進一家門	-12.0427
▁不是冤家不聚頭	-12.0427
▁不是吧	-12.0427
▁不是味兒	-12.0427
▁不是喫素的	-12.0427
▁不是嗎	-12.0427
▁不是東西	-12.0427
▁不是滋味	-12.0427
▁不是話	-12.0427
▁不時	-12.0427
▁不時不食	-12.0427
▁不時之需	-12.0427
▁不景	-12.0427
▁不景氣	-12.0427
▁不智	-12.0427
▁不暇	-12.0427
▁不曉	-12.0427
▁不曾	-12.0427
▁不會	-12.0427
▁不會弄	-12.0427
▁不服	-12.0427
▁不服水土	-12.0427
▁不服燒埋	-12.0427
▁不服罪	-12.0427
▁不期	-12.0427
▁不期然	-12.0427
▁不期然而然	-12.0427
▁不期而遇	-12.0427
▁不朽	-12.0427
▁不枉	-12.0427
▁不標準	-12.0427
▁不歡而散	-12.0427
▁不止	-12.0427
▁不止一次	-12.0427
▁不正之風	-12.0427
▁不正常	-12.0427
▁不正常狀況	-12.0427
▁不正當	-12.0427
▁不正當競爭	-12.0427
▁不正確	-12.0427
▁不死心	-12.0427
▁不死生物	-12.0427
▁不比	-12.0427
▁不毛	-12.0427
▁不毛之地	-12.0427
▁不求人	-12.0427
▁不求收獲	-12.0427
▁不求有功,但求無過	-12.0427
▁不求甚解	-12.0427
▁不治	-12.0427
▁不治之症	-12.0427
▁不治而癒	-12.0427
▁不沾鍋	-12.0427
▁不法	-12.0427
▁不法之徒	-12.0427
▁不法分子	-12.0427
▁不注意	-12.0427
▁不消	-12.0427
▁不消說	-12.0427
▁不清	-12.0427
▁不清楚	-12.0427
▁不減當年	-12.0427
▁不渝	-12.0427
▁不測	-12.0427
▁不湊巧	-12.0427
▁不準	-12.0427
▁不準確	-12.0427
▁不準許	-12.0427
▁不溜	-12.0427
▁不溶	-12.0427
▁不滿	-12.0427
▁不滿意	-12.0427
▁不濟	-12.0427
▁不濟事	-12.0427
▁不無	-12.0427
▁不無可疑	-12.0427
▁不無可疑之處	-12.0427
▁不無小補	-12.0427
▁不無道理	-12.0427
▁不然	-12.0427
▁不然的話	-12.0427
▁不爭	-12.0427
▁不爭氣	-12.0427
▁不爲五斗米折腰	-12.0427
▁不爲人知	-12.0427
▁不爲左右袒	-12.0427
▁不爲已甚	-12.0427
▁不爲意	-12.0427
▁不爲所動	-12.0427
▁不爲過	-12.0427
▁不爲酒困	-12.0427
▁不爲零	-12.0427
▁不爽	-12.0427
▁不特	-12.0427
▁不特只	-12.0427
▁不特已	-12.0427
▁不特止	-12.0427
▁不獨	-12.0427
▁不理	-12.0427
▁不理不睬	-12.0427
▁不理好醜但求就手	-12.0427
▁不甘	-12.0427
▁不甘寂寞	-12.0427
▁不甘後人	-12.0427
▁不甘心	-12.0427
▁不甘於	-12.0427
▁不甘示弱	-12.0427
▁不甚了了	-12.0427
▁不生性	-12.0427
▁不用	-12.0427
▁不用客氣	-12.0427
▁不用找	-12.0427
▁不用謝	-12.0427
▁不由	-12.0427
▁不由分說	-12.0427
▁不由得	-12.0427
▁不由自主	-12.0427
▁不畏	-12.0427
▁不畏強暴	-12.0427
▁不畏強權	-12.0427
▁不留	-12.0427
▁不留意	-12.0427
▁不當	-12.0427
▁不當一回事	-12.0427
▁不當事	-12.0427
▁不當得利	-12.0427
▁不當緊	-12.0427
▁不疾不徐	-12.0427
▁不痛不癢	-12.0427
▁不登大雅之堂	-12.0427
▁不白之冤	-12.0427
▁不盡	-12.0427
▁不盡不實	-12.0427
▁不盡根	-12.0427
▁不盡然	-12.0427
▁不相上下	-12.0427
▁不相伯仲	-12.0427
▁不相容	-12.0427
▁不相容原理	-12.0427
▁不相干	-12.0427
▁不相符	-12.0427
▁不省人事	-12.0427
▁不眠不休	-12.0427
▁不着	-12.0427
▁不着邊際	-12.0427
▁不着陸飛行	-12.0427
▁不睦	-12.0427
▁不瞅不睬	-12.0427
▁不知	-12.0427
▁不知丁董	-12.0427
▁不知不覺	-12.0427
▁不知何故	-12.0427
▁不知其所以然	-12.0427
▁不知凡幾	-12.0427
▁不知利害	-12.0427
▁不知去向	-12.0427
▁不知天高地厚	-12.0427
▁不知好歹	-12.0427
▁不知好笑還是好怒	-12.0427
▁不知就裏	-12.0427
▁不知幾	-12.0427
▁不知幾爽	-12.0427
▁不知所之	-12.0427
▁不知所云	-12.0427
▁不知所以	-12.0427
▁不知所措	-12.0427
▁不知所終	-12.0427
▁不知所謂	-12.0427
▁不知死活	-12.0427
▁不知疲倦	-12.0427
▁不知痛癢	-12.0427
▁不知羞恥	-12.0427
▁不知者不罪	-12.0427
▁不知輕重	-12.0427
▁不知進退	-12.0427
▁不知道	-12.0427
▁不破不立	-12.0427
▁不碎玻璃	-12.0427
▁不確定性原理	-12.0427
▁不確實	-12.0427
▁不祥	-12.0427
▁不祥之兆	-12.0427
▁不禁	-12.0427
▁不移	-12.0427
▁不稂不莠	-12.0427
▁不穩	-12.0427
▁不穩定	-12.0427
▁不穩定氣流	-12.0427
▁不穩平衡	-12.0427
▁不穩性	-12.0427
▁不窮	-12.0427
▁不端	-12.0427
▁不符	-12.0427
▁不符合	-12.0427
▁不第	-12.0427
▁不等	-12.0427
▁不等價交換	-12.0427
▁不等式	-12.0427
▁不等號	-12.0427
▁不等邊三角形	-12.0427
▁不答理	-12.0427
▁不管	-12.0427
▁不管三七二十一	-12.0427
▁不簡單	-12.0427
▁不粘鍋	-12.0427
▁不約而同	-12.0427
▁不細	-12.0427
▁不終天年	-12.0427
▁不結果	-12.0427
▁不結盟	-12.0427
▁不結盟運動	-12.0427
▁不絕	-12.0427
▁不絕如縷	-12.0427
▁不絕於耳	-12.0427
▁不絕於途	-12.0427
▁不給力	-12.0427
▁不經一事	-12.0427
▁不經一事,不長一智	-12.0427
▁不經不覺	-12.0427
▁不經之談	-12.0427
▁不經意	-12.0427
▁不經意間	-12.0427
▁不經濟	-12.0427
▁不緊要	-12.0427
▁不織布	-12.0427
▁不繼	-12.0427
▁不置可否	-12.0427
▁不羈	-12.0427
▁不義	-12.0427
▁不義之財	-12.0427
▁不翼而飛	-12.0427
▁不而	-12.0427
▁不耐煩	-12.0427
▁不聞不問	-12.0427
▁不聲不響	-12.0427
▁不聽命	-12.0427
▁不肖	-12.0427
▁不肖子孫	-12.0427
▁不肥不瘦	-12.0427
▁不肯	-12.0427
▁不育	-12.0427
▁不育性	-12.0427
▁不育症	-12.0427
▁不能	-12.0427
▁不能不	-12.0427
▁不能抵抗	-12.0427
▁不能自已	-12.0427
▁不能自拔	-12.0427
▁不脛而走	-12.0427
▁不自在	-12.0427
▁不自然	-12.0427
▁不自由,毋寧死	-12.0427
▁不自覺	-12.0427
▁不自量	-12.0427
▁不自量力	-12.0427
▁不至於	-12.0427
▁不致	-12.0427
▁不致於	-12.0427
▁不興	-12.0427
▁不舉	-12.0427
▁不舒服	-12.0427
▁不舒適	-12.0427
▁不良	-12.0427
▁不良傾向	-12.0427
▁不苟	-12.0427
▁不若	-12.0427
▁不菲	-12.0427
▁不萊梅	-12.0427
▁不落俗套	-12.0427
▁不落痕跡	-12.0427
▁不落窠臼	-12.0427
▁不蒸饅頭爭口氣	-12.0427
▁不藥而癒	-12.0427
▁不處理	-12.0427
▁不虛此行	-12.0427
▁不虞	-12.0427
▁不行	-12.0427
▁不行了	-12.0427
▁不衰	-12.0427
▁不要	-12.0427
▁不要得	-12.0427
▁不要緊	-12.0427
▁不要臉	-12.0427
▁不要讓	-12.0427
▁不要走	-12.0427
▁不要面	-12.0427
▁不覊	-12.0427
▁不見	-12.0427
▁不見一點蹤影	-12.0427
▁不見不散	-12.0427
▁不見兔子不撒鷹	-12.0427
▁不見天日	-12.0427
▁不見得	-12.0427
▁不見棺材不掉淚	-12.0427
▁不見棺材不落淚	-12.0427
▁不見經傳	-12.0427
▁不規則	-12.0427
▁不規則三角形	-12.0427
▁不規則四邊形	-12.0427
▁不規範	-12.0427
▁不覺	-12.0427
▁不解	-12.0427
▁不解風情	-12.0427
▁不觸目	-12.0427
▁不言不語	-12.0427
▁不言而喻	-12.0427
▁不言自明	-12.0427
▁不計	-12.0427
▁不計其數	-12.0427
▁不記名	-12.0427
▁不記名投票	-12.0427
▁不許	-12.0427
▁不該	-12.0427
▁不詳	-12.0427
▁不語	-12.0427
▁不誠實	-12.0427
▁不說不知	-12.0427
▁不說自明	-12.0427
▁不調和	-12.0427
▁不請自來	-12.0427
▁不論	-12.0427
▁不論如何	-12.0427
▁不論怎樣	-12.0427
▁不論怎麼	-12.0427
▁不諱	-12.0427
▁不諳	-12.0427
▁不諳世故	-12.0427
▁不謀而合	-12.0427
▁不謂	-12.0427
▁不謝	-12.0427
▁不識	-12.0427
▁不識一丁	-12.0427
▁不識大體	-12.0427
▁不識好歹	-12.0427
▁不識字	-12.0427
▁不識廬山真面目	-12.0427
▁不識擡舉	-12.0427
▁不識時務	-12.0427
▁不識時變	-12.0427
▁不識泰山	-12.0427
▁不識高低	-12.0427
▁不變	-12.0427
▁不變價格	-12.0427
▁不變化	-12.0427
▁不變資本	-12.0427
▁不變量	-12.0427
▁不讓鬚眉	-12.0427
▁不象話	-12.0427
▁不負衆望	-12.0427
▁不貲	-12.0427
▁不買賬	-12.0427
▁不費事	-12.0427
▁不費吹灰之力	-12.0427
▁不貼式	-12.0427
▁不賴	-12.0427
▁不贊一詞	-12.0427
▁不贊成	-12.0427
▁不起眼	-12.0427
▁不起眼兒	-12.0427
▁不越雷池	-12.0427
▁不足	-12.0427
▁不足掛齒	-12.0427
▁不足月	-12.0427
▁不足爲外人道	-12.0427
▁不足爲奇	-12.0427
▁不足爲怪	-12.0427
▁不足爲慮	-12.0427
▁不足爲憑	-12.0427
▁不足爲訓	-12.0427
▁不足爲道	-12.0427
▁不足的地方	-12.0427
▁不足輕重	-12.0427
▁不足道	-12.0427
▁不足齒數	-12.0427
▁不軌	-12.0427
▁不輕饒	-12.0427
▁不輟	-12.0427
▁不輸蝕	-12.0427
▁不辨菽麥	-12.0427
▁不辭勞苦	-12.0427
▁不辭而別	-12.0427
▁不辭辛苦	-12.0427
▁不辯菽麥	-12.0427
▁不近人情	-12.0427
▁不迭	-12.0427
▁不送	-12.0427
▁不送氣	-12.0427
▁不送氣音	-12.0427
▁不透明	-12.0427
▁不透氣	-12.0427
▁不透水	-12.0427
▁不通	-12.0427
▁不逞之徒	-12.0427
▁不速	-12.0427
▁不速之客	-12.0427
▁不速而至	-12.0427
▁不連續	-12.0427
▁不連續面	-12.0427
▁不逮捕特權	-12.0427
▁不進則退	-12.0427
▁不遂	-12.0427
▁不過	-12.0427
▁不過不失	-12.0427
▁不過如此	-12.0427
▁不過意	-12.0427
▁不過爾爾	-12.0427
▁不遑	-12.0427
▁不遑多讓	-12.0427
▁不道德	-12.0427
▁不違農時	-12.0427
▁不遜	-12.0427
▁不遠千里	-12.0427
▁不遠千里而來	-12.0427
▁不適	-12.0427
▁不適當	-12.0427
▁不遱	-12.0427
▁不遺餘力	-12.0427
▁不避斧鉞	-12.0427
▁不避艱險	-12.0427
▁不醉不歸	-12.0427
▁不醉無歸	-12.0427
▁不銹鋼	-12.0427
▁不錯	-12.0427
▁不鏽鋼	-12.0427
▁不鏽鐵	-12.0427
▁不長眼睛	-12.0427
▁不開竅	-12.0427
▁不關痛癢	-12.0427
▁不隨大流	-12.0427
▁不隨意	-12.0427
▁不隨意肌	-12.0427
▁不雅	-12.0427
▁不雅觀	-12.0427
▁不離不棄	-12.0427
▁不離兒	-12.0427
▁不露聲色	-12.0427
▁不靈	-12.0427
▁不韙	-12.0427
▁不順	-12.0427
▁不題	-12.0427
▁不願	-12.0427
▁不願置評	-12.0427
▁不顧	-12.0427
▁不顧一切	-12.0427
▁不顧前後	-12.0427
▁不顯山不露水	-12.0427
▁不食人間煙火	-12.0427
▁不飽和	-12.0427
▁不飽和脂肪酸	-12.0427
▁不首先使用	-12.0427
▁不體面	-12.0427
▁不齒	-12.0427
▁丏	-12.0427
▁丐	-12.0427
▁丐幫	-12.0427
▁丑旦	-12.0427
▁丑牛	-12.0427
▁丑角	-12.0427
▁丒	-12.0427
▁且	-12.0427
▁且不說	-12.0427
▁且休	-12.0427
▁且慢	-12.0427
▁且末	-12.0427
▁且末縣	-12.0427
▁且末遺址	-12.0427
▁且看	-12.0427
▁且聽下回分解	-12.0427
▁且說	-12.0427
▁丕	-12.0427
▁丕烈	-12.0427
▁丕績	-12.0427
▁丕變	-12.0427
▁世	-12.0427
▁世上	-12.0427
▁世上無難事,只怕有心人	-12.0427
▁世世	-12.0427
▁世世代代	-12.0427
▁世事	-12.0427
▁世交	-12.0427
▁世人	-12.0427
▁世仇	-12.0427
▁世代	-12.0427
▁世代交替	-12.0427
▁世代相傳	-12.0427
▁世伯	-12.0427
▁世侄	-12.0427
▁世侄女	-12.0427
▁世俗	-12.0427
▁世俗主義	-12.0427
▁世傑	-12.0427
▁世務	-12.0427
▁世博	-12.0427
▁世博會	-12.0427
▁世叔	-12.0427
▁世史	-12.0427
▁世外桃源	-12.0427
▁世姪	-12.0427
▁世宗	-12.0427
▁世宗大王	-12.0427
▁世家	-12.0427
▁世尊	-12.0427
▁世局	-12.0427
▁世情	-12.0427
▁世態	-12.0427
▁世態炎涼	-12.0427
▁世故	-12.0427
▁世泥	-12.0427
▁世爵	-12.0427
▁世界	-12.0427
▁世界上	-12.0427
▁世界中	-12.0427
▁世界主義	-12.0427
▁世界之窗站	-12.0427
▁世界人權宣言	-12.0427
▁世界仔	-12.0427
▁世界博覽會	-12.0427
▁世界史	-12.0427
▁世界各地	-12.0427
▁世界和平	-12.0427
▁世界地圖	-12.0427
▁世界報	-12.0427
▁世界大同	-12.0427
▁世界大戰	-12.0427
▁世界女	-12.0427
▁世界小姐	-12.0427
▁世界小姐選美	-12.0427
▁世界屋脊	-12.0427
▁世界市場	-12.0427
▁世界強國	-12.0427
▁世界性	-12.0427
▁世界文化	-12.0427
▁世界文化遺產	-12.0427
▁世界文化遺產地	-12.0427
▁世界新聞	-12.0427
▁世界旅遊組織	-12.0427
▁世界日報	-12.0427
▁世界末日	-12.0427
▁世界歷史	-12.0427
▁世界氣象組織	-12.0427
▁世界波	-12.0427
▁世界海關組織	-12.0427
▁世界盃	-12.0427
▁世界知名	-12.0427
▁世界知識產權組織	-12.0427
▁世界第一	-12.0427
▁世界糧食署	-12.0427
▁世界紀錄	-12.0427
▁世界級	-12.0427
▁世界經濟	-12.0427
▁世界經濟危機	-12.0427
▁世界經濟論壇	-12.0427
▁世界維吾爾代表大會	-12.0427
▁世界聞名	-12.0427
▁世界自然基金會	-12.0427
▁世界衛生大會	-12.0427
▁世界衛生組織	-12.0427
▁世界觀	-12.0427
▁世界語	-12.0427
▁世界語言	-12.0427
▁世界變暖	-12.0427
▁世界貿易	-12.0427
▁世界貿易中心	-12.0427
▁世界貿易大樓	-12.0427
▁世界貿易組織	-12.0427
▁世界運動會	-12.0427
▁世界遺產	-12.0427
▁世界野生生物基金會	-12.0427
▁世界金融中心	-12.0427
▁世界銀行	-12.0427
▁世界銀行集團	-12.0427
▁世界錦標賽	-12.0427
▁世祿	-12.0427
▁世祿之家	-12.0427
▁世系	-12.0427
▁世紀	-12.0427
▁世紀之戰	-12.0427
▁世紀末	-12.0427
▁世紀末年	-12.0427
▁世維會	-12.0427
▁世職	-12.0427
▁世胄	-12.0427
▁世藝	-12.0427
▁世行	-12.0427
▁世衛	-12.0427
▁世衛組織	-12.0427
▁世襲	-12.0427
▁世襲之爭	-12.0427
▁世襲君主國	-12.0427
▁世說新語	-12.0427
▁世貿	-12.0427
▁世貿中心	-12.0427
▁世貿中心大樓	-12.0427
▁世貿大廈	-12.0427
▁世貿大樓	-12.0427
▁世貿組織	-12.0427
▁世運	-12.0427
▁世運會	-12.0427
▁世道	-12.0427
▁世銀	-12.0427
▁世錦賽	-12.0427
▁世間	-12.0427
▁世隔絕	-12.0427
▁世面	-12.0427
▁世風	-12.0427
▁世風日下	-12.0427
▁丗	-12.0427
▁丘	-12.0427
▁丘八	-12.0427
▁丘北	-12.0427
▁丘北縣	-12.0427
▁丘吉爾	-12.0427
▁丘壑	-12.0427
▁丘成桐	-12.0427
▁丘比特	-12.0427
▁丘爾金	-12.0427
▁丘疹	-12.0427
▁丘縣	-12.0427
▁丘腦	-12.0427
▁丘腦損傷	-12.0427
▁丘逢甲	-12.0427
▁丘陵	-12.0427
▁丘鷸	-12.0427
▁丙	-12.0427
▁丙一身	-12.0427
▁丙一鑊	-12.0427
▁丙三醇	-12.0427
▁丙二醇	-12.0427
▁丙到豬頭噉	-12.0427
▁丙到隻嘢噉	-12.0427
▁丙到隻狗噉	-12.0427
▁丙到飛起	-12.0427
▁丙午	-12.0427
▁丙型	-12.0427
▁丙型肝炎	-12.0427
▁丙基	-12.0427
▁丙子	-12.0427
▁丙子戰爭	-12.0427
▁丙子胡亂	-12.0427
▁丙寅	-12.0427
▁丙戌	-12.0427
▁丙氨酸	-12.0427
▁丙烯	-12.0427
▁丙烯腈	-12.0427
▁丙烯酸	-12.0427
▁丙烯酸酯	-12.0427
▁丙烯醛	-12.0427
▁丙烷	-12.0427
▁丙環唑	-12.0427
▁丙申	-12.0427
▁丙種射線	-12.0427
▁丙等	-12.0427
▁丙糖	-12.0427
▁丙級	-12.0427
▁丙綸	-12.0427
▁丙辰	-12.0427
▁丙酮	-12.0427
▁丙酮酸	-12.0427
▁丙酮酸脫氫酶	-12.0427
▁丙醇	-12.0427
▁丙醚	-12.0427
▁丙醛	-12.0427
▁丙鑊	-12.0427
▁丙鑊甘	-12.0427
▁丞	-12.0427
▁丞相	-12.0427
▁丟	-12.0427
▁丟三拉四	-12.0427
▁丟三落四	-12.0427
▁丟下	-12.0427
▁丟下他	-12.0427
▁丟人	-12.0427
▁丟人現眼	-12.0427
▁丟低	-12.0427
▁丟假	-12.0427
▁丟到家	-12.0427
▁丟卒保車	-12.0427
▁丟吧	-12.0427
▁丟命	-12.0427
▁丟失	-12.0427
▁丟官	-12.0427
▁丟手	-12.0427
▁丟掉	-12.0427
▁丟擲	-12.0427
▁丟時	-12.0427
▁丟書包	-12.0427
▁丟架	-12.0427
▁丟棄	-12.0427
▁丟橋扭擰	-12.0427
▁丟烏紗帽	-12.0427
▁丟生	-12.0427
▁丟生曬	-12.0427
▁丟疏	-12.0427
▁丟眉丟眼	-12.0427
▁丟眉弄色	-12.0427
▁丟眼色	-12.0427
▁丟眼角	-12.0427
▁丟臉	-12.0427
▁丟荒	-12.0427
▁丟輪扯砲	-12.0427
▁丟那媽	-12.0427
▁丟醜	-12.0427
▁丟開	-12.0427
▁丟面子	-12.0427
▁丟飯碗	-12.0427
▁丟魂	-12.0427
▁丟魂落魄	-12.0427
▁丠	-12.0427
▁両	-12.0427
▁丣	-12.0427
▁並	-12.0427
▁並不	-12.0427
▁並不在乎	-12.0427
▁並且	-12.0427
▁並冇	-12.0427
▁並列	-12.0427
▁並列譯文	-12.0427
▁並口	-12.0427
▁並坐	-12.0427
▁並存	-12.0427
▁並把	-12.0427
▁並排	-12.0427
▁並未	-12.0427
▁並條	-12.0427
▁並激	-12.0427
▁並無	-12.0427
▁並無不可	-12.0427
▁並用	-12.0427
▁並稱	-12.0427
▁並立	-12.0427
▁並系羣	-12.0427
▁並聯	-12.0427
▁並肩	-12.0427
▁並肩作戰	-12.0427
▁並肩而行	-12.0427
▁並臻	-12.0427
▁並舉	-12.0427
▁並蒂	-12.0427
▁並蒂蓮	-12.0427
▁並處	-12.0427
▁並行	-12.0427
▁並行不悖	-12.0427
▁並行口	-12.0427
▁並行程序	-12.0427
▁並行計算	-12.0427
▁並進	-12.0427
▁並重	-12.0427
▁並非	-12.0427
▁並駕齊驅	-12.0427
▁丨	-12.0427
▁丩	-12.0427
▁丫	-12.0427
▁丫叉	-12.0427
▁丫巴兒	-12.0427
▁丫挺	-12.0427
▁丫杈	-12.0427
▁丫烏	-12.0427
▁丫烏婆	-12.0427
▁丫環	-12.0427
▁丫頭	-12.0427
▁丫頭片子	-12.0427
▁丫髻	-12.0427
▁丫鬟	-12.0427
▁丬	-12.0427
▁中	-12.0427
▁中三t	-12.0427
▁中上	-12.0427
▁中上層	-12.0427
▁中上游	-12.0427
▁中上程度	-12.0427
▁中上等	-12.0427
▁中上級	-12.0427
▁中上階層	-12.0427
▁中上階級	-12.0427
▁中下	-12.0427
▁中下層	-12.0427
▁中下游	-12.0427
▁中下程度	-12.0427
▁中下等	-12.0427
▁中下級	-12.0427
▁中下階層	-12.0427
▁中下階級	-12.0427
▁中世紀	-12.0427
▁中中	-12.0427
▁中中地	-12.0427
▁中中挺挺	-12.0427
▁中二病	-12.0427
▁中五	-12.0427
▁中亞	-12.0427
▁中亞夜鷹	-12.0427
▁中亞細亞	-12.0427
▁中亞草原	-12.0427
▁中亞鴿	-12.0427
▁中亭	-12.0427
▁中人	-12.0427
▁中介	-12.0427
▁中介人	-12.0427
▁中介所	-12.0427
▁中企業	-12.0427
▁中伏	-12.0427
▁中位	-12.0427
▁中位數	-12.0427
▁中低	-12.0427
▁中低層	-12.0427
▁中低端	-12.0427
▁中俄	-12.0427
▁中俄伊犁條約	-12.0427
▁中俄北京條約	-12.0427
▁中俄尼布楚條約	-12.0427
▁中俄改訂條約	-12.0427
▁中俄邊界協議	-12.0427
▁中俄關系	-12.0427
▁中保	-12.0427
▁中信泰富	-12.0427
▁中信銀行	-12.0427
▁中值定理	-12.0427
▁中停	-12.0427
▁中傷	-12.0427
▁中元	-12.0427
▁中元普渡	-12.0427
▁中元節	-12.0427
▁中八	-12.0427
▁中六	-12.0427
▁中共	-12.0427
▁中共中央	-12.0427
▁中共中央宣傳部	-12.0427
▁中共中央紀委監察部	-12.0427
▁中共中央紀律檢查委員會	-12.0427
▁中共中央組織部	-12.0427
▁中共中央辦公廳	-12.0427
▁中共九大	-12.0427
▁中共總書記	-12.0427
▁中出	-12.0427
▁中出即飛	-12.0427
▁中刀	-12.0427
▁中分	-12.0427
▁中前衛	-12.0427
▁中劍	-12.0427
▁中北大學	-12.0427
▁中北部	-12.0427
▁中區	-12.0427
▁中午	-12.0427
▁中午飯	-12.0427
▁中南	-12.0427
▁中南半島	-12.0427
▁中南海	-12.0427
▁中南部	-12.0427
▁中印	-12.0427
▁中印半島	-12.0427
▁中原	-12.0427
▁中原區	-12.0427
▁中原大學	-12.0427
▁中古	-12.0427
▁中古世紀	-12.0427
▁中古史	-12.0427
▁中古時代	-12.0427
▁中古漢語	-12.0427
▁中古車	-12.0427
▁中史	-12.0427
▁中同	-12.0427
▁中向性格	-12.0427
▁中和	-12.0427
▁中和劑	-12.0427
▁中和市	-12.0427
▁中圈套	-12.0427
▁中國	-12.0427
▁中國中央電視臺	-12.0427
▁中國中心主義	-12.0427
▁中國交通建設	-12.0427
▁中國交通運輸協會	-12.0427
▁中國人	-12.0427
▁中國人大	-12.0427
▁中國人權民運信息中心	-12.0427
▁中國人權組織	-12.0427
▁中國人民	-12.0427
▁中國人民大學	-12.0427
▁中國人民對外友好協會	-12.0427
▁中國人民志願軍	-12.0427
▁中國人民政治協商會議	-12.0427
▁中國人民武裝警察部隊	-12.0427
▁中國人民解放軍	-12.0427
▁中國人民解放軍海軍	-12.0427
▁中國人民解放軍空軍	-12.0427
▁中國人民銀行	-12.0427
▁中國伊斯蘭教協會	-12.0427
▁中國作協	-12.0427
▁中國作家協會	-12.0427
▁中國保險監督管理委員會	-12.0427
▁中國傳媒大學	-12.0427
▁中國光大銀行	-12.0427
▁中國共產主義青年團	-12.0427
▁中國共產黨	-12.0427
▁中國共產黨中央委員會	-12.0427
▁中國共產黨中央委員會宣傳部	-12.0427
▁中國共產黨中央委員會總書記	-12.0427
▁中國共產黨中央政治局	-12.0427
▁中國共產黨中央政治局常務委員會	-12.0427
▁中國剩餘定理	-12.0427
▁中國功夫	-12.0427
▁中國化	-12.0427
▁中國北方工業公司	-12.0427
▁中國南方航空公司	-12.0427
▁中國南方航空股份有限公司	-12.0427
▁中國史	-12.0427
▁中國同盟會	-12.0427
▁中國四大發明	-12.0427
▁中國國家博物館	-12.0427
▁中國國家原子能機構	-12.0427
▁中國國家圖書館	-12.0427
▁中國國家地震局	-12.0427
▁中國國家環保局	-12.0427
▁中國國家環境保護總局	-12.0427
▁中國國家航天局	-12.0427
▁中國國民黨革命委員會	-12.0427
▁中國國防科技信息中心	-12.0427
▁中國國際信託投資公司	-12.0427
▁中國國際廣播電臺	-12.0427
▁中國國際航空公司	-12.0427
▁中國國際貿易促進委員會	-12.0427
▁中國地球物理學會	-12.0427
▁中國地質大學	-12.0427
▁中國地質調查局	-12.0427
▁中國地震局	-12.0427
▁中國地震臺	-12.0427
▁中國城	-12.0427
▁中國大媽	-12.0427
▁中國大百科全書出版社	-12.0427
▁中國大蠑螈	-12.0427
▁中國大陸	-12.0427
▁中國天主教愛國會	-12.0427
▁中國好聲音	-12.0427
▁中國字	-12.0427
▁中國小說史略	-12.0427
▁中國少年先鋒隊	-12.0427
▁中國工商銀行	-12.0427
▁中國工程院	-12.0427
▁中國左翼作家聯盟	-12.0427
▁中國廣播公司	-12.0427
▁中國建設銀行	-12.0427
▁中國式	-12.0427
▁中國政府	-12.0427
▁中國政法大學	-12.0427
▁中國教育和科研計算機網	-12.0427
▁中國教育網	-12.0427
▁中國文化	-12.0427
▁中國文學	-12.0427
▁中國文學藝術界聯合會	-12.0427
▁中國文聯	-12.0427
▁中國新民黨	-12.0427
▁中國新聞社	-12.0427
▁中國新聞網	-12.0427
▁中國日報	-12.0427
▁中國時報	-12.0427
▁中國東方航空	-12.0427
▁中國核能總公司	-12.0427
▁中國歷史	-12.0427
▁中國歷史博物館	-12.0427
▁中國殘疾人聯合會	-12.0427
▁中國殘聯	-12.0427
▁中國民主促進會	-12.0427
▁中國民主同盟	-12.0427
▁中國民主建國會	-12.0427
▁中國民用航空局	-12.0427
▁中國氣象局	-12.0427
▁中國法學會	-12.0427
▁中國海	-12.0427
▁中國海事局	-12.0427
▁中國海洋石油總公司	-12.0427
▁中國消費者協會	-12.0427
▁中國無線電頻譜管理和監測	-12.0427
▁中國特色社會主義	-12.0427
▁中國產	-12.0427
▁中國畫	-12.0427
▁中國石化	-12.0427
▁中國石油化工股份有限公司	-12.0427
▁中國石油和化學工業協會	-12.0427
▁中國石油天然氣股份有限公司	-12.0427
▁中國石油天然氣集團公司	-12.0427
▁中國社會	-12.0427
▁中國社會科學院	-12.0427
▁中國科學院	-12.0427
▁中國移動通信	-12.0427
▁中國籍	-12.0427
▁中國精密機械進出口公司	-12.0427
▁中國紅	-12.0427
▁中國經營報	-12.0427
▁中國網絡審查	-12.0427
▁中國美術館	-12.0427
▁中國聯合航空	-12.0427
▁中國聯通	-12.0427
▁中國致公黨	-12.0427
▁中國航天工業公司	-12.0427
▁中國航天技術進出口公司	-12.0427
▁中國航海日	-12.0427
▁中國航空工業公司	-12.0427
▁中國航空運輸協會	-12.0427
▁中國船舶工業集團	-12.0427
▁中國船舶貿易公司	-12.0427
▁中國船舶重工集團公司	-12.0427
▁中國菜	-12.0427
▁中國製造	-12.0427
▁中國西北邊陲	-12.0427
▁中國話	-12.0427
▁中國語	-12.0427
▁中國證券報	-12.0427
▁中國證券監督管理委員會	-12.0427
▁中國證監會	-12.0427
▁中國象棋	-12.0427
▁中國農業銀行	-12.0427
▁中國通	-12.0427
▁中國進出口銀行	-12.0427
▁中國遊藝機遊樂園協會	-12.0427
▁中國郵政	-12.0427
▁中國醫藥	-12.0427
▁中國銀聯	-12.0427
▁中國銀行	-12.0427
▁中國銀行業監督管理委員會	-12.0427
▁中國長城工業公司	-12.0427
▁中國電信	-12.0427
▁中國電視公司	-12.0427
▁中國青年報	-12.0427
▁中國音樂	-12.0427
▁中國餐館症候羣	-12.0427
▁中國香港	-12.0427
▁中國鳥類學會	-12.0427
▁中土	-12.0427
▁中坑	-12.0427
▁中型	-12.0427
▁中埔	-12.0427
▁中埔鄉	-12.0427
▁中堂	-12.0427
▁中堅	-12.0427
▁中堅份子	-12.0427
▁中場	-12.0427
▁中場休息	-12.0427
▁中壓管	-12.0427
▁中壢	-12.0427
▁中壢市	-12.0427
▁中外	-12.0427
▁中大	-12.0427
▁中大型	-12.0427
▁中大西洋脊	-12.0427
▁中天	-12.0427
▁中央	-12.0427
▁中央人民政府駐香港特別行政區聯絡辦公室	-12.0427
▁中央全會	-12.0427
▁中央凹	-12.0427
▁中央分車帶	-12.0427
▁中央匯金	-12.0427
▁中央圖書館	-12.0427
▁中央執行委員會	-12.0427
▁中央委員會	-12.0427
▁中央宣傳部	-12.0427
▁中央專制集權	-12.0427
▁中央廣播電臺	-12.0427
▁中央情報局	-12.0427
▁中央戲劇學院	-12.0427
▁中央政府	-12.0427
▁中央日報	-12.0427
▁中央民族大學	-12.0427
▁中央海嶺	-12.0427
▁中央直轄市	-12.0427
▁中央省	-12.0427
▁中央研究院	-12.0427
▁中央社	-12.0427
▁中央處理器	-12.0427
▁中央處理機	-12.0427
▁中央財經大學	-12.0427
▁中央軍事委員會	-12.0427
▁中央軍委	-12.0427
▁中央邦	-12.0427
▁中央銀行	-12.0427
▁中央集權	-12.0427
▁中央電視臺	-12.0427
▁中央音樂學院	-12.0427
▁中女	-12.0427
▁中子	-12.0427
▁中子俘獲	-12.0427
▁中子射線攝影	-12.0427
▁中子彈	-12.0427
▁中子數	-12.0427
▁中子星	-12.0427
▁中子源	-12.0427
▁中學	-12.0427
▁中學教師	-12.0427
▁中學會考	-12.0427
▁中學牛	-12.0427
▁中學生	-12.0427
▁中學西用	-12.0427
▁中學雞	-12.0427
▁中宣部	-12.0427
▁中密度纖維板	-12.0427
▁中寧	-12.0427
▁中寧縣	-12.0427
▁中寮	-12.0427
▁中寮鄉	-12.0427
▁中將	-12.0427
▁中專	-12.0427
▁中尉	-12.0427
▁中尉軍官	-12.0427
▁中小	-12.0427
▁中小企	-12.0427
▁中小企業	-12.0427
▁中小型企業	-12.0427
▁中小學	-12.0427
▁中局	-12.0427
▁中層	-12.0427
▁中層階級	-12.0427
▁中屬	-12.0427
▁中山	-12.0427
▁中山八	-12.0427
▁中山公園	-12.0427
▁中山區	-12.0427
▁中山大學	-12.0427
▁中山市	-12.0427
▁中山成彬	-12.0427
▁中山服	-12.0427
▁中山狼傳	-12.0427
▁中山裝	-12.0427
▁中山路	-12.0427
▁中山陵	-12.0427
▁中島	-12.0427
▁中嶽	-12.0427
▁中州	-12.0427
▁中州韻	-12.0427
▁中工	-12.0427
▁中巴	-12.0427
▁中巴士	-12.0427
▁中常	-12.0427
▁中幫	-12.0427
▁中年	-12.0427
▁中年人	-12.0427
▁中度	-12.0427
▁中度性肺水腫	-12.0427
▁中庭	-12.0427
▁中庸	-12.0427
▁中庸之道	-12.0427
▁中庸思想	-12.0427
▁中廳	-12.0427
▁中式	-12.0427
▁中式英語	-12.0427
▁中彈	-12.0427
▁中彩	-12.0427
▁中徑	-12.0427
▁中復電訊	-12.0427
▁中微子	-12.0427
▁中德診所	-12.0427
▁中心	-12.0427
▁中心人物	-12.0427
▁中心內容	-12.0427
▁中心區	-12.0427
▁中心地帶	-12.0427
▁中心埋置關係從句	-12.0427
▁中心思想	-12.0427
▁中心矩	-12.0427
▁中心粒	-12.0427
▁中心線	-12.0427
▁中心語	-12.0427
▁中心點	-12.0427
▁中性	-12.0427
▁中性人	-12.0427
▁中性名詞	-12.0427
▁中性粒細胞	-12.0427
▁中情局	-12.0427
▁中意	-12.0427
▁中成藥	-12.0427
▁中招	-12.0427
▁中括號	-12.0427
▁中拳	-12.0427
▁中指	-12.0427
▁中挺	-12.0427
▁中控面板	-12.0427
▁中提琴	-12.0427
▁中文	-12.0427
▁中文中學	-12.0427
▁中文化	-12.0427
▁中文堂	-12.0427
▁中文大學	-12.0427
▁中文字	-12.0427
▁中文數字	-12.0427
▁中文書	-12.0427
▁中文標準交換碼	-12.0427
▁中文版	-12.0427
▁中文系	-12.0427
▁中新世	-12.0427
▁中新社	-12.0427
▁中新網	-12.0427
▁中斷	-12.0427
▁中方	-12.0427
▁中方縣	-12.0427
▁中旅社	-12.0427
▁中日	-12.0427
▁中日韓	-12.0427
▁中日韓統一表意文字	-12.0427
▁中日韓越	-12.0427
▁中旬	-12.0427
▁中時	-12.0427
▁中暑	-12.0427
▁中更	-12.0427
▁中朝	-12.0427
▁中期	-12.0427
▁中期息	-12.0427
▁中村	-12.0427
▁中杓鷸	-12.0427
▁中杜鵑	-12.0427
▁中東	-12.0427
▁中板	-12.0427
▁中校	-12.0427
▁中槍	-12.0427
▁中樂	-12.0427
▁中樂透	-12.0427
▁中標	-12.0427
▁中樞	-12.0427
▁中樞神經	-12.0427
▁中樞神經系統	-12.0427
▁中樞系統	-12.0427
▁中檔	-12.0427
▁中歐	-12.0427
▁中止	-12.0427
▁中正	-12.0427
▁中正區	-12.0427
▁中正紀念堂	-12.0427
▁中段	-12.0427
▁中毒	-12.0427
▁中毒性	-12.0427
▁中毒途徑	-12.0427
▁中毒酶	-12.0427
▁中氣	-12.0427
▁中氣層	-12.0427
▁中氣層頂	-12.0427
▁中江	-12.0427
▁中江縣	-12.0427
▁中沙羣島	-12.0427
▁中油	-12.0427
▁中法	-12.0427
▁中法戰爭	-12.0427
▁中法新約	-12.0427
▁中波	-12.0427
▁中洋脊	-12.0427
▁中流	-12.0427
▁中流砥柱	-12.0427
▁中海油	-12.0427
▁中港	-12.0427
▁中港臺	-12.0427
▁中港通	-12.0427
▁中游	-12.0427
▁中湯	-12.0427
▁中源地震	-12.0427
▁中澳	-12.0427
▁中爪哇	-12.0427
▁中牟	-12.0427
▁中牟縣	-12.0427
▁中獎	-12.0427
▁中環	-12.0427
▁中環中心	-12.0427
▁中環廣場	-12.0427
▁中環街市	-12.0427
▁中生代	-12.0427
▁中產	-12.0427
▁中產人士	-12.0427
▁中產階級	-12.0427
▁中用	-12.0427
▁中田英壽	-12.0427
▁中甸	-12.0427
▁中甸縣	-12.0427
▁中界球	-12.0427
▁中白鷺	-12.0427
▁中的	-12.0427
▁中盤	-12.0427
▁中看	-12.0427
▁中看不中用	-12.0427
▁中矛	-12.0427
▁中短債	-12.0427
▁中石化	-12.0427
▁中石器時代	-12.0427
▁中石油川東鑽探公司	-12.0427
▁中研院	-12.0427
▁中碼	-12.0427
▁中秋	-12.0427
▁中秋佳節	-12.0427
▁中秋月餅	-12.0427
▁中秋節	-12.0427
▁中秋節前	-12.0427
▁中科院	-12.0427
▁中程	-12.0427
▁中程計劃	-12.0427
▁中程飛彈	-12.0427
▁中空	-12.0427
▁中空寶	-12.0427
▁中空玻璃	-12.0427
▁中竈	-12.0427
▁中立	-12.0427
▁中立主義	-12.0427
▁中立區	-12.0427
▁中立國	-12.0427
▁中立國家	-12.0427
▁中立地區	-12.0427
▁中立地帶	-12.0427
▁中立性	-12.0427
▁中立派	-12.0427
▁中站	-12.0427
▁中站區	-12.0427
▁中等	-12.0427
▁中等專業學校	-12.0427
▁中等專業教育	-12.0427
▁中等師範學校	-12.0427
▁中等技術學校	-12.0427
▁中等教育	-12.0427
▁中等普通教育	-12.0427
▁中等艙	-12.0427
▁中筋麪粉	-12.0427
▁中箭落馬	-12.0427
▁中篇	-12.0427
▁中篇小說	-12.0427
▁中簽	-12.0427
▁中紀委	-12.0427
▁中級	-12.0427
▁中組部	-12.0427
▁中綴	-12.0427
▁中線	-12.0427
▁中縫	-12.0427
▁中繼	-12.0427
▁中繼器	-12.0427
▁中繼站	-12.0427
▁中美	-12.0427
▁中美文化研究中心	-12.0427
▁中美洲	-12.0427
▁中美高	-12.0427
▁中老年	-12.0427
▁中老年人	-12.0427
▁中耕	-12.0427
▁中耳	-12.0427
▁中耳炎	-12.0427
▁中聯航	-12.0427
▁中聯辦	-12.0427
▁中聲	-12.0427
▁中聽	-12.0427
▁中肯	-12.0427
▁中胚層	-12.0427
▁中脊	-12.0427
▁中腦	-12.0427
▁中臺	-12.0427
▁中興	-12.0427
▁中興新村	-12.0427
▁中舉	-12.0427
▁中英	-12.0427
▁中英對照	-12.0427
▁中英文對照	-12.0427
▁中英聯合聲明	-12.0427
▁中草藥	-12.0427
▁中菜	-12.0427
▁中華	-12.0427
▁中華人民共和國	-12.0427
▁中華人民共和國主席	-12.0427
▁中華人民共和國國務院	-12.0427
▁中華人民共和國國徽	-12.0427
▁中華人民共和國香港特別行政區	-12.0427
▁中華仙鶲	-12.0427
▁中華全國婦女聯合會	-12.0427
▁中華全國總工會	-12.0427
▁中華全國體育總會	-12.0427
▁中華字海	-12.0427
▁中華巴士	-12.0427
▁中華攀雀	-12.0427
▁中華民國	-12.0427
▁中華民族	-12.0427
▁中華沙律	-12.0427
▁中華田園犬	-12.0427
▁中華白海豚	-12.0427
▁中華短翅鶯	-12.0427
▁中華秋沙鴨	-12.0427
▁中華臺北	-12.0427
▁中華航空	-12.0427
▁中華航空公司	-12.0427
▁中華英雄	-12.0427
▁中華蘇維埃共和國	-12.0427
▁中華電視	-12.0427
▁中華鷓鴣	-12.0427
▁中葉	-12.0427
▁中藥	-12.0427
▁中藥學	-12.0427
▁中藥店	-12.0427
▁中藥房	-12.0427
▁中藥舖	-12.0427
▁中蘇解決懸案大綱協定	-12.0427
▁中號	-12.0427
▁中蛇	-12.0427
▁中行	-12.0427
▁中衛	-12.0427
▁中衛市	-12.0427
▁中裝	-12.0427
▁中褸	-12.0427
▁中西	-12.0427
▁中西區	-12.0427
▁中西合併	-12.0427
▁中西合璧	-12.0427
▁中西部	-12.0427
▁中西醫	-12.0427
▁中西醫結合	-12.0427
▁中規中矩	-12.0427
▁中視	-12.0427
▁中計	-12.0427
▁中試	-12.0427
▁中譯	-12.0427
▁中財	-12.0427
▁中資	-12.0427
▁中資集團	-12.0427
▁中賊鷗	-12.0427
▁中越戰爭	-12.0427
▁中距離	-12.0427
▁中路	-12.0427
▁中軸	-12.0427
▁中軸線	-12.0427
▁中輟	-12.0427
▁中轉	-12.0427
▁中轉櫃檯	-12.0427
▁中轉站	-12.0427
▁中辣	-12.0427
▁中辦	-12.0427
▁中農	-12.0427
▁中途	-12.0427
▁中途宿舍	-12.0427
▁中途島	-12.0427
▁中途島戰役	-12.0427
▁中途擱淺	-12.0427
▁中途轉gay	-12.0427
▁中途轉機	-12.0427
▁中途退場	-12.0427
▁中通	-12.0427
▁中遠	-12.0427
▁中遠太平洋	-12.0427
▁中遠太平洋有限公司	-12.0427
▁中遠集團	-12.0427
▁中遠香港集團	-12.0427
▁中選	-12.0427
▁中邪	-12.0427
▁中部	-12.0427
▁中部國際機場	-12.0427
▁中都	-12.0427
▁中醫	-12.0427
▁中醫學	-12.0427
▁中醫藥	-12.0427
▁中醫醫院	-12.0427
▁中量級	-12.0427
▁中銀	-12.0427
▁中銀大廈	-12.0427
▁中鋒	-12.0427
▁中鎗	-12.0427
▁中長期	-12.0427
▁中長跑	-12.0427
▁中門大開	-12.0427
▁中間	-12.0427
▁中間人	-12.0427
▁中間件	-12.0427
▁中間分界	-12.0427
▁中間名	-12.0427
▁中間層	-12.0427
▁中間派	-12.0427
▁中間界	-12.0427
▁中間神經元	-12.0427
▁中間纖維	-12.0427
▁中間路線	-12.0427
▁中關村	-12.0427
▁中阮	-12.0427
▁中陽	-12.0427
▁中陽縣	-12.0427
▁中階	-12.0427
▁中隔	-12.0427
▁中隧	-12.0427
▁中電	-12.0427
▁中青	-12.0427
▁中青年	-12.0427
▁中非	-12.0427
▁中非共和國	-12.0427
▁中靶	-12.0427
▁中韓	-12.0427
▁中頭獎	-12.0427
▁中頭馬	-12.0427
▁中頻	-12.0427
▁中風	-12.0427
▁中飛	-12.0427
▁中飯	-12.0427
▁中飽	-12.0427
▁中飽私囊	-12.0427
▁中餐	-12.0427
▁中餐館	-12.0427
▁中體西用	-12.0427
▁中高	-12.0427
▁中高層	-12.0427
▁中高度防空	-12.0427
▁中高級	-12.0427
▁中高音	-12.0427
▁中魔	-12.0427
▁中默	-12.0427
▁中點	-12.0427
▁丮	-12.0427
▁丯	-12.0427
▁丰姿	-12.0427
▁丰采	-12.0427
▁丱	-12.0427
▁串	-12.0427
▁串串貢	-12.0427
▁串仔	-12.0427
▁串供	-12.0427
▁串口	-12.0427
▁串同	-12.0427
▁串味	-12.0427
▁串嘴	-12.0427
▁串埋	-12.0427
▁串女	-12.0427
▁串字	-12.0427
▁串崗	-12.0427
▁串換	-12.0427
▁串法	-12.0427
▁串演	-12.0427
▁串燒	-12.0427
▁串線	-12.0427
▁串聯	-12.0427
▁串膠花	-12.0427
▁串處理	-12.0427
▁串號	-12.0427
▁串行	-12.0427
▁串行口	-12.0427
▁串行點陣打印機	-12.0427
▁串親訪友	-12.0427
▁串謀	-12.0427
▁串講	-12.0427
▁串通	-12.0427
▁串通一氣	-12.0427
▁串連	-12.0427
▁串過馬撚	-12.0427
▁串鄉	-12.0427
▁串門	-12.0427
▁串門兒	-12.0427
▁串門子	-12.0427
▁串音	-12.0427
▁丳	-12.0427
▁丵	-12.0427
▁丶	-12.0427
▁丷	-12.0427
▁丸	-12.0427
▁丸仔	-12.0427
▁丸子	-12.0427
▁丸子頭	-12.0427
▁丹	-12.0427
▁丹丸	-12.0427
▁丹佛	-12.0427
▁丹參	-12.0427
▁丹墀	-12.0427
▁丹寧	-12.0427
▁丹寨	-12.0427
▁丹寨縣	-12.0427
▁丹尼	-12.0427
▁丹尼士巨龍	-12.0427
▁丹尼斯	-12.0427
▁丹尼爾	-12.0427
▁丹尼遜	-12.0427
▁丹巴	-12.0427
▁丹巴縣	-12.0427
▁丹布朗	-12.0427
▁丹徒	-12.0427
▁丹徒區	-12.0427
▁丹心	-12.0427
▁丹方	-12.0427
▁丹東	-12.0427
▁丹東市	-12.0427
▁丹桂	-12.0427
▁丹棱	-12.0427
▁丹棱縣	-12.0427
▁丹毒	-12.0427
▁丹江口	-12.0427
▁丹江口市	-12.0427
▁丹沙	-12.0427
▁丹瑞	-12.0427
▁丹瑞大將	-12.0427
▁丹瑞將軍	-12.0427
▁丹田	-12.0427
▁丹田功	-12.0427
▁丹皮	-12.0427
▁丹砂	-12.0427
▁丹粒	-12.0427
▁丹紅	-12.0427
▁丹紅色	-12.0427
▁丹藥	-12.0427
▁丹衷	-12.0427
▁丹貝	-12.0427
▁丹陽	-12.0427
▁丹陽市	-12.0427
▁丹霞	-12.0427
▁丹霞地貌	-12.0427
▁丹霞山	-12.0427
▁丹青	-12.0427
▁丹頂鶴	-12.0427
▁丹魄	-12.0427
▁丹鳳	-12.0427
▁丹鳳眼	-12.0427
▁丹鳳縣	-12.0427
▁丹麥	-12.0427
▁丹麥包	-12.0427
▁主	-12.0427
▁主上	-12.0427
▁主人	-12.0427
▁主人zaa1	-12.0427
▁主人公	-12.0427
▁主人家	-12.0427
▁主人房	-12.0427
▁主人翁	-12.0427
▁主任	-12.0427
▁主使	-12.0427
▁主修	-12.0427
▁主修科目	-12.0427
▁主僕	-12.0427
▁主公	-12.0427
▁主力	-12.0427
▁主力牆	-12.0427
▁主力艦	-12.0427
▁主力軍	-12.0427
▁主動	-12.0427
▁主動免疫	-12.0427
▁主動權	-12.0427
▁主動脈	-12.0427
▁主句	-12.0427
▁主和派	-12.0427
▁主和絃	-12.0427
▁主唱	-12.0427
▁主因	-12.0427
▁主場	-12.0427
▁主委	-12.0427
▁主婚	-12.0427
▁主婚人	-12.0427
▁主婦	-12.0427
▁主婦手	-12.0427
▁主嫌	-12.0427
▁主子	-12.0427
▁主客和	-12.0427
▁主宰	-12.0427
▁主宰權	-12.0427
▁主宰者	-12.0427
▁主審	-12.0427
▁主將	-12.0427
▁主導	-12.0427
▁主導性	-12.0427
▁主導權	-12.0427
▁主峯	-12.0427
▁主帆	-12.0427
▁主帥	-12.0427
▁主席	-12.0427
▁主席國	-12.0427
▁主席團	-12.0427
▁主席臺	-12.0427
▁主幹	-12.0427
▁主幹網絡	-12.0427
▁主幹網路	-12.0427
▁主幹線	-12.0427
▁主序星	-12.0427
▁主廚	-12.0427
▁主廳	-12.0427
▁主張	-12.0427
▁主從	-12.0427
▁主心骨	-12.0427
▁主意	-12.0427
▁主懷安息	-12.0427
▁主戰	-12.0427
▁主戰派	-12.0427
▁主打	-12.0427
▁主打品牌	-12.0427
▁主打歌	-12.0427
▁主承銷商	-12.0427
▁主持	-12.0427
▁主持人	-12.0427
▁主持正義	-12.0427
▁主掌	-12.0427
▁主控	-12.0427
▁主播	-12.0427
▁主攻	-12.0427
▁主教	-12.0427
▁主教山	-12.0427
▁主料	-12.0427
▁主旋律	-12.0427
▁主族	-12.0427
▁主日	-12.0427
▁主日學	-12.0427
▁主旨	-12.0427
▁主材	-12.0427
▁主板	-12.0427
▁主根	-12.0427
▁主格	-12.0427
▁主業	-12.0427
▁主樓	-12.0427
▁主機	-12.0427
▁主機名	-12.0427
▁主機板	-12.0427
▁主機殼	-12.0427
▁主權	-12.0427
▁主權國	-12.0427
▁主權國家	-12.0427
▁主權在民	-12.0427
▁主次	-12.0427
▁主治	-12.0427
▁主治醫師	-12.0427
▁主治醫生	-12.0427
▁主法向量	-12.0427
▁主流	-12.0427
▁主流派	-12.0427
▁主流社會	-12.0427
▁主演	-12.0427
▁主犯	-12.0427
▁主球	-12.0427
▁主環	-12.0427
▁主祭	-12.0427
▁主禮	-12.0427
▁主禱文	-12.0427
▁主科	-12.0427
▁主筆	-12.0427
▁主管	-12.0427
▁主管人員	-12.0427
▁主管教區	-12.0427
▁主管機關	-12.0427
▁主簿	-12.0427
▁主線	-12.0427
▁主編	-12.0427
▁主罰	-12.0427
▁主義	-12.0427
▁主考	-12.0427
▁主腦	-12.0427
▁主航道	-12.0427
▁主菜	-12.0427
▁主要	-12.0427
▁主要原因	-12.0427
▁主要指標	-12.0427
▁主見	-12.0427
▁主觀	-12.0427
▁主觀主義	-12.0427
▁主角	-12.0427
▁主角威能	-12.0427
▁主計	-12.0427
▁主計室	-12.0427
▁主詞	-12.0427
▁主語	-12.0427
▁主調	-12.0427
▁主謀	-12.0427
▁主謂句	-12.0427
▁主謂結構	-12.0427
▁主謂賓	-12.0427
▁主講	-12.0427
▁主賓	-12.0427
▁主賓謂	-12.0427
▁主車羣	-12.0427
▁主軸	-12.0427
▁主軸承	-12.0427
▁主辦	-12.0427
▁主辦單位	-12.0427
▁主辦國	-12.0427
▁主辦權	-12.0427
▁主銷	-12.0427
▁主隊	-12.0427
▁主音	-12.0427
▁主頁	-12.0427
▁主題	-12.0427
▁主題公園	-12.0427
▁主題曲	-12.0427
▁主題樂園	-12.0427
▁主顧	-12.0427
▁主顯節	-12.0427
▁主食	-12.0427
▁主體	-12.0427
▁主體思想	-12.0427
▁主麻	-12.0427
▁丼	-12.0427
▁丿	-12.0427
▁乀	-12.0427
▁乁	-12.0427
▁乂	-12.0427
▁乃	-12.0427
▁乃乃閒	-12.0427
▁乃堆拉	-12.0427
▁乃堆拉山口	-12.0427
▁乃念	-12.0427
▁乃是	-12.0427
▁乃東	-12.0427
▁乃東縣	-12.0427
▁乃爾	-12.0427
▁乃至	-12.0427
▁乃至於	-12.0427
▁乄	-12.0427
▁久	-12.0427
▁久不久	-12.0427
▁久久	-12.0427
▁久之	-12.0427
▁久仰	-12.0427
▁久仰大名	-12.0427
▁久假不歸	-12.0427
▁久別	-12.0427
▁久別重逢	-12.0427
▁久唔久	-12.0427
▁久已	-12.0427
▁久慕	-12.0427
▁久慕盛名	-12.0427
▁久攻不下	-12.0427
▁久曠	-12.0427
▁久治	-12.0427
▁久治縣	-12.0427
▁久留	-12.0427
▁久病	-12.0427
▁久病成良醫	-12.0427
▁久病成醫	-12.0427
▁久病牀前無孝子	-12.0427
▁久等	-12.0427
▁久經考驗	-12.0427
▁久而久之	-12.0427
▁久聞大名	-12.0427
▁久負盛名	-12.0427
▁久違	-12.0427
▁久遠	-12.0427
▁久長	-12.0427
▁久闊	-12.0427
▁久陪	-12.0427
▁乆	-12.0427
▁乇	-12.0427
▁乊	-12.0427
▁之	-12.0427
▁之一	-12.0427
▁之上	-12.0427
▁之下	-12.0427
▁之不過	-12.0427
▁之中	-12.0427
▁之乎者也	-12.0427
▁之先	-12.0427
▁之內	-12.0427
▁之列	-12.0427
▁之初	-12.0427
▁之前	-12.0427
▁之嘛	-12.0427
▁之外	-12.0427
▁之多	-12.0427
▁之字形	-12.0427
▁之字線	-12.0427
▁之後	-12.0427
▁之所以	-12.0427
▁之故	-12.0427
▁之至	-12.0427
▁之間	-12.0427
▁之際	-12.0427
▁之類	-12.0427
▁之餘	-12.0427
▁乍	-12.0427
▁乍到	-12.0427
▁乍得	-12.0427
▁乍得湖	-12.0427
▁乍暖還寒	-12.0427
▁乍浦	-12.0427
▁乍浦鎮	-12.0427
▁乍看	-12.0427
▁乍看之下	-12.0427
▁乍聽之下	-12.0427
▁乍雨乍晴	-12.0427
▁乍青乍白	-12.0427
▁乎	-12.0427
▁乏	-12.0427
▁乏人問津	-12.0427
▁乏人照顧	-12.0427
▁乏力	-12.0427
▁乏味	-12.0427
▁乏善	-12.0427
▁乏善可陳	-12.0427
▁乏善足陳	-12.0427
▁乏燃料	-12.0427
▁乏燃料棒	-12.0427
▁乑	-12.0427
▁乒	-12.0427
▁乒乒乓乓	-12.0427
▁乒乒嘭嘭	-12.0427
▁乒乓	-12.0427
▁乒乓波	-12.0427
▁乒乓波板	-12.0427
▁乒乓波檯	-12.0427
▁乒乓球	-12.0427
▁乒乓球拍	-12.0427
▁乒乓球檯	-12.0427
▁乒嘭	-12.0427
▁乒鈴嘭唥	-12.0427
▁乒鈴𠾴唥	-12.0427
▁乓	-12.0427
▁乓乓聲	-12.0427
▁乕	-12.0427
▁乖	-12.0427
▁乖乖	-12.0427
▁乖乖仔	-12.0427
▁乖乖仔仔	-12.0427
▁乖乖地	-12.0427
▁乖乖女	-12.0427
▁乖仔	-12.0427
▁乖僻	-12.0427
▁乖女	-12.0427
▁乖孫	-12.0427
▁乖巧	-12.0427
▁乖張	-12.0427
▁乖忤	-12.0427
▁乖戾	-12.0427
▁乖舛	-12.0427
▁乖覺	-12.0427
▁乖謬	-12.0427
▁乖豬	-12.0427
▁乖迕	-12.0427
▁乖離	-12.0427
▁乖順	-12.0427
▁乗	-12.0427
▁乘	-12.0427
▁乘人不備	-12.0427
▁乘人之危	-12.0427
▁乘便	-12.0427
▁乘其不備	-12.0427
▁乘冪	-12.0427
▁乘務	-12.0427
▁乘務員	-12.0427
▁乘勝	-12.0427
▁乘勝追擊	-12.0427
▁乘勢	-12.0427
▁乘坐	-12.0427
▁乘堅策肥	-12.0427
▁乘客	-12.0427
▁乘搭	-12.0427
▁乘數	-12.0427
▁乘數表	-12.0427
▁乘方	-12.0427
▁乘機	-12.0427
▁乘機搏懵	-12.0427
▁乘法	-12.0427
▁乘法表	-12.0427
▁乘法逆	-12.0427
▁乘涼	-12.0427
▁乘火打劫	-12.0427
▁乘用車	-12.0427
▁乘積	-12.0427
▁乘空	-12.0427
▁乘興	-12.0427
▁乘興而來	-12.0427
▁乘興而往敗興而歸	-12.0427
▁乘船	-12.0427
▁乘虛	-12.0427
▁乘虛而入	-12.0427
▁乘號	-12.0427
▁乘警	-12.0427
▁乘車	-12.0427
▁乘除	-12.0427
▁乘隙	-12.0427
▁乘風	-12.0427
▁乘風破浪	-12.0427
▁乘鶴	-12.0427
▁乘龍	-12.0427
▁乘龍快婿	-12.0427
▁乙	-12.0427
▁乙丑	-12.0427
▁乙二醇	-12.0427
▁乙亥	-12.0427
▁乙卯	-12.0427
▁乙型	-12.0427
▁乙型肝炎	-12.0427
▁乙型腦炎	-12.0427
▁乙基	-12.0427
▁乙太	-12.0427
▁乙巳	-12.0427
▁乙方	-12.0427
▁乙未	-12.0427
▁乙氧基	-12.0427
▁乙氨基	-12.0427
▁乙炔	-12.0427
▁乙烯	-12.0427
▁乙烯基	-12.0427
▁乙烷	-12.0427
▁乙狀結腸	-12.0427
▁乙種	-12.0427
▁乙種促效劑	-12.0427
▁乙種射線	-12.0427
▁乙種粒子	-12.0427
▁乙肝	-12.0427
▁乙腦	-12.0427
▁乙部	-12.0427
▁乙酉	-12.0427
▁乙酰	-12.0427
▁乙酰胺吡咯烷酮	-12.0427
▁乙酰膽鹼	-12.0427
▁乙酸	-12.0427
▁乙酸基	-12.0427
▁乙酸根	-12.0427
▁乙酸鹽	-12.0427
▁乙醇	-12.0427
▁乙醇酸	-12.0427
▁乙醚	-12.0427
▁乙醛	-12.0427
▁乚	-12.0427
▁乛	-12.0427
▁乜	-12.0427
▁乜乜	-12.0427
▁乜乜七七	-12.0427
▁乜乜乜	-12.0427
▁乜乜柒柒	-12.0427
▁乜乜物物	-12.0427
▁乜事	-12.0427
▁乜人	-12.0427
▁乜傢伙	-12.0427
▁乜公司	-12.0427
▁乜嘢	-12.0427
▁乜因由	-12.0427
▁乜搞	-12.0427
▁乜料	-12.0427
▁乜料呀	-12.0427
▁乜春	-12.0427
▁乜時候	-12.0427
▁乜東東	-12.0427
▁乜東東芫茜蔥	-12.0427
▁乜柒	-12.0427
▁乜歌	-12.0427
▁乜水	-12.0427
▁乜滯	-12.0427
▁乜濟	-12.0427
▁乜花款	-12.0427
▁乜菜	-12.0427
▁乜解究	-12.0427
▁乜話	-12.0427
▁乜說話	-12.0427
▁乜誰	-12.0427
▁乜醬物醬	-12.0427
▁乜野	-12.0427
▁乜頭乜路	-12.0427
▁乜鬼	-12.0427
▁乜鬼嘢	-12.0427
▁九	-12.0427
▁九一八事變	-12.0427
▁九七	-12.0427
▁九七年	-12.0427
▁九三學社	-12.0427
▁九九乘法	-12.0427
▁九九乘法表	-12.0427
▁九九九	-12.0427
▁九九機	-12.0427
▁九九歸一	-12.0427
▁九九登高	-12.0427
▁九九表	-12.0427
▁九九重陽	-12.0427
▁九九金	-12.0427
▁九二年	-12.0427
▁九五	-12.0427
▁九五年	-12.0427
▁九代單傳	-12.0427
▁九份	-12.0427
▁九個字	-12.0427
▁九八年	-12.0427
▁九六年	-12.0427
▁九出十三歸	-12.0427
▁九分之一	-12.0427
▁九十	-12.0427
▁九十九	-12.0427
▁九十五	-12.0427
▁九十年代	-12.0427
▁九十幾	-12.0427
▁九千	-12.0427
▁九卿	-12.0427
▁九原區	-12.0427
▁九反之地	-12.0427
▁九反地	-12.0427
▁九命怪貓	-12.0427
▁九品	-12.0427
▁九唔搭八	-12.0427
▁九因歌	-12.0427
▁九大簋	-12.0427
▁九天	-12.0427
▁九天攬月	-12.0427
▁九天玄女	-12.0427
▁九如	-12.0427
▁九如鄉	-12.0427
▁九子連環	-12.0427
▁九孔	-12.0427
▁九孔螺	-12.0427
▁九官鳥	-12.0427
▁九宮	-12.0427
▁九宮山	-12.0427
▁九宮山鎮	-12.0427
▁九宮格	-12.0427
▁九宮格數獨	-12.0427
▁九寨溝	-12.0427
▁九寨溝縣	-12.0427
▁九寨溝風景名勝區	-12.0427
▁九尾狐	-12.0427
▁九尾龜	-12.0427
▁九層塔	-12.0427
▁九嶷山	-12.0427
▁九州	-12.0427
▁九巴	-12.0427
▁九年級	-12.0427
▁九廣西鐵	-12.0427
▁九廣鐵路	-12.0427
▁九廣鐵路公司	-12.0427
▁九廿幾	-12.0427
▁九彩	-12.0427
▁九成	-12.0427
▁九成九	-12.0427
▁九折	-12.0427
▁九支孖碌	-12.0427
▁九方輸入法	-12.0427
▁九族	-12.0427
▁九日	-12.0427
▁九旬老人	-12.0427
▁九曲十三彎	-12.0427
▁九月	-12.0427
▁九月份	-12.0427
▁九校聯盟	-12.0427
▁九條街	-12.0427
▁九歸	-12.0427
▁九死一生	-12.0427
▁九江	-12.0427
▁九江地區	-12.0427
▁九江市	-12.0427
▁九江煎堆	-12.0427
▁九江縣	-12.0427
▁九泉	-12.0427
▁九泉之下	-12.0427
▁九流	-12.0427
▁九流十家	-12.0427
▁九淵	-12.0427
▁九淺一深	-12.0427
▁九牛一毛	-12.0427
▁九牛二虎之力	-12.0427
▁九竅	-12.0427
▁九章算術	-12.0427
▁九聲六調	-12.0427
▁九肚魚	-12.0427
▁九臺	-12.0427
▁九臺區	-12.0427
▁九華山	-12.0427
▁九號	-12.0427
▁九號球	-12.0427
▁九邊形	-12.0427
▁九里	-12.0427
▁九里區	-12.0427
▁九重霄	-12.0427
▁九針羣島	-12.0427
▁九鐵	-12.0427
▁九零	-12.0427
▁九零後	-12.0427
▁九霄雲外	-12.0427
▁九面體	-12.0427
▁九頭鳥	-12.0427
▁九點	-12.0427
▁九點十	-12.0427
▁九點半	-12.0427
▁九點幾	-12.0427
▁九點鐘	-12.0427
▁九鼎	-12.0427
▁九齒釘耙	-12.0427
▁九龍	-12.0427
▁九龍公園	-12.0427
▁九龍坡	-12.0427
▁九龍坡區	-12.0427
▁九龍城	-12.0427
▁九龍城區	-12.0427
▁九龍城寨	-12.0427
▁九龍城寨公園	-12.0427
▁九龍城砦	-12.0427
▁九龍塘	-12.0427
▁九龍寨城	-12.0427
▁九龍山	-12.0427
▁九龍巴士	-12.0427
▁九龍水塘	-12.0427
▁九龍清真寺	-12.0427
▁九龍灣	-12.0427
▁九龍砦城	-12.0427
▁九龍縣	-12.0427
▁九龍醫院	-12.0427
▁乞	-12.0427
▁乞丐	-12.0427
▁乞人	-12.0427
▁乞人憎	-12.0427
▁乞伏	-12.0427
▁乞休	-12.0427
▁乞兒	-12.0427
▁乞兒仔	-12.0427
▁乞兒兜度揦飯食	-12.0427
▁乞兒兜度搶飯食	-12.0427
▁乞兒公	-12.0427
▁乞兒相	-12.0427
▁乞兒雞	-12.0427
▁乞力馬扎羅山	-12.0427
▁乞和	-12.0427
▁乞哀告憐	-12.0427
▁乞嗤	-12.0427
▁乞嚏	-12.0427
▁乞恕	-12.0427
▁乞憐	-12.0427
▁乞求	-12.0427
▁乞米	-12.0427
▁乞衣	-12.0427
▁乞衣雞	-12.0427
▁乞討	-12.0427
▁乞貸	-12.0427
▁乞超	-12.0427
▁乞降	-12.0427
▁乞靈	-12.0427
▁乞食	-12.0427
▁也	-12.0427
▁也不	-12.0427
▁也不例外	-12.0427
▁也也烏	-12.0427
▁也好不了多少	-12.0427
▁也好不到哪裏去	-12.0427
▁也就是	-12.0427
▁也就是說	-12.0427
▁也文也武	-12.0427
▁也是	-12.0427
▁也是人	-12.0427
▁也有今天	-12.0427
▁也知道	-12.0427
▁也算是	-12.0427
▁也罷	-12.0427
▁也與	-12.0427
▁也許	-12.0427
▁也門	-12.0427
▁乢	-12.0427
▁乣	-12.0427
▁乤	-12.0427
▁乥	-12.0427
▁乧	-12.0427
▁乨	-12.0427
▁乩	-12.0427
▁乩手	-12.0427
▁乩童	-12.0427
▁乪	-12.0427
▁乫	-12.0427
▁乬	-12.0427
▁乭	-12.0427
▁乮	-12.0427
▁乯	-12.0427
▁乲	-12.0427
▁乳	-12.0427
▁乳交	-12.0427
▁乳劑	-12.0427
▁乳化	-12.0427
▁乳化劑	-12.0427
▁乳名	-12.0427
▁乳尖	-12.0427
▁乳山	-12.0427
▁乳山市	-12.0427
▁乳房	-12.0427
▁乳房攝影	-12.0427
▁乳暈	-12.0427
▁乳母	-12.0427
▁乳汁	-12.0427
▁乳液	-12.0427
▁乳清	-12.0427
▁乳源瑤族自治縣	-12.0427
▁乳源縣	-12.0427
▁乳溝	-12.0427
▁乳漿	-12.0427
▁乳牙	-12.0427
▁乳牛	-12.0427
▁乳癌	-12.0427
▁乳白	-12.0427
▁乳白天空	-12.0427
▁乳白色	-12.0427
▁乳突	-12.0427
▁乳突竇	-12.0427
▁乳糖	-12.0427
▁乳糖不耐症	-12.0427
▁乳糖消化不良	-12.0427
▁乳糜瀉	-12.0427
▁乳罩	-12.0427
▁乳脂	-12.0427
▁乳腐	-12.0427
▁乳腺	-12.0427
▁乳腺炎	-12.0427
▁乳腺癌	-12.0427
▁乳膠	-12.0427
▁乳膠漆	-12.0427
▁乳臭	-12.0427
▁乳臭未乾	-12.0427
▁乳草	-12.0427
▁乳製品	-12.0427
▁乳豬	-12.0427
▁乳豬紙	-12.0427
▁乳貼	-12.0427
▁乳部	-12.0427
▁乳酪	-12.0427
▁乳酪蛋糕	-12.0427
▁乳酸	-12.0427
▁乳酸菌	-12.0427
▁乳頭	-12.0427
▁乳頭瘤	-12.0427
▁乳餅	-12.0427
▁乳香	-12.0427
▁乳鴿	-12.0427
▁乳齒	-12.0427
▁乳齒象	-12.0427
▁乴	-12.0427
▁乵	-12.0427
▁乶	-12.0427
▁乶下	-12.0427
▁乷	-12.0427
▁乸	-12.0427
▁乸乸地	-12.0427
▁乸口乸面	-12.0427
▁乸型	-12.0427
▁乸形	-12.0427
▁乸聲乸氣	-12.0427
▁乸脷	-12.0427
▁乸西	-12.0427
▁乹	-12.0427
▁乺	-12.0427
▁乻	-12.0427
▁乼	-12.0427
▁乽	-12.0427
▁乾	-12.0427
▁乾乾淨淨	-12.0427
▁乾俸	-12.0427
▁乾兒	-12.0427
▁乾兒子	-12.0427
▁乾冰	-12.0427
▁乾凈	-12.0427
▁乾凍	-12.0427
▁乾包	-12.0427
▁乾咳	-12.0427
▁乾哽	-12.0427
▁乾啃	-12.0427
▁乾嗽	-12.0427
▁乾嘉三大家	-12.0427
▁乾嘔	-12.0427
▁乾噌噌	-12.0427
▁乾噦	-12.0427
▁乾嚎	-12.0427
▁乾坤	-12.0427
▁乾塘	-12.0427
▁乾女兒	-12.0427
▁乾娘	-12.0427
▁乾媽	-12.0427
▁乾安	-12.0427
▁乾安縣	-12.0427
▁乾屍	-12.0427
▁乾工	-12.0427
▁乾巴	-12.0427
▁乾巴巴	-12.0427
▁乾手機	-12.0427
▁乾手淨腳	-12.0427
▁乾打壘	-12.0427
▁乾旱	-12.0427
▁乾旱土	-12.0427
▁乾時緊月	-12.0427
▁乾曬塘	-12.0427
▁乾杯	-12.0427
▁乾果	-12.0427
▁乾枯	-12.0427
▁乾柴	-12.0427
▁乾柴烈火	-12.0427
▁乾梅子	-12.0427
▁乾水	-12.0427
▁乾洗	-12.0427
▁乾洗店	-12.0427
▁乾涸	-12.0427
▁乾淨	-12.0427
▁乾淨企理	-12.0427
▁乾淨俐落	-12.0427
▁乾淨利落	-12.0427
▁乾渴	-12.0427
▁乾溼褸	-12.0427
▁乾漮	-12.0427
▁乾潮	-12.0427
▁乾澀	-12.0427
▁乾濕褸	-12.0427
▁乾炒	-12.0427
▁乾炒牛河	-12.0427
▁乾煎	-12.0427
▁乾煸	-12.0427
▁乾煸四季豆	-12.0427
▁乾煸土豆絲	-12.0427
▁乾熱	-12.0427
▁乾燒伊麪	-12.0427
▁乾燥	-12.0427
▁乾燥劑	-12.0427
▁乾燥機	-12.0427
▁乾爭爭	-12.0427
▁乾爹	-12.0427
▁乾爽	-12.0427
▁乾瑤柱	-12.0427
▁乾瘦	-12.0427
▁乾癟	-12.0427
▁乾癟癟	-12.0427
▁乾癬	-12.0427
▁乾眼症	-12.0427
▁乾着急	-12.0427
▁乾瞪眼	-12.0427
▁乾笑	-12.0427
▁乾等	-12.0427
▁乾粉	-12.0427
▁乾糧	-12.0427
▁乾糧袋	-12.0427
▁乾縣	-12.0427
▁乾繃繃	-12.0427
▁乾脆	-12.0427
▁乾脆利索	-12.0427
▁乾脆利落	-12.0427
▁乾花	-12.0427
▁乾草	-12.0427
▁乾草叉	-12.0427
▁乾草堆	-12.0427
▁乾草機	-12.0427
▁乾菜	-12.0427
▁乾萌萌	-12.0427
▁乾蒸	-12.0427
▁乾蒸牛肉	-12.0427
▁乾蔥	-12.0427
▁乾薑	-12.0427
▁乾號	-12.0427
▁乾衣	-12.0427
▁乾衣機	-12.0427
▁乾裂	-12.0427
▁乾貝	-12.0427
▁乾貨	-12.0427
▁乾躁	-12.0427
▁乾透	-12.0427
▁乾酪	-12.0427
▁乾酪素	-12.0427
▁乾陵	-12.0427
▁乾隆	-12.0427
▁乾電	-12.0427
▁乾電池	-12.0427
▁乾飯	-12.0427
▁乾餾	-12.0427
▁乾骾	-12.0427
▁乾骾骾	-12.0427
▁乾鮑	-12.0427
▁乾鯁	-12.0427
▁乾鯁鯁	-12.0427
▁乿	-12.0427
▁亀	-12.0427
▁亁	-12.0427
▁亂	-12.0427
▁亂七八糟	-12.0427
▁亂世	-12.0427
▁亂世佳人	-12.0427
▁亂世用重典	-12.0427
▁亂估	-12.0427
▁亂作	-12.0427
▁亂作一團	-12.0427
▁亂作決定	-12.0427
▁亂來	-12.0427
▁亂倫	-12.0427
▁亂入	-12.0427
▁亂動	-12.0427
▁亂叫	-12.0427
▁亂咁	-12.0427
▁亂咁舂	-12.0427
▁亂咕攘	-12.0427
▁亂哄哄	-12.0427
▁亂喫	-12.0427
▁亂噏	-12.0427
▁亂噏嘢	-12.0427
▁亂噏廿四	-12.0427
▁亂嚟	-12.0427
▁亂套	-12.0427
▁亂子	-12.0427
▁亂寫	-12.0427
▁亂序	-12.0427
▁亂彈琴	-12.0427
▁亂成一團	-12.0427
▁亂打	-12.0427
▁亂打亂撞	-12.0427
▁亂扔	-12.0427
▁亂扔垃圾	-12.0427
▁亂扠	-12.0427
▁亂抄	-12.0427
▁亂抓	-12.0427
▁亂指廿四	-12.0427
▁亂掉	-12.0427
▁亂揈	-12.0427
▁亂揈錢	-12.0427
▁亂搞	-12.0427
▁亂撞	-12.0427
▁亂撞一通	-12.0427
▁亂政	-12.0427
▁亂曬	-12.0427
▁亂曬坑	-12.0427
▁亂曬大籠	-12.0427
▁亂曬大龍	-12.0427
▁亂曬籠	-12.0427
▁亂曬龍	-12.0427
▁亂棍打死老師傅	-12.0427
▁亂民	-12.0427
▁亂流	-12.0427
▁亂爬	-12.0427
▁亂用	-12.0427
▁亂畫	-12.0427
▁亂真	-12.0427
▁亂石	-12.0427
▁亂石砸死	-12.0427
▁亂碼	-12.0427
▁亂穿馬路	-12.0427
▁亂竄	-12.0427
▁亂立立	-12.0427
▁亂章	-12.0427
▁亂籠	-12.0427
▁亂糟糟	-12.0427
▁亂紀	-12.0427
▁亂臣	-12.0427
▁亂臣賊子	-12.0427
▁亂花	-12.0427
▁亂花錢	-12.0427
▁亂葬崗	-12.0427
▁亂蓬蓬	-12.0427
▁亂說	-12.0427
▁亂諗	-12.0427
▁亂諗嘢	-12.0427
▁亂講	-12.0427
▁亂講嘢	-12.0427
▁亂講無爲	-12.0427
▁亂象	-12.0427
▁亂趯	-12.0427
▁亂跑	-12.0427
▁亂跳	-12.0427
▁亂車	-12.0427
▁亂車亂詆	-12.0427
▁亂車廿四	-12.0427
▁亂軍	-12.0427
▁亂逛	-12.0427
▁亂過亂世佳人	-12.0427
▁亂過亂葬崗	-12.0427
▁亂道	-12.0427
▁亂闖	-12.0427
▁亂離	-12.0427
▁亂食嘢	-12.0427
▁亂髮	-12.0427
▁亂麻	-12.0427
▁亂黨	-12.0427
▁亂龍	-12.0427
▁亃	-12.0427
▁亄	-12.0427
▁亅	-12.0427
▁了	-12.0427
▁了不得	-12.0427
▁了不起	-12.0427
▁了了	-12.0427
▁了事	-12.0427
▁了債	-12.0427
▁了卻	-12.0427
▁了卻此生	-12.0427
▁了去了	-12.0427
▁了吧	-12.0427
▁了哥	-12.0427
▁了局	-12.0427
▁了得	-12.0427
▁了斷	-12.0427
▁了沒	-12.0427
▁了番出嚟	-12.0427
▁了當	-12.0427
▁了的話	-12.0427
▁了結	-12.0427
▁了麼	-12.0427
▁了鼻屎	-12.0427
▁亇	-12.0427
▁予	-12.0427
▁予人口實	-12.0427
▁予以	-12.0427
▁予以照顧	-12.0427
▁予取予求	-12.0427
▁亊	-12.0427
▁事	-12.0427
▁事不宜遲	-12.0427
▁事不關己	-12.0427
▁事不關己,己不勞心	-12.0427
▁事不關己,高高掛起	-12.0427
▁事主	-12.0427
▁事九但但	-12.0427
▁事九旦旦	-12.0427
▁事乾	-12.0427
▁事事	-12.0427
▁事件	-12.0427
▁事件相關電位	-12.0427
▁事但	-12.0427
▁事例	-12.0427
▁事倍功半	-12.0427
▁事假	-12.0427
▁事先	-12.0427
▁事先通知	-12.0427
▁事兒	-12.0427
▁事典	-12.0427
▁事出有因	-12.0427
▁事到今日	-12.0427
▁事到如今	-12.0427
▁事到臨頭	-12.0427
▁事前	-12.0427
▁事務	-12.0427
▁事務律師	-12.0427
▁事務所	-12.0427
▁事務所律師	-12.0427
▁事務繁忙	-12.0427
▁事勢	-12.0427
▁事半功倍	-12.0427
▁事危累卵	-12.0427
▁事在人爲	-12.0427
▁事在必行	-12.0427
▁事奉	-12.0427
▁事宜	-12.0427
▁事實	-12.0427
▁事實上	-12.0427
▁事實勝於雄辯	-12.0427
▁事實婚	-12.0427
▁事實擺在眼前	-12.0427
▁事實求是	-12.0427
▁事已如此	-12.0427
▁事幹	-12.0427
▁事後	-12.0427
▁事後丸	-12.0427
▁事後孔明	-12.0427
▁事後聰明	-12.0427
▁事後諸葛亮	-12.0427
▁事必	-12.0427
▁事必有兆	-12.0427
▁事必躬親	-12.0427
▁事怕行家	-12.0427
▁事急馬行田	-12.0427
▁事情	-12.0427
▁事情多羅羅	-12.0427
▁事情要做	-12.0427
▁事態	-12.0427
▁事態發展	-12.0427
▁事成	-12.0427
▁事故	-12.0427
▁事故照射	-12.0427
▁事旦	-12.0427
▁事業	-12.0427
▁事業心	-12.0427
▁事業有成	-12.0427
▁事業線	-12.0427
▁事機	-12.0427
▁事權	-12.0427
▁事求是	-12.0427
▁事無大小	-12.0427
▁事無巨細	-12.0427
▁事物	-12.0427
▁事理	-12.0427
▁事由	-12.0427
▁事界	-12.0427
▁事略	-12.0427
▁事發	-12.0427
▁事發地點	-12.0427
▁事發時	-12.0427
▁事端	-12.0427
▁事緊馬行田	-12.0427
▁事緣	-12.0427
▁事與願違	-12.0427
▁事證	-12.0427
▁事變	-12.0427
▁事跡	-12.0427
▁事蹟	-12.0427
▁事過境遷	-12.0427
▁事關	-12.0427
▁事隔	-12.0427
▁事隔多年	-12.0427
▁事項	-12.0427
▁事頭	-12.0427
▁事頭婆	-12.0427
▁事體	-12.0427
▁二	-12.0427
▁二一添作五	-12.0427
▁二丁醚	-12.0427
▁二七區	-12.0427
▁二世	-12.0427
▁二世祖	-12.0427
▁二五仔	-12.0427
▁二五萬五	-12.0427
▁二人三足	-12.0427
▁二人世界	-12.0427
▁二人臺	-12.0427
▁二人轉	-12.0427
▁二仔底	-12.0427
▁二代	-12.0427
▁二伏	-12.0427
▁二來	-12.0427
▁二便	-12.0427
▁二倍體	-12.0427
▁二偈	-12.0427
▁二側	-12.0427
▁二傳手	-12.0427
▁二價	-12.0427
▁二元	-12.0427
▁二元論	-12.0427
▁二元醇	-12.0427
▁二八	-12.0427
▁二八佳人	-12.0427
▁二八天	-12.0427
▁二六四零零	-12.0427
▁二分	-12.0427
▁二分一	-12.0427
▁二分之一	-12.0427
▁二分四	-12.0427
▁二分裂	-12.0427
▁二分音符	-12.0427
▁二分點	-12.0427
▁二刻拍案驚奇	-12.0427
▁二副	-12.0427
▁二十	-12.0427
▁二十一	-12.0427
▁二十一世紀	-12.0427
▁二十一日	-12.0427
▁二十一條	-12.0427
▁二十一點	-12.0427
▁二十七日	-12.0427
▁二十三日	-12.0427
▁二十世紀	-12.0427
▁二十九日	-12.0427
▁二十九萬	-12.0427
▁二十二	-12.0427
▁二十二日	-12.0427
▁二十五史	-12.0427
▁二十五日	-12.0427
▁二十八宿	-12.0427
▁二十八日	-12.0427
▁二十八號	-12.0427
▁二十六日	-12.0427
▁二十六歲	-12.0427
▁二十四	-12.0427
▁二十四史	-12.0427
▁二十四孝	-12.0427
▁二十四日	-12.0427
▁二十四節氣	-12.0427
▁二十四號	-12.0427
▁二十多	-12.0427
▁二十年目睹之怪現狀	-12.0427
▁二十日	-12.0427
▁二十蚊	-12.0427
▁二十面體	-12.0427
▁二千	-12.0427
▁二千三	-12.0427
▁二千九	-12.0427
▁二千九百	-12.0427
▁二千二	-12.0427
▁二千四	-12.0427
▁二叉樹	-12.0427
▁二叔	-12.0427
▁二叔公	-12.0427
▁二叔婆	-12.0427
▁二合一	-12.0427
▁二名法	-12.0427
▁二哥	-12.0427
▁二噁英	-12.0427
▁二地主	-12.0427
▁二奶	-12.0427
▁二奶仔	-12.0427
▁二奶命	-12.0427
▁二奶專家	-12.0427
▁二婚	-12.0427
▁二婚頭	-12.0427
▁二孃	-12.0427
▁二孩	-12.0427
▁二寶	-12.0427
▁二少	-12.0427
▁二尕子	-12.0427
▁二尖瓣	-12.0427
▁二尖瓣狹窄	-12.0427
▁二屄	-12.0427
▁二崙	-12.0427
▁二崙鄉	-12.0427
▁二年生	-12.0427
▁二年級	-12.0427
▁二度	-12.0427
▁二廠	-12.0427
▁二心	-12.0427
▁二惡英	-12.0427
▁二愣子	-12.0427
▁二戰	-12.0427
▁二房	-12.0427
▁二房東	-12.0427
▁二手	-12.0427
▁二手市場	-12.0427
▁二手房	-12.0427
▁二手攤	-12.0427
▁二手菸	-12.0427
▁二手貨	-12.0427
▁二手車	-12.0427
▁二手飯	-12.0427
▁二打六	-12.0427
▁二把刀	-12.0427
▁二把手	-12.0427
▁二撇雞	-12.0427
▁二撈七都	-12.0427
▁二攤	-12.0427
▁二攤貨	-12.0427
▁二斑百靈	-12.0427
▁二日	-12.0427
▁二更	-12.0427
▁二月	-12.0427
▁二月份	-12.0427
▁二林	-12.0427
▁二林鎮	-12.0427
▁二桿子	-12.0427
▁二極管	-12.0427
▁二次	-12.0427
▁二次世界大戰	-12.0427
▁二次函數	-12.0427
▁二次型	-12.0427
▁二次多項式	-12.0427
▁二次大戰	-12.0427
▁二次方	-12.0427
▁二次方程	-12.0427
▁二次曲	-12.0427
▁二次曲線	-12.0427
▁二次曲面	-12.0427
▁二次革命	-12.0427
▁二正丙醚	-12.0427
▁二毛子	-12.0427
▁二毫	-12.0427
▁二氧化氮	-12.0427
▁二氧化炭	-12.0427
▁二氧化物	-12.0427
▁二氧化硅	-12.0427
▁二氧化硫	-12.0427
▁二氧化碳	-12.0427
▁二氧化碳隔離	-12.0427
▁二氧化鈦	-12.0427
▁二氧化鈾	-12.0427
▁二氧化錳	-12.0427
▁二氧芑	-12.0427
▁二氧雜芑	-12.0427
▁二氯乙烷中毒	-12.0427
▁二氯甲烷	-12.0427
▁二氯異三聚氰酸鈉	-12.0427
▁二氯胺	-12.0427
▁二氯苯胺苯乙酸鈉	-12.0427
▁二水	-12.0427
▁二水貨	-12.0427
▁二水鄉	-12.0427
▁二沙島	-12.0427
▁二流	-12.0427
▁二流子	-12.0427
▁二獎	-12.0427
▁二甘醇	-12.0427
▁二產婦	-12.0427
▁二甲	-12.0427
▁二甲基砷酸	-12.0427
▁二甲基胂酸	-12.0427
▁二甲苯	-12.0427
▁二甲醚	-12.0427
▁二疊紀	-12.0427
▁二百	-12.0427
▁二百一十六	-12.0427
▁二百五	-12.0427
▁二百幾	-12.0427
▁二百方針	-12.0427
▁二皇帝	-12.0427
▁二硫化碳	-12.0427
▁二硫基丙磺酸鈉	-12.0427
▁二硫基丙醇	-12.0427
▁二硫基琥珀酸鈉	-12.0427
▁二磷酸腺苷	-12.0427
▁二等	-12.0427
▁二等兵	-12.0427
▁二等艙	-12.0427
▁二等車	-12.0427
▁二節棍	-12.0427
▁二簡	-12.0427
▁二簧	-12.0427
▁二糖	-12.0427
▁二級	-12.0427
▁二級士官	-12.0427
▁二級頭	-12.0427
▁二級頭呼吸器	-12.0427
▁二維	-12.0427
▁二維碼	-12.0427
▁二老	-12.0427
▁二者	-12.0427
▁二者不可兼得	-12.0427
▁二者之一	-12.0427
▁二聲	-12.0427
▁二胎	-12.0427
▁二胡	-12.0427
▁二花面	-12.0427
▁二花面頸	-12.0427
▁二苯氯胂	-12.0427
▁二茬罪	-12.0427
▁二萬	-12.0427
▁二萬五一	-12.0427
▁二號	-12.0427
▁二號人物	-12.0427
▁二號電池	-12.0427
▁二話	-12.0427
▁二話不說	-12.0427
▁二讀	-12.0427
▁二路元帥	-12.0427
▁二跳四	-12.0427
▁二輪	-12.0427
▁二迭紀	-12.0427
▁二連	-12.0427
▁二連巨盜龍	-12.0427
▁二連浩特	-12.0427
▁二連浩特市	-12.0427
▁二連盆地	-12.0427
▁二進	-12.0427
▁二進位	-12.0427
▁二進位制	-12.0427
▁二進制	-12.0427
▁二進制碼	-12.0427
▁二進制編碼	-12.0427
▁二進宮	-12.0427
▁二逼	-12.0427
▁二遍苦	-12.0427
▁二道	-12.0427
▁二道區	-12.0427
▁二道江	-12.0427
▁二道江區	-12.0427
▁二道販子	-12.0427
▁二郎	-12.0427
▁二郎神	-12.0427
▁二郎腿	-12.0427
▁二部制	-12.0427
▁二部曲	-12.0427
▁二醇	-12.0427
▁二里頭	-12.0427
▁二重	-12.0427
▁二重下標	-12.0427
▁二重唱	-12.0427
▁二重奏	-12.0427
▁二重性	-12.0427
▁二重根	-12.0427
▁二重母音	-12.0427
▁二鍋頭	-12.0427
▁二阿姨	-12.0427
▁二階	-12.0427
▁二項式	-12.0427
▁二頭肌	-12.0427
▁二鬼子	-12.0427
▁二黃	-12.0427
▁二點鐘	-12.0427
▁二黨制	-12.0427
▁亍	-12.0427
▁于丹	-12.0427
▁于思	-12.0427
▁亐	-12.0427
▁云云	-12.0427
▁互	-12.0427
▁互不侵犯	-12.0427
▁互不侵犯條約	-12.0427
▁互不干涉內政	-12.0427
▁互不相欠	-12.0427
▁互不相讓	-12.0427
▁互信	-12.0427
▁互利	-12.0427
▁互助	-12.0427
▁互助土族自治縣	-12.0427
▁互助縣	-12.0427
▁互勉	-12.0427
▁互動	-12.0427
▁互動電視	-12.0427
▁互市	-12.0427
▁互惠	-12.0427
▁互惠互利	-12.0427
▁互換	-12.0427
▁互摷	-12.0427
▁互操性	-12.0427
▁互文	-12.0427
▁互斥	-12.0427
▁互爲因果	-12.0427
▁互生	-12.0427
▁互生葉	-12.0427
▁互異	-12.0427
▁互相	-12.0427
▁互相依存	-12.0427
▁互相切磋	-12.0427
▁互相幫助	-12.0427
▁互相扯皮	-12.0427
▁互相推諉	-12.0427
▁互相溝通	-12.0427
▁互相監督	-12.0427
▁互相聯繫	-12.0427
▁互相連接	-12.0427
▁互素	-12.0427
▁互聯	-12.0427
▁互聯網	-12.0427
▁互聯網協議	-12.0427
▁互聯網站	-12.0427
▁互聯網絡	-12.0427
▁互致問候	-12.0427
▁互補	-12.0427
▁互訪	-12.0427
▁互訴衷腸	-12.0427
▁互譯	-12.0427
▁互通	-12.0427
▁互通性	-12.0427
▁互通有無	-12.0427
▁互連	-12.0427
▁亓	-12.0427
▁五	-12.0427
▁五一	-12.0427
▁五一勞動節	-12.0427
▁五七	-12.0427
▁五七一代	-12.0427
▁五七幹校	-12.0427
▁五七幹部學校	-12.0427
▁五世	-12.0427
▁五二三	-12.0427
▁五五	-12.0427
▁五五波	-12.0427
▁五人墓碑記	-12.0427
▁五代	-12.0427
▁五代十國	-12.0427
▁五代史	-12.0427
▁五個字	-12.0427
▁五倍子樹	-12.0427
▁五倫	-12.0427
▁五光十色	-12.0427
▁五內	-12.0427
▁五分之一	-12.0427
▁五分熟	-12.0427
▁五分美金	-12.0427
▁五刑	-12.0427
▁五加	-12.0427
▁五勞七傷	-12.0427
▁五十	-12.0427
▁五十二	-12.0427
▁五十五	-12.0427
▁五十步笑百步	-12.0427
▁五十肩	-12.0427
▁五十蚊	-12.0427
▁五十鈴	-12.0427
▁五千	-12.0427
▁五千幾	-12.0427
▁五卅	-12.0427
▁五卅運動	-12.0427
▁五原	-12.0427
▁五原縣	-12.0427
▁五口通商	-12.0427
▁五味	-12.0427
▁五味俱全	-12.0427
▁五味子	-12.0427
▁五味架	-12.0427
▁五味紛陳	-12.0427
▁五噸半	-12.0427
▁五四	-12.0427
▁五四愛國運動	-12.0427
▁五四運動	-12.0427
▁五大名山	-12.0427
▁五大洲	-12.0427
▁五大湖	-12.0427
▁五大連池	-12.0427
▁五大連池市	-12.0427
▁五姑娘	-12.0427
▁五子棋	-12.0427
▁五官	-12.0427
▁五官端正	-12.0427
▁五家渠	-12.0427
▁五家渠市	-12.0427
▁五寨	-12.0427
▁五寨縣	-12.0427
▁五山	-12.0427
▁五山站	-12.0427
▁五峯	-12.0427
▁五峯土家族自治縣	-12.0427
▁五峯縣	-12.0427
▁五峯鄉	-12.0427
▁五嶺	-12.0427
▁五嶽	-12.0427
▁五帝	-12.0427
▁五常	-12.0427
▁五常市	-12.0427
▁五年	-12.0427
▁五年級	-12.0427
▁五年計劃	-12.0427
▁五幾年	-12.0427
▁五度	-12.0427
▁五形	-12.0427
▁五彩	-12.0427
▁五彩繽紛	-12.0427
▁五彩賓紛	-12.0427
▁五打一	-12.0427
▁五指	-12.0427
▁五指山	-12.0427
▁五指山市	-12.0427
▁五斗櫃	-12.0427
▁五斗米道	-12.0427
▁五方	-12.0427
▁五日	-12.0427
▁五旬節	-12.0427
▁五星	-12.0427
▁五星旗	-12.0427
▁五星紅旗	-12.0427
▁五星級	-12.0427
▁五時果	-12.0427
▁五時花六時變	-12.0427
▁五更	-12.0427
▁五月	-12.0427
▁五月份	-12.0427
▁五月病	-12.0427
▁五月節	-12.0427
▁五月茶	-12.0427
▁五服	-12.0427
▁五枝旗杆	-12.0427
▁五柳料	-12.0427
▁五柳魚	-12.0427
▁五桶櫃	-12.0427
▁五棱鏡	-12.0427
▁五權憲法	-12.0427
▁五步蛇	-12.0427
▁五毛	-12.0427
▁五毛黨	-12.0427
▁五毫	-12.0427
▁五氧化二釩	-12.0427
▁五河	-12.0427
▁五河縣	-12.0427
▁五油三水	-12.0427
▁五洲	-12.0427
▁五涼	-12.0427
▁五湖四海	-12.0427
▁五燈會元	-12.0427
▁五營	-12.0427
▁五營區	-12.0427
▁五爪金龍	-12.0427
▁五環	-12.0427
▁五環會徽	-12.0427
▁五瘟	-12.0427
▁五瘟神	-12.0427
▁五癆七傷	-12.0427
▁五百	-12.0427
▁五百五	-12.0427
▁五百五十八	-12.0427
▁五百年前是一家	-12.0427
▁五短身材	-12.0427
▁五碳糖	-12.0427
▁五祖拳	-12.0427
▁五福	-12.0427
▁五福臨門	-12.0427
▁五穀	-12.0427
▁五穀豐收	-12.0427
▁五穀豐登	-12.0427
▁五穀雜糧	-12.0427
▁五窮六絕	-12.0427
▁五窮六絕七翻身	-12.0427
▁五筆	-12.0427
▁五筆字型	-12.0427
▁五筆字形	-12.0427
▁五筆編碼	-12.0427
▁五筆輸入法	-12.0427
▁五等爵位	-12.0427
▁五筒櫃	-12.0427
▁五糧液	-12.0427
▁五級	-12.0427
▁五級士官	-12.0427
▁五結	-12.0427
▁五結鄉	-12.0427
▁五經	-12.0427
▁五線譜	-12.0427
▁五聲音階	-12.0427
▁五股	-12.0427
▁五股鄉	-12.0427
▁五胡	-12.0427
▁五胡十六國	-12.0427
▁五臟	-12.0427
▁五臟俱全	-12.0427
▁五臟六腑	-12.0427
▁五臺	-12.0427
▁五臺山	-12.0427
▁五臺市	-12.0427
▁五臺縣	-12.0427
▁五色	-12.0427
▁五色繽紛	-12.0427
▁五花八門	-12.0427
▁五花大綁	-12.0427
▁五花肉	-12.0427
▁五花腩	-12.0427
▁五花茶	-12.0427
▁五花醃豬肉	-12.0427
▁五苓散	-12.0427
▁五華	-12.0427
▁五華區	-12.0427
▁五華縣	-12.0427
▁五萬	-12.0427
▁五蓮	-12.0427
▁五蓮縣	-12.0427
▁五蘊	-12.0427
▁五虎將	-12.0427
▁五號	-12.0427
▁五號線	-12.0427
▁五號電池	-12.0427
▁五蛇羹	-12.0427
▁五行	-12.0427
▁五行八作	-12.0427
▁五行欠打	-12.0427
▁五行欠水	-12.0427
▁五行欠炳	-12.0427
▁五行缺水	-12.0427
▁五覺	-12.0427
▁五角	-12.0427
▁五角場	-12.0427
▁五角大樓	-12.0427
▁五角形	-12.0427
▁五角星	-12.0427
▁五言	-12.0427
▁五言律詩	-12.0427
▁五言絕句	-12.0427
▁五言詩	-12.0427
▁五通橋	-12.0427
▁五通橋區	-12.0427
▁五連霸	-12.0427
▁五道口	-12.0427
▁五邊形	-12.0427
▁五邑	-12.0427
▁五金	-12.0427
▁五金店	-12.0427
▁五金店鋪	-12.0427
▁五金舖	-12.0427
▁五金行	-12.0427
▁五金鋪	-12.0427
▁五院	-12.0427
▁五雷轟頂	-12.0427
▁五霸	-12.0427
▁五音	-12.0427
▁五音不全	-12.0427
▁五音度	-12.0427
▁五項全能	-12.0427
▁五顏六色	-12.0427
▁五餅二魚	-12.0427
▁五香	-12.0427
▁五香粉	-12.0427
▁五馬分屍	-12.0427
▁五體投地	-12.0427
▁五鬼	-12.0427
▁五鬼鬧判	-12.0427
▁五黃六月	-12.0427
▁五點	-12.0427
▁五點半	-12.0427
▁五點四	-12.0427
▁五點鐘	-12.0427
▁井	-12.0427
▁井下	-12.0427
▁井井	-12.0427
▁井井有條	-12.0427
▁井口	-12.0427
▁井噴	-12.0427
▁井岡山	-12.0427
▁井岡山市	-12.0427
▁井底之蛙	-12.0427
▁井欄	-12.0427
▁井水	-12.0427
▁井水不犯河水	-12.0427
▁井然	-12.0427
▁井然有序	-12.0427
▁井然有條	-12.0427
▁井田	-12.0427
▁井田制	-12.0427
▁井田制度	-12.0427
▁井研	-12.0427
▁井研縣	-12.0427
▁井號	-12.0427
▁井蛙之見	-12.0427
▁井陘	-12.0427
▁井陘礦	-12.0427
▁井陘礦區	-12.0427
▁井陘縣	-12.0427
▁井鹽	-12.0427
▁亖	-12.0427
▁亗	-12.0427
▁亙	-12.0427
▁亙古	-12.0427
▁亙古不變	-12.0427
▁亙古以來	-12.0427
▁亙古未有	-12.0427
▁亙古通今	-12.0427
▁些	-12.0427
▁些少	-12.0427
▁些年	-12.0427
▁些微	-12.0427
▁些牙	-12.0427
▁些粉	-12.0427
▁些許	-12.0427
▁些釐酒	-12.0427
▁亜	-12.0427
▁亝	-12.0427
▁亞	-12.0427
▁亞head	-12.0427
▁亞sir	-12.0427
▁亞丁	-12.0427
▁亞丁灣	-12.0427
▁亞仔	-12.0427
▁亞伯	-12.0427
▁亞伯拉罕	-12.0427
▁亞伯氏症	-12.0427
▁亞便	-12.0427
▁亞保亞勝	-12.0427
▁亞們	-12.0427
▁亞倫	-12.0427
▁亞健康	-12.0427
▁亞傻	-12.0427
▁亞克力	-12.0427
▁亞公	-12.0427
▁亞利安娜	-12.0427
▁亞利桑納州	-12.0427
▁亞利桑那	-12.0427
▁亞利桑那州	-12.0427
▁亞力山大帝	-12.0427
▁亞加力膠	-12.0427
▁亞努科維奇	-12.0427
▁亞原子	-12.0427
▁亞叔	-12.0427
▁亞吱亞咗	-12.0427
▁亞哈	-12.0427
▁亞哈斯	-12.0427
▁亞哥	-12.0427
▁亞啲	-12.0427
▁亞喀巴	-12.0427
▁亞單位	-12.0427
▁亞塞拜然	-12.0427
▁亞士匹靈	-12.0427
▁亞大	-12.0427
▁亞太	-12.0427
▁亞太區	-12.0427
▁亞太地區	-12.0427
▁亞太經合會	-12.0427
▁亞太經合組織	-12.0427
▁亞太經濟合作組織	-12.0427
▁亞奀	-12.0427
▁亞女	-12.0427
▁亞奶	-12.0427
▁亞妹	-12.0427
▁亞姑	-12.0427
▁亞姨	-12.0427
▁亞婆	-12.0427
▁亞媽	-12.0427
▁亞嫂	-12.0427
▁亞嫲	-12.0427
▁亞嬤	-12.0427
▁亞嬸	-12.0427
▁亞孻	-12.0427
▁亞差	-12.0427
▁亞巴郎	-12.0427
[...]
