<unk>	0
<s>	0
</s>	0
,	-2.72305
▁	-2.82528
。	-3.21177
、	-4.32958
(	-4.52143
年	-4.53126
嘅	-4.67084
)	-4.94745
同	-4.98489
月	-5.01131
係	-5.10682
:	-5.11509
喺	-5.26663
「	-5.29375
號	-5.41856
-	-5.70915
1	-5.74602
」	-5.7461
《	-5.81849
4	-5.94434
有	-5.97981
》	-6.02907
英文	-6.12872
6	-6.17108
3	-6.18459
2	-6.22237
),	-6.2333
;	-6.23367
而	-6.31701
同埋	-6.34794
由	-6.36232
5	-6.45196
10	-6.47128
佢	-6.57559
人	-6.57647
粵拼	-6.67075
到	-6.69131
係法國	-6.72023
就	-6.74178
嘅一個市鎮	-6.75973
7	-6.76479
8	-6.77814
等	-6.8175
12	-6.83238
9	-6.84396
做	-6.86063
以	-6.90649
之後	-6.91919
用	-6.94597
個	-6.9531
—)	-7.00602
11	-7.02436
都	-7.03114
或者	-7.06875
位置喺	-7.10285
會	-7.11081
為	-7.12297
」。	-7.15167
s	-7.15941
響	-7.16937
入面	-7.17386
香港	-7.17423
上	-7.20941
將	-7.21407
)。	-7.21531
中	-7.22172
」,	-7.25045
但	-7.25376
啲	-7.25604
日	-7.28673
所以	-7.295
去	-7.31608
後	-7.32107
大	-7.33361
對	-7.35072
亦	-7.35185
咗	-7.35597
話	-7.36246
?	-7.36599
或	-7.37111
·	-7.37176
▁喺	-7.38241
一	-7.38977
▁《	-7.40911
》(	-7.41293
a	-7.42457
15	-7.44357
噉	-7.4496
","	-7.4512
呢	-7.45642
萬	-7.45792
即係	-7.4904
時	-7.49558
重	-7.5014
可以	-7.51609
一個	-7.51762
包括	-7.52693
度	-7.53086
/	-7.54382
叫	-7.55057
又	-7.55614
因為	-7.56479
.	-7.58467
及	-7.59057
米	-7.60588
要	-7.65663
畀	-7.65991
開始	-7.67794
縣	-7.68929
前	-7.70525
嚟	-7.71277
至	-7.71295
區	-7.7136
中國	-7.71738
例如	-7.71755
20	-7.71884
佢哋	-7.72116
過	-7.72122
就係	-7.7216
都係	-7.72523
下	-7.7455
又叫	-7.75337
嗰陣	-7.75828
啊	-7.77177
好	-7.78694
公元	-7.78999
子	-7.79456
咁	-7.79814
被	-7.79843
之一	-7.81651
但係	-7.82306
▁佢	-7.82382
)、	-7.83556
》、《	-7.83644
好多	-7.85481
ukij	-7.86093
的	-7.86367
點	-7.86878
1582	-7.86987
▁而	-7.8745
儒畧曆	-7.87612
人口	-7.88166
成	-7.8948
新	-7.896
出	-7.89997
冇	-7.90809
水	-7.91075
市	-7.91198
18	-7.91596
山	-7.91837
起	-7.95227
日本足球員	-7.96181
30	-7.96279
之	-7.9709
並	-7.97533
名	-7.97921
16	-7.97987
路	-7.98038
唔	-7.98357
好似	-7.98774
得	-7.98784
頭	-7.99012
令	-8.00083
長	-8.00097
字	-8.00385
第	-8.00394
高	-8.01373
e	-8.01672
三	-8.02545
14	-8.02548
13	-8.02847
行	-8.0325
28	-8.03943
地	-8.04113
b	-8.04403
成為	-8.06209
無	-8.06478
位	-8.07868
—	-8.09042
多	-8.09408
分	-8.09756
21	-8.09817
我	-8.09878
自己	-8.09892
19	-8.10875
俾	-8.11017
來	-8.12272
唔同	-8.12487
公司	-8.13467
跟	-8.14297
係指	-8.15198
17	-8.15436
屬	-8.16007
你	-8.16643
去到	-8.17168
站	-8.17326
從	-8.17839
》,	-8.18046
呢啲	-8.18129
日本	-8.19619
25	-8.19746
政府	-8.19802
仔	-8.19822
d	-8.19973
而且	-8.2025
不過	-8.20617
入	-8.207
24	-8.20835
m	-8.20886
向	-8.20891
呢個	-8.21082
開	-8.21456
道	-8.21638
亦係	-8.21758
地區	-8.2268
而家	-8.2324
指	-8.24041
▁of	-8.24379
於	-8.24801
嘅人	-8.24814
講	-8.25145
當中	-8.25167
c	-8.25398
者	-8.25547
係香港	-8.26337
平方公里	-8.26857
22	-8.26993
都有	-8.2706
以及	-8.27143
學	-8.27325
性	-8.27685
日文	-8.27869
廣州	-8.27957
文	-8.28131
已經	-8.28457
再	-8.29179
26	-8.29821
》。	-8.29966
喇	-8.30158
23	-8.3163
研究	-8.31836
」(	-8.32303
—),	-8.32773
車	-8.32817
其中	-8.33028
之前	-8.33088
等等	-8.3311
住	-8.33132
嗰時	-8.33285
馬	-8.33835
先	-8.34042
一啲	-8.34234
花	-8.35264
一日	-8.35301
生	-8.35469
之間	-8.35796
由於	-8.35912
▁另外	-8.36275
家	-8.37858
讀	-8.37893
美國	-8.37895
電影	-8.38161
主要	-8.3827
27	-8.38391
二	-8.38606
打	-8.38776
四	-8.39218
王	-8.39532
臺灣	-8.39578
k	-8.39864
最後	-8.40378
法	-8.40675
」、「	-8.40979
學名	-8.41073
'	-8.41148
▁由於	-8.41186
所	-8.41878
西	-8.42268
搞	-8.43063
街	-8.43147
年係平年	-8.43251
小	-8.43281
代表	-8.43668
簡稱	-8.44448
和	-8.44715
仲	-8.44721
學校	-8.44984
年代	-8.45037
國	-8.45728
嗰度	-8.45915
歲	-8.46136
t	-8.46228
城	-8.46511
南	-8.46574
線	-8.47392
29	-8.47465
兼	-8.48354
埋	-8.48534
比	-8.48553
條	-8.48692
the	-8.48807
門	-8.49017
係日本	-8.49055
公里	-8.49213
食	-8.49371
內	-8.49452
叫做	-8.49577
出現	-8.49695
亦都	-8.50077
五	-8.50108
其他	-8.50288
因	-8.50288
法文	-8.50486
發展	-8.50587
數	-8.51538
科	-8.51887
期間	-8.51967
2019	-8.52016
德	-8.52227
村	-8.52419
進行	-8.52489
節目	-8.52494
近	-8.52557
間	-8.53354
一樣	-8.538
部	-8.5419
係跟	-8.54214
▁下面	-8.54352
2020	-8.54362
▁呢段	-8.54384
金	-8.54435
東	-8.54953
加	-8.5498
2015	-8.55307
係一種	-8.55403
即	-8.5573
同時	-8.5601
集	-8.56298
重有	-8.56309
之外	-8.56471
爲	-8.56623
與	-8.56647
經	-8.56649
天	-8.56658
2010	-8.5687
o	-8.56927
額我畧曆	-8.56943
額我畧曆計	-8.56964
r	-8.57098
心	-8.57099
自	-8.57242
號之後	-8.57251
女	-8.57277
中文	-8.57304
係一個	-8.57766
有關	-8.57775
2016	-8.58158
佢嘅	-8.5822
次	-8.58251
國家	-8.58326
口	-8.58484
唔係	-8.58608
係由	-8.58787
當時	-8.59173
▁不過	-8.59507
不	-8.59567
一齊	-8.5974
音樂	-8.59815
n	-8.59833
31	-8.59841
出世	-8.60184
囖	-8.60464
一種	-8.6147
英國	-8.61571
海	-8.61577
當	-8.61881
上面	-8.61925
表示	-8.61979
返	-8.62076
書	-8.62115
嗰啲	-8.62274
2018	-8.62313
2021	-8.62365
▁大	-8.62414
兩	-8.62474
除咗	-8.62553
文化	-8.62561
甚至	-8.62564
帶	-8.62584
兩個	-8.62691
2017	-8.63251
如	-8.63498
系統	-8.63616
2012	-8.6386
大學	-8.63949
黃	-8.64017
機	-8.64151
有啲	-8.65031
正	-8.65381
位置喺奧斯坦尼大區嘅	-8.65439
睇	-8.65448
手	-8.65715
2014	-8.66072
年到	-8.66379
死	-8.66546
外	-8.66904
亦有	-8.67155
2007	-8.67243
服務	-8.67458
光	-8.67473
u	-8.6748
:「	-8.68524
▁佢喺	-8.68626
作為	-8.68754
更	-8.68932
石	-8.69086
出嚟	-8.69214
設計	-8.69446
...	-8.6946
場	-8.69603
北	-8.69794
h	-8.69911
聲	-8.70032
種	-8.70092
島	-8.70174
2009	-8.7036
州	-8.70503
提供	-8.71224
臺	-8.71296
寫	-8.71362
兒	-8.71366
方面	-8.71428
令到	-8.71496
影響	-8.71673
2008	-8.71745
2006	-8.71953
最	-8.71998
i	-8.72008
y	-8.72073
結果	-8.72137
工作	-8.72335
河	-8.72912
時間	-8.73175
闊	-8.73432
2013	-8.73831
正式	-8.7394
省	-8.74113
林	-8.74209
——	-8.74359
組成	-8.74649
本	-8.74671
活動	-8.74684
地方	-8.74751
風	-8.74904
華	-8.74919
波	-8.75185
所有	-8.75303
之間嘅自然數	-8.75471
要求	-8.75588
曾經	-8.75612
樓	-8.75848
達	-8.75903
組織	-8.76464
如果	-8.76616
參加	-8.7673
認為	-8.76754
使用	-8.77176
可	-8.77222
誒	-8.77231
嘢	-8.77246
▁前	-8.77341
成立	-8.77742
派	-8.7778
化	-8.77884
通常	-8.78188
紅	-8.78235
部分	-8.78361
張	-8.78523
效力	-8.78603
嘅時候	-8.7866
轉	-8.78841
明	-8.78844
問題	-8.79293
發現	-8.79442
鎮	-8.79463
在	-8.79744
通過	-8.79747
雖然	-8.79773
得到	-8.79789
白	-8.79801
世界	-8.80157
李	-8.80178
跟住	-8.80193
邊	-8.80255
攞到	-8.80349
係種	-8.80567
th	-8.80703
可能	-8.80821
未	-8.80939
想	-8.81383
定	-8.81731
平	-8.81807
p	-8.81918
整	-8.81926
其	-8.81936
世紀	-8.81999
直到	-8.82317
2011	-8.82423
連	-8.8304
歌手	-8.83359
各	-8.8384
面	-8.8391
城市	-8.84238
主持	-8.84294
作	-8.84306
力	-8.84315
八	-8.84498
落	-8.84541
式	-8.84575
年嗰陣	-8.84638
幾	-8.84908
裏面	-8.84927
廣東	-8.85023
負責	-8.85202
▁saint	-8.85367
1990	-8.85406
氣	-8.85441
成員	-8.85591
神	-8.85594
計劃	-8.85876
變成	-8.86255
0	-8.86365
版	-8.86379
受	-8.86654
遊戲	-8.86812
語言	-8.87075
嗰個	-8.87102
▁the	-8.87181
約	-8.87356
年開始	-8.87385
決定	-8.87631
六	-8.87753
細	-8.87799
2000	-8.88088
支持	-8.88131
!	-8.88268
2005	-8.88387
美	-8.89059
中心	-8.89138
龍	-8.89221
卡	-8.89601
事件	-8.89815
都會	-8.89891
只係	-8.89908
維	-8.90281
需要	-8.90382
曾經喺	-8.90969
因此	-8.91225
嗰	-8.91604
利	-8.918
運動	-8.91807
有好多	-8.91884
片	-8.92383
比較	-8.92448
就會	-8.92495
星	-8.92683
6)	-8.92713
喺香港	-8.92718
總面積	-8.92924
演員	-8.92934
𡃉	-8.93135
g	-8.93651
嘅一種	-8.93765
2003	-8.93799
裏	-8.93869
f	-8.93941
座	-8.93978
賣	-8.94088
第一	-8.94143
國際	-8.94144
幫	-8.9418
屬於	-8.94371
管理	-8.94396
社會	-8.94452
佢喺	-8.94456
並且	-8.94606
歌	-8.94876
澳門	-8.95112
單	-8.95134
腳	-8.95212
田	-8.95533
超過	-8.9579
學生	-8.95793
陳	-8.95964
音	-8.96036
附近	-8.96164
嘅地方	-8.96307
唔少	-8.96422
一帶	-8.96686
l	-8.96989
乜事	-8.96996
管	-8.97065
獎	-8.97081
已	-8.97093
圖	-8.97278
七	-8.97302
2004	-8.97592
安	-8.97594
viutv	-8.97896
眼	-8.98028
成功	-8.98549
▁雖然	-8.98598
係中國	-8.99078
詞	-8.99132
公	-8.99149
配音員	-8.99178
▁因為	-8.99375
面積	-8.99485
發生過啲	-8.99505
曬	-8.99695
魚	-8.99782
做過	-8.99797
阿	-8.99988
拉	-9.00083
於是	-9.00319
隊	-9.00753
位置	-9.00961
加入	-9.00964
古	-9.01079
100	-9.01101
一般	-9.01192
愛	-9.01454
雞	-9.01497
韓文	-9.01626
木	-9.01795
事	-9.02194
系列	-9.02225
先至	-9.02248
尾	-9.02292
中學	-9.0242
主演	-9.02569
班	-9.02711
錢	-9.02723
▁佢係	-9.0282
號綫	-9.03055
語	-9.03138
司職中場	-9.03316
2001	-9.03317
播	-9.04215
個人	-9.0434
相	-9.04442
非	-9.04516
似	-9.04548
▁但係	-9.04766
隻	-9.04836
加上	-9.05005
al	-9.05291
身	-9.05348
位於	-9.05569
畫	-9.05744
繼續	-9.0579
技術	-9.05837
宣佈	-9.05908
搞到	-9.05914
上海	-9.05929
6;	-9.06195
做咗	-9.06497
發	-9.06499
樹	-9.06632
呢種	-9.07042
建築	-9.07312
見	-9.07315
部份	-9.07679
羅	-9.07736
處理	-9.07751
受到	-9.07852
菜	-9.0813
攞	-9.08279
人類	-9.08528
譬如	-9.08669
政治	-9.08671
作品	-9.08742
噉樣	-9.08902
▁si	-9.08908
葉	-9.09008
緊	-9.09043
色	-9.09132
原	-9.09172
軍	-9.09209
郡	-9.0922
50	-9.09283
x	-9.09306
▁2016	-9.09561
為咗	-9.09625
包	-9.09806
生活	-9.09843
信	-9.09913
第二	-9.09928
比賽	-9.10262
方法	-9.10451
後來	-9.10463
處	-9.10603
工程	-9.10636
清	-9.10739
公園	-9.10808
▁響	-9.10849
▁係啊	-9.10859
皮	-9.10913
架	-9.11017
入面嘅	-9.11119
電腦	-9.11214
鄉	-9.11315
走	-9.11317
號到	-9.11605
堂	-9.1184
舊	-9.11913
醫院	-9.12142
九	-9.12384
多數	-9.12403
▁de	-9.12479
經過	-9.12492
能夠	-9.12611
教	-9.12724
經濟	-9.12739
期	-9.12823
en	-9.13391
計	-9.13392
參與	-9.13558
啲人	-9.136
1991	-9.1382
章	-9.14139
斯	-9.14235
樂	-9.14238
de	-9.14286
牌	-9.14305
2002	-9.14592
嘅一個女藝人同埋	-9.14848
法國	-9.15051
根據	-9.15076
元	-9.15098
低	-9.15225
黑	-9.15344
分別	-9.15398
嘅話	-9.15419
橋	-9.15518
▁lou	-9.15537
舉行	-9.15558
體	-9.15618
玩	-9.15802
▁2017	-9.15817
室	-9.1582
年成立	-9.15902
簡化字	-9.15931
嘅嘢	-9.16043
傳統	-9.16639
也	-9.16766
方	-9.17
1999	-9.17053
史	-9.17162
畀人	-9.17492
教育	-9.17526
合作	-9.1761
火	-9.17682
▁a	-9.17707
中國大陸	-9.1777
屆	-9.17785
病	-9.17809
年至	-9.1814
全	-9.18277
關係	-9.18289
變	-9.18291
1;	-9.18292
歐洲	-9.18518
嘅一個	-9.18551
亞	-9.18571
沙	-9.18828
是	-9.18837
共	-9.18879
買	-9.19014
中央	-9.19148
獨立	-9.19191
就有	-9.19281
嚮	-9.19432
立	-9.19522
格	-9.19567
飛	-9.19859
雲	-9.20063
發生	-9.20305
記	-9.21
40	-9.21193
控制	-9.21279
成日	-9.21335
特	-9.2135
角	-9.21398
4;	-9.21403
着	-9.21418
然後	-9.21556
任	-9.2184
▁同年	-9.21867
直接	-9.21895
通	-9.21996
塔	-9.22086
就喺	-9.22149
官	-9.22555
萬人	-9.22565
▁根據	-9.22808
船	-9.22846
油	-9.22889
德國	-9.23055
更加	-9.23112
歷史	-9.23129
粵語	-9.23597
形	-9.236
之中	-9.23638
1989	-9.23776
底	-9.2386
每	-9.23906
士	-9.23966
節	-9.24063
j	-9.24111
酒	-9.2416
喎	-9.24253
首府	-9.24255
紙	-9.24513
傳	-9.24715
房	-9.24931
基	-9.24938
響度	-9.25059
);	-9.25474
只有	-9.25732
一直	-9.2581
型	-9.25895
車道	-9.25978
真	-9.2603
布	-9.26082
▁2018	-9.26383
方式	-9.2639
江	-9.26462
實	-9.26521
執導	-9.26528
主	-9.26749
車站	-9.26819
骨	-9.26828
1980	-9.26868
球	-9.26938
獲得	-9.27005
馬來西亞	-9.27241
分別係	-9.27267
司職後衞	-9.27705
層	-9.27721
▁其中	-9.27763
製作	-9.27844
大約	-9.27965
發行	-9.27992
▁打	-9.28071
我哋	-9.28131
用嚟	-9.28307
真係	-9.28315
港	-9.28361
湖	-9.28416
集團	-9.28485
建立	-9.28546
強	-9.28649
時期	-9.28899
推出	-9.29176
十	-9.29356
嗰邊	-9.29546
報	-9.29563
擔任	-9.29576
當地	-9.29934
為主	-9.29961
杜	-9.30027
改	-9.30129
印度	-9.30238
▁2020	-9.30379
皇帝	-9.30478
係個	-9.30742
粒	-9.30962
之下	-9.30986
透過	-9.3102
唱	-9.31164
羣	-9.31198
特別	-9.31274
使	-9.31334
板	-9.3137
選舉	-9.31642
馬路	-9.31665
主要係	-9.31733
排	-9.32114
知	-9.32125
le	-9.32629
死咗	-9.32758
曾	-9.32801
1)	-9.32886
唔會	-9.33001
爾	-9.33106
類	-9.33119
▁之後	-9.33258
動物	-9.33274
網絡	-9.33483
按	-9.33498
首	-9.33518
市場	-9.33561
香	-9.33688
▁到咗	-9.33774
1997	-9.33805
同其他	-9.33827
電視劇	-9.33956
設	-9.34192
結構	-9.34207
德文	-9.34371
太	-9.34488
▁2019	-9.34507
黨	-9.34528
毛	-9.34613
搵	-9.34637
▁tuz	-9.34811
提出	-9.3484
組	-9.34995
▁不	-9.35101
原名	-9.3538
玩家	-9.35439
▁全長	-9.35483
係喺	-9.35509
嚟講	-9.35529
批評	-9.35548
工	-9.35621
第一次	-9.35685
佢係	-9.35791
▁2015	-9.35873
老	-9.35957
歸	-9.35985
內容	-9.36253
仲有	-9.36285
應該	-9.36335
物	-9.36402
網	-9.36403
標準	-9.36469
鐵	-9.36598
er	-9.36735
年出道	-9.3684
1998	-9.3712
連接	-9.37154
器	-9.3727
北京	-9.37855
少	-9.37906
專輯	-9.37952
反對	-9.38244
成個	-9.38287
單位	-9.38425
巴士	-9.38505
任何	-9.38674
km	-9.3881
一條	-9.3884
民	-9.38891
『	-9.3891
年在位	-9.39228
擁有	-9.39515
克	-9.39598
情	-9.39723
能	-9.39927
系	-9.39971
機構	-9.39978
人士	-9.40003
則	-9.40007
澳洲	-9.40247
綫	-9.40416
鬼	-9.40446
放	-9.4046
接受	-9.40467
流	-9.40484
熱	-9.40552
茶	-9.40658
著	-9.40683
藝術	-9.40781
▁and	-9.40911
雙向	-9.41034
狗	-9.41298
一次	-9.41569
英	-9.41617
▁喀	-9.41619
草	-9.41623
全部	-9.41677
了	-9.42064
局	-9.422
資訊	-9.42228
▁而家	-9.42478
界	-9.42579
興	-9.42664
周	-9.42759
俾人	-9.429
合	-9.42919
錯	-9.43305
漢	-9.43341
個名	-9.43366
分析	-9.43455
行動	-9.43485
代	-9.43518
中間	-9.43632
另外	-9.43664
la	-9.43816
版本	-9.43818
重新	-9.43818
▁一	-9.44025
蘭	-9.44098
族	-9.44574
權	-9.44574
保護	-9.44659
▁小	-9.44705
完全	-9.4484
希望	-9.44927
一路	-9.44974
植物	-9.4504
氏	-9.45302
方便	-9.45303
用咗	-9.45308
形成	-9.45335
票	-9.45445
巴	-9.45697
範圍	-9.45708
各種	-9.45743
仁	-9.45837
師	-9.45877
以前	-9.4594
最終	-9.46039
只	-9.46158
靠	-9.46204
對於	-9.46303
劉	-9.46575
一間	-9.46669
兵	-9.46889
業	-9.46951
係一部	-9.46959
▁zi	-9.47014
果	-9.47027
▁除咗	-9.47126
出名	-9.4725
自然	-9.47391
青	-9.47421
意大利	-9.47435
▁2013	-9.47446
揀	-9.47538
埃納	-9.47559
尼	-9.47579
佔	-9.47659
級	-9.47882
▁呢個	-9.48041
關	-9.4816
藥	-9.48277
又叫做	-9.48301
演出	-9.48398
60	-9.48408
表	-9.48673
段	-9.48705
產生	-9.48786
重要	-9.49009
▁哦	-9.49024
半	-9.49046
義	-9.49128
新聞	-9.49182
宮	-9.49196
牛	-9.492
“	-9.49308
1992	-9.49339
us	-9.4936
中共	-9.49401
解	-9.49433
寶	-9.49454
制	-9.49463
難	-9.49649
▁2010	-9.49677
差唔多	-9.49733
西班牙文	-9.49734
員	-9.4977
理	-9.49855
進入	-9.4986
每年	-9.49888
形式	-9.49939
類似	-9.49981
▁la	-9.49992
肉	-9.50261
網站	-9.50291
▁2011	-9.50309
屋	-9.50453
設有	-9.50524
反	-9.50772
呀	-9.50789
環境	-9.50814
政策	-9.50845
機場	-9.51013
司職前鋒	-9.51015
大量	-9.51035
拍	-9.51127
梁	-9.51223
三個	-9.51299
空間	-9.51383
生物	-9.51548
曲	-9.51568
原本	-9.51617
1995	-9.51635
▁老	-9.51647
z	-9.51777
媒體	-9.51782
之間嘅	-9.51822
福	-9.51874
頂	-9.51903
其實	-9.51941
鐵路	-9.51942
數據	-9.52081
灣	-9.52292
行為	-9.52419
夫	-9.52613
根	-9.52822
狼	-9.52899
amp	-9.52955
生產	-9.53069
係日本嘅一個男藝人同埋演員	-9.53204
吉	-9.5332
例如係	-9.53383
收	-9.5358
俄羅斯	-9.53689
▁2021	-9.53731
科學	-9.53756
亞洲	-9.53845
銀行	-9.53928
客	-9.5393
產品	-9.54062
1970	-9.54071
稱	-9.5414
遠	-9.54391
喺度	-9.54408
on	-9.54599
年係閏年	-9.54601
理論	-9.54769
播出	-9.54904
達到	-9.54926
唔同嘅	-9.54989
1996	-9.54989
角色	-9.55051
表達	-9.55225
ing	-9.55274
府	-9.553
尤其係	-9.55352
小學	-9.55357
全國	-9.55371
詩	-9.55661
▁白	-9.557
關於	-9.55758
結婚	-9.55892
有時	-9.56005
▁2012	-9.56046
男	-9.56054
fc	-9.56207
廣州市	-9.5622
出咗	-9.56269
大廈	-9.56305
冠軍	-9.56315
識	-9.56575
經營	-9.56591
戰	-9.56867
取代	-9.56946
▁man	-9.56949
總統	-9.57015
係美國	-9.57046
聖	-9.57077
越南	-9.57091
』	-9.57094
1987	-9.57166
表演	-9.57183
採用	-9.57215
入邊	-9.57284
請	-9.57355
▁2014	-9.57379
聽	-9.57435
情況	-9.5748
唔夠	-9.57533
親	-9.57727
et	-9.57763
警察	-9.57894
一隻	-9.57999
sur	-9.58095
總	-9.58145
唔到	-9.58193
見到	-9.58271
某啲	-9.58292
跳去	-9.58369
問	-9.58372
唔使	-9.58397
v	-9.58499
納	-9.58647
大陸	-9.58707
量	-9.58737
200	-9.5874
命	-9.58778
志	-9.58922
費	-9.58968
點樣	-9.59003
品種	-9.59005
短	-9.59006
聯	-9.59021
2022	-9.59041
到咗	-9.59068
有限公司	-9.59283
居民	-9.5929
言	-9.5936
宗	-9.59377
恩	-9.59378
其中一個	-9.59441
大型	-9.59556
佢哋嘅	-9.59663
左	-9.5982
出版	-9.59836
今日	-9.59981
飯	-9.60018
資料	-9.60093
絲	-9.60179
嗮	-9.60224
▁road	-9.60288
廣告	-9.60352
蘇	-9.60356
直	-9.60462
嚟自	-9.60481
可以撳	-9.6053
自由	-9.60599
基辭典	-9.6074
▁自	-9.60815
企業	-9.61017
雅	-9.61028
有人	-9.61056
年起好	-9.61109
影	-9.61124
歌曲	-9.61151
甲	-9.61165
左右	-9.61238
學院	-9.61403
▁佢哋	-9.61572
論	-9.61582
個仔	-9.61586
入咗	-9.61603
路線	-9.61645
電	-9.61751
顯示	-9.61968
意	-9.62054
功能	-9.62101
學習	-9.62178
建	-9.6227
最大嘅	-9.62342
畢業	-9.62434
有個	-9.62496
時代	-9.62675
貨	-9.627
導致	-9.62777
廣	-9.62895
陽	-9.62929
乜嘢	-9.63224
環	-9.63279
都可以	-9.63462
覺得	-9.63572
除	-9.636
後嚟	-9.63612
商	-9.63643
家下	-9.6369
涉及	-9.63708
工業	-9.63798
嘴	-9.63812
嘅名	-9.63878
嗰陣時	-9.64154
”	-9.6421
組合	-9.64272
一共有	-9.64321
說	-9.64438
樣	-9.64447
制度	-9.64456
自己嘅	-9.64528
糖	-9.64536
中華人民共和國	-9.64623
han	-9.64881
開發	-9.64881
係用	-9.6494
園	-9.65041
西班牙	-9.65153
市民	-9.65249
幾個	-9.65249
武	-9.65388
造	-9.6541
養	-9.65484
友	-9.65499
離年尾重有	-9.65555
造成	-9.65566
▁station	-9.65669
分鐘	-9.65683
裝	-9.65686
號開始	-9.65737
國王	-9.65801
團	-9.65947
佬	-9.66026
考	-9.66173
公開	-9.66232
味	-9.66347
獲	-9.66367
主席	-9.66422
道路	-9.66677
玉	-9.66903
相關	-9.66932
較	-9.66942
地球	-9.66942
最高	-9.66965
es	-9.66993
符號	-9.67104
電子	-9.67255
淨係	-9.67257
man	-9.67311
綠	-9.67381
花園	-9.67438
渠	-9.67491
何	-9.67556
完成	-9.67573
貴	-9.67584
進	-9.67594
第一個	-9.67753
先後	-9.67795
仍然	-9.67817
唔好	-9.67872
一位	-9.67888
楊	-9.67967
調查	-9.67978
席	-9.68045
土	-9.68049
演唱會	-9.68122
改變	-9.68152
利用	-9.68283
案	-9.68301
▁ji	-9.6833
然	-9.68391
本身	-9.68396
訓練	-9.68486
商業	-9.68527
▁2007	-9.68536
300	-9.68585
谷	-9.68716
」)	-9.68743
佢同	-9.68744
夜	-9.68876
呢度	-9.689
完	-9.68976
1994	-9.69094
康	-9.69232
大概	-9.69286
亦叫	-9.69348
廣場	-9.69351
統一	-9.69386
差	-9.6946
血	-9.69632
粉	-9.69671
酒店	-9.69709
送	-9.69737
並喺	-9.69779
安全	-9.69859
現代	-9.69886
交	-9.69887
旗	-9.69929
竹	-9.70055
俄文	-9.70065
治	-9.70105
數學	-9.70109
越	-9.70245
年間	-9.7033
世	-9.70354
筆	-9.70512
每個	-9.70527
韓國	-9.70536
野	-9.7056
導演	-9.70609
印	-9.70617
遊	-9.70662
學者	-9.70671
重慶	-9.70681
創作	-9.707
景	-9.70712
應	-9.70737
目	-9.70818
牙	-9.70818
終年	-9.70868
嚇	-9.70896
▁2009	-9.7094
夢	-9.70953
攞咗	-9.7096
𠸏	-9.70986
又有	-9.70991
戰爭	-9.71289
演唱	-9.71299
峯	-9.71347
鍾意	-9.71453
藍	-9.71578
香港政府	-9.71587
就可以	-9.71612
率	-9.7163
思	-9.71709
增加	-9.71763
項目	-9.71782
交通	-9.71827
地下	-9.71878
攻擊	-9.72006
搵到	-9.72024
望	-9.72103
文學	-9.72312
為止	-9.72314
in	-9.72467
▁kong	-9.72512
銀	-9.72524
遊樂場	-9.72557
w	-9.72616
院	-9.72642
川	-9.72652
都要	-9.72701
年度	-9.72745
多個	-9.72756
春	-9.72771
▁例如	-9.72807
35	-9.72837
1982	-9.72854
坐	-9.72868
執行	-9.7298
圖書館	-9.72981
發表	-9.72996
靈	-9.73025
彈	-9.73094
平臺	-9.73099
反應	-9.7324
1960	-9.73287
賽	-9.733
改為	-9.73334
同佢	-9.73386
盤	-9.73424
品	-9.73466
會用	-9.73472
廠	-9.73475
出來	-9.7358
4)	-9.7359
▁當	-9.73658
變化	-9.73789
屋企	-9.73885
官方	-9.73996
會有	-9.74023
能力	-9.74031
支	-9.74109
人民	-9.74266
小說	-9.74434
讀音	-9.74448
ed	-9.74511
卷	-9.74547
過去	-9.74582
夏	-9.74608
町	-9.74612
深	-9.74635
就算	-9.74716
加拿大	-9.74734
選擇	-9.74812
全球	-9.74883
距離	-9.75017
區域	-9.75101
存在	-9.75142
選	-9.75178
今	-9.75193
▁阿	-9.75196
非常	-9.75248
嗌	-9.75386
伯	-9.75469
調	-9.75519
吳	-9.75597
監製	-9.7566
喀	-9.75729
圓	-9.75767
70	-9.75797
離	-9.75823
記者	-9.75827
步	-9.75844
東北	-9.75904
哩個	-9.75914
1993	-9.76025
蚊	-9.761
委員會	-9.76101
南部	-9.76227
雪	-9.76276
▁香港	-9.76351
▁b	-9.76394
數字	-9.76485
指出	-9.76619
引起	-9.76699
~	-9.7678
規定	-9.7678
運	-9.76786
作出	-9.76845
法律	-9.76846
團體	-9.76851
參選	-9.76894
嚹	-9.76925
吖嗎	-9.76977
過程	-9.77074
依家	-9.7712
黃金丘	-9.77158
幫手	-9.77196
宗教	-9.77213
▁當時	-9.77274
專業	-9.77428
值	-9.77479
例	-9.77484
舊時	-9.77593
1988	-9.77623
雀	-9.77709
伊	-9.7777
禮	-9.77782
保	-9.77816
億	-9.7794
▁zaam	-9.77964
身體	-9.78106
離開	-9.78112
▁如果	-9.78198
鬥	-9.7822
▁2006	-9.7823
辦	-9.78236
唯一	-9.78318
最大	-9.78539
嘞	-9.78573
▁2008	-9.78601
升	-9.78602
▁street	-9.78633
les	-9.78828
唔可以	-9.78841
電視	-9.78847
主張	-9.78868
▁in	-9.7887
西南	-9.78878
列	-9.79004
威	-9.79098
市區	-9.79156
來自	-9.79187
電視臺	-9.79216
位置喺布禮斯大區嘅	-9.79289
介紹	-9.79293
泰國	-9.79365
嘢食	-9.7948
舉辦	-9.79645
藝人	-9.79752
頻道	-9.79845
議員	-9.79851
文字	-9.79877
軟件	-9.79886
北部	-9.79896
劇	-9.79899
si	-9.79917
元素	-9.79974
90	-9.79994
後尾	-9.80022
第三	-9.80081
知道	-9.80155
迪	-9.80205
re	-9.8038
記錄	-9.80624
寧	-9.80653
又係	-9.80679
安排	-9.80846
意大利文	-9.80911
流行	-9.81014
泰	-9.81038
君	-9.81052
空	-9.81133
相對	-9.81171
80	-9.81176
衫	-9.81188
經常	-9.81244
殺	-9.81318
可以用	-9.81335
就話	-9.81356
刀	-9.81409
姓氏	-9.81569
宣傳	-9.81603
年起	-9.81616
嘉	-9.81626
風格	-9.81628
▁第	-9.81684
動	-9.81706
英文叫	-9.81756
位置喺阿列	-9.81834
依	-9.81882
源	-9.81887
稱為	-9.81897
館	-9.81963
香港人	-9.81982
麗	-9.82095
乾	-9.82257
雜誌	-9.82267
耳	-9.82506
葡萄牙文	-9.82587
寺	-9.82598
滿	-9.82656
吖	-9.82855
知識	-9.82887
罪	-9.82985
他	-9.83017
快	-9.83034
丁	-9.83064
▁從	-9.83158
姓	-9.83162
雨	-9.83162
份	-9.83226
洲	-9.83322
軍隊	-9.83375
有唔少	-9.83475
傳媒	-9.83494
而喺	-9.83508
回	-9.83535
▁金	-9.83611
鐘	-9.83641
通常係	-9.83747
四個	-9.83785
先生	-9.83818
賽事	-9.83861
雙	-9.83865
an	-9.83866
跳	-9.839
廣東省	-9.83959
該	-9.84025
唐	-9.84047
嘅問題	-9.84068
基本	-9.84102
經已	-9.84211
初期	-9.8428
關注	-9.84605
嗎	-9.84738
華人	-9.84802
上加龍	-9.84826
曉	-9.84831
咪	-9.84968
方向	-9.84987
假	-9.84995
體育	-9.8523
32	-9.85234
人員	-9.85297
極	-9.85363
拿	-9.85417
無綫電視	-9.85477
設施	-9.85488
▁jyun	-9.85495
全名	-9.85509
土地	-9.85618
修	-9.85655
早期	-9.85696
戲	-9.85704
希	-9.85705
因爲	-9.85719
起咗	-9.85839
就叫	-9.85922
聯合	-9.86104
一段	-9.8611
約莫	-9.86157
+	-9.86234
樂隊	-9.86247
▁2005	-9.86263
教授	-9.86303
本地	-9.86322
隆	-9.86348
再次	-9.8637
奇	-9.86405
專門	-9.86493
民族	-9.86569
件	-9.86644
莊	-9.86735
▁佢嘅	-9.86753
超	-9.86779
狀態	-9.86879
咩	-9.86945
多次	-9.86952
最多	-9.86994
博	-9.8702
建議	-9.87105
西北	-9.87155
申請	-9.8724
湯	-9.87324
價	-9.8741
▁開	-9.87413
劇集	-9.87452
牆	-9.87482
解釋	-9.87527
鋪	-9.87571
雷	-9.87579
▁高	-9.87651
投資	-9.87719
主義	-9.87735
首次	-9.87798
胡	-9.87886
製造	-9.8789
▁後來	-9.87908
fifa	-9.87909
榮	-9.8795
準備	-9.87992
▁c	-9.88062
鳥	-9.88104
出口	-9.88155
▁但	-9.88161
接	-9.88212
方言	-9.88243
航空	-9.88306
東京	-9.8843
48	-9.88461
狀	-9.88477
入面有	-9.88494
新加坡	-9.88599
位置喺厄爾	-9.88748
編劇	-9.8883
▁有啲	-9.8905
輪	-9.89052
重係	-9.89135
都好	-9.89235
具有	-9.89333
2","	-9.89388
旗下	-9.89402
韻	-9.89426
舞	-9.89437
1949	-9.89523
windows	-9.89536
勝	-9.89542
做嘢	-9.89544
千	-9.89562
定義	-9.8965
井	-9.89715
就要	-9.89844
改編	-9.89862
作曲	-9.8995
佛	-9.89977
燈	-9.90024
司	-9.90198
加埋	-9.90203
生命	-9.90254
仙	-9.90266
開放	-9.90271
_	-9.90292
飲	-9.90476
太陽	-9.90476
碼頭	-9.90482
足	-9.90531
軍事	-9.90549
嘅情況	-9.90574
秀	-9.9066
毫米	-9.90764
▁冇	-9.90773
實驗	-9.90853
總共	-9.90878
梅	-9.90955
笑	-9.91043
1979	-9.91068
改名做	-9.91087
圈	-9.91167
嘅主要	-9.91191
討論	-9.91195
45	-9.91211
▁黃	-9.91292
都冇	-9.91329
而出名	-9.91394
描述	-9.91409
隧道	-9.91438
資源	-9.91521
估計	-9.91521
針對	-9.91522
而係	-9.91531
舖	-9.91538
搭	-9.91566
智	-9.9157
以上	-9.91573
政權	-9.91634
附近嘅	-9.91647
豬	-9.91651
月臺	-9.91674
帝	-9.91742
st	-9.91815
會議	-9.9182
嘅過程	-9.9188
1985	-9.91999
報告	-9.9206
人物	-9.92088
廣西	-9.92144
等人	-9.92174
留	-9.92234
移民	-9.92262
▁嗯	-9.92327
38	-9.92437
𡃉喎	-9.92568
首都	-9.9259
初	-9.92646
朝	-9.92689
亂	-9.92714
街道	-9.92717
方案	-9.92742
袋	-9.92778
哲學	-9.92782
營運	-9.92863
求	-9.92906
嘅行為	-9.92916
設立	-9.92952
讀書	-9.93017
支援	-9.93074
齊	-9.93208
呢個站	-9.93229
森	-9.93301
旅遊	-9.93349
澤	-9.93353
號舉行	-9.93432
而家嘅	-9.93497
每日	-9.93534
業務	-9.93586
兩邊	-9.93707
▁三	-9.93784
內部	-9.93807
33	-9.93916
南面	-9.9392
係唐人	-9.94064
而家係	-9.94141
腦	-9.94147
番	-9.94148
酸	-9.94181
tvb	-9.94197
即刻	-9.94206
餘	-9.94221
碼	-9.943
嶺南	-9.94316
北面	-9.94366
素	-9.94369
規劃	-9.94414
飛機	-9.94469
零	-9.94644
良	-9.94686
嘅方法	-9.94692
同樣	-9.94704
蟲	-9.9473
多多涅	-9.94794
意思係	-9.94839
中嘅	-9.94867
合併	-9.94933
娛樂	-9.94943
長期	-9.94956
▁school	-9.94965
居	-9.94988
接近	-9.95047
紀念	-9.95155
槍	-9.95308
項	-9.95312
用嘅	-9.95381
查	-9.95387
等地	-9.95413
會喺	-9.95513
36	-9.95522
output	-9.95636
封	-9.95674
嘅關係	-9.95815
健康	-9.9585
奧	-9.9586
商場	-9.95883
部隊	-9.95926
1950	-9.95973
富	-9.96036
祖	-9.96058
連續	-9.96149
維持	-9.96188
建築物	-9.96194
餅	-9.96274
mm	-9.96319
入去	-9.96367
溪	-9.96403
」;	-9.9661
又嗌	-9.9664
身份	-9.96669
塊	-9.96727
莫	-9.9673
普遍	-9.96779
睇到	-9.96819
亦都係	-9.96869
嚴重	-9.96921
朱	-9.96943
開咗	-9.97001
1986	-9.9702
投票	-9.97035
鷄	-9.97168
好多時	-9.97182
令佢	-9.9723
結束	-9.97238
觀眾	-9.97247
蛇	-9.97258
用戶	-9.97291
乘客	-9.97516
▁此外	-9.97566
"	-9.97616
賢	-9.97676
孫	-9.97724
社	-9.97814
一共	-9.97943
▁黑	-9.97968
調整	-9.97996
唨	-9.9803
作家	-9.98192
劑	-9.98225
中華民國	-9.98251
一度	-9.98409
▁亦	-9.98469
jp	-9.98486
效力過	-9.9855
可以喺	-9.98561
包含	-9.98599
民間	-9.98704
警方	-9.98711
當選	-9.9875
紀錄	-9.98751
家庭	-9.98845
醫生	-9.98854
套	-9.98922
女人	-9.99013
1984	-9.9906
廣東話	-9.99085
反而	-9.99111
衣	-9.99111
革命	-9.99152
▁主演係	-9.99198
▁wan	-9.99271
大部分	-9.99385
ch	-9.99411
爭	-9.99417
大多數	-9.99452
咁多	-9.99483
百家姓	-9.99514
▁後嚟	-9.99658
列車	-9.99777
細胞	-9.99788
球隊	-9.99867
上嘅	-9.99918
]	-9.99965
鏡	-10.0006
破壞	-10.0013
生意	-10.0013
物質	-10.0014
ext	-10.0021
倒	-10.0022
九龍	-10.0025
散	-10.0028
膠	-10.0041
平方米	-10.0042
一個人	-10.0042
計算	-10.005
55	-10.0051
故事	-10.0054
朋友	-10.0057
目標	-10.0057
哥	-10.0057
而唔係	-10.0059
500	-10.007
球會	-10.0073
踢	-10.0075
限制	-10.0077
將佢	-10.0078
ming	-10.0081
機械	-10.0083
係因為	-10.0088
協會	-10.0088
主角	-10.0093
▁2004	-10.0095
出席	-10.0095
▁wai	-10.0099
▁zau	-10.01
蘇聯	-10.0111
原先	-10.0129
實際	-10.0129
▁*/?)	-10.0133
▁to	-10.0133
杯	-10.0135
邦	-10.0141
lo	-10.0146
演	-10.015
幾乎	-10.016
意思	-10.0161
年由	-10.0162
卡爾華多斯	-10.0174
▁le	-10.0179
政	-10.0183
輝	-10.0183
松	-10.0185
信息	-10.0187
呢個名	-10.0189
選區	-10.0191
蛋	-10.0196
爆發	-10.0198
燒	-10.0199
勁	-10.0207
現場	-10.0212
廟	-10.0214
善	-10.0218
設備	-10.022
落去	-10.0225
挑戰	-10.0231
cd	-10.0237
實行	-10.0245
邊個	-10.0249
最佳	-10.0267
易	-10.0274
啱	-10.0289
▁呢啲	-10.0291
政黨	-10.0291
未來	-10.0293
改成	-10.0295
教會	-10.0295
頓	-10.0295
貓	-10.0296
2)	-10.03
▁lei	-10.0308
▁李	-10.0311
嘅意思	-10.0313
昌	-10.0316
地鐵	-10.032
百	-10.032
▁直到	-10.0325
▁sing	-10.0329
公佈	-10.034
虎	-10.0343
mw	-10.0346
▁me	-10.0348
創立	-10.0354
驚	-10.0355
亞丁	-10.0356
▁所以	-10.0357
作用	-10.0364
必須	-10.0368
冰	-10.0371
部門	-10.0377
ng	-10.0379
共同	-10.0381
現象	-10.039
原來	-10.0395
突然	-10.0408
婆	-10.0427
嚟做	-10.0431
另一個	-10.0434
對方	-10.0438
▁2000	-10.044
教學	-10.044
麥	-10.0441
▁水	-10.0442
英語	-10.0442
反映	-10.0443
症	-10.0447
質	-10.0447
編號	-10.0448
譯	-10.0455
補	-10.046
常	-10.0464
年底	-10.0467
建設	-10.047
免費	-10.047
新嘅	-10.0474
▁for	-10.0479
重喺	-10.0481
結	-10.0482
若	-10.0482
重建	-10.0486
唔再	-10.0494
料	-10.0513
用來	-10.0516
亦可以	-10.0522
往	-10.0522
男人	-10.0525
1),	-10.0526
3;	-10.0533
協助	-10.0535
店	-10.0536
400	-10.0544
文件	-10.0544
官員	-10.0567
深圳	-10.057
佢就	-10.0571
將會	-10.0583
目前	-10.0587
拍攝	-10.0588
入便	-10.0606
鬱	-10.0607
照	-10.0608
戶	-10.0617
基督教	-10.062
分為	-10.0621
▁馬	-10.0626
▁紅	-10.0629
條例	-10.0631
facebook	-10.0634
概念	-10.0642
還	-10.0643
廣播	-10.0643
泥	-10.0644
款	-10.0644
即係話	-10.0651
包括咗	-10.0659
減少	-10.0663
......	-10.0665
表現	-10.0668
換	-10.067
改名	-10.0674
飾	-10.0674
校	-10.068
裏頭排第	-10.0681
證	-10.0681
科技	-10.0685
外國	-10.0689
副	-10.069
san	-10.0694
材料	-10.0696
▁天	-10.07
john	-10.0706
鹽	-10.0707
俗稱	-10.0711
sung	-10.0712
大家	-10.0715
諾	-10.0715
嘅作品	-10.0723
▁/	-10.0723
模型	-10.0727
陣	-10.0729
當局	-10.0731
取消	-10.0732
▁呢種	-10.0733
函數	-10.0738
標	-10.0745
漫畫	-10.0749
條件	-10.0751
紅色	-10.0758
直至	-10.0773
嗰頭	-10.0784
兩種	-10.0786
係英國	-10.0793
慶	-10.0798
永	-10.08
▁無	-10.0802
細路	-10.0802
國民黨	-10.0803
▁花	-10.0816
提	-10.0819
老豆	-10.0825
東面	-10.0825
播放	-10.0826
領域	-10.0836
源自	-10.0839
圍	-10.0841
嘅概念	-10.0849
既	-10.0854
係套	-10.0858
具	-10.0869
都得	-10.0871
配	-10.0871
全長	-10.0872
工人	-10.0872
年嘅瑞典係介紹瑞典喺	-10.0872
謝	-10.0872
早	-10.0879
藏	-10.0879
社區	-10.088
做到	-10.0886
▁發	-10.0897
化學	-10.0901
雄	-10.091
妹	-10.0936
1969	-10.0936
乜	-10.0939
庫	-10.0941
句	-10.0952
品牌	-10.0955
不斷	-10.0955
亦會	-10.0956
font	-10.0958
議會	-10.0965
se	-10.097
na	-10.0981
ne	-10.0984
號啟用	-10.0991
海外	-10.0992
佢話	-10.0996
讓	-10.0996
號至	-10.1003
隨住	-10.1006
qq	-10.101
又譯	-10.1011
網上	-10.1015
足球會	-10.1029
出任	-10.103
權力	-10.1039
做導演	-10.1041
置	-10.1041
女性	-10.1045
母	-10.105
▁dou	-10.1065
普	-10.1069
因為佢	-10.1076
射	-10.1085
去咗	-10.1087
1946	-10.1089
數量	-10.1091
te	-10.1096
牀	-10.1106
發佈	-10.1108
代碼	-10.111
但佢	-10.1112
泉	-10.1118
博物館	-10.1121
pp	-10.1121
許	-10.1122
大清	-10.1127
來講	-10.1129
最初	-10.113
發明	-10.1132
繼	-10.1134
諗住	-10.1137
積	-10.114
營	-10.1143
hong	-10.1153
證明	-10.1155
原本係	-10.1157
香港嘅	-10.1157
那	-10.1162
恢復	-10.1169
2;	-10.1175
1958	-10.1177
登	-10.1187
提名	-10.119
其它	-10.1191
el	-10.1196
發出	-10.1212
飾演	-10.1217
parse	-10.122
1983	-10.122
no	-10.1221
公路	-10.1227
應用	-10.1229
逐漸	-10.1244
烏克蘭	-10.1247
憲法	-10.1249
溫	-10.1254
順	-10.126
▁wong	-10.1263
出自	-10.1265
係太陽系小行星帶嘅一粒小行星	-10.1265
東部	-10.1269
4),	-10.127
閏年	-10.1271
灰	-10.1272
唔單止	-10.1274
阿媽	-10.1279
返嚟	-10.1285
此	-10.129
鄭	-10.1293
視	-10.1313
to	-10.1321
cm	-10.1333
,2016	-10.1334
1981	-10.1344
盡	-10.1358
倫	-10.1359
聯盟	-10.1366
好大	-10.1374
靚	-10.1377
形容	-10.1378
傷	-10.1379
取	-10.1391
失敗	-10.1392
呀噉	-10.1393
話佢	-10.1406
服	-10.1408
檔	-10.1415
烏	-10.1419
又或者	-10.142
1945	-10.1423
喺中國	-10.143
球員	-10.1431
1972	-10.1437
喺臺灣	-10.1439
承認	-10.144
平均	-10.1441
總共有	-10.1445
十二	-10.1447
羣島	-10.1454
麪	-10.1457
人口有	-10.1464
洛	-10.1468
域	-10.1468
咁樣	-10.1469
編	-10.147
著名	-10.1471
奧德	-10.1471
一年	-10.1476
曼	-10.1479
魯	-10.1481
病毒	-10.1485
1964	-10.1495
索	-10.1498
嘅發展	-10.15
嘅影響	-10.15
年初	-10.15
感	-10.1501
ho	-10.1502
因而	-10.1503
憑	-10.1508
黎	-10.1512
填詞	-10.1513
醫	-10.1513
又稱	-10.1514
南邊	-10.1531
厚	-10.1534
屎	-10.154
配合	-10.1542
擺	-10.1545
奧布	-10.1547
寫嘅	-10.155
製	-10.1551
苦	-10.1562
拉丁文	-10.1567
勢	-10.1571
住喺	-10.1579
一場	-10.1587
▁&	-10.1587
珠	-10.159
▁2002	-10.159
丹	-10.1602
炒	-10.1602
課程	-10.1602
至少	-10.1603
當年	-10.1607
精	-10.1608
爛	-10.161
分類	-10.1613
總部	-10.1626
經典	-10.1626
係介紹	-10.1627
haai	-10.1635
價值	-10.1639
柱	-10.1639
明顯	-10.1639
ma	-10.1649
艾	-10.1649
下面	-10.165
對手	-10.1653
輸入	-10.1653
[	-10.1656
命名	-10.1656
&	-10.1657
nom	-10.1658
150	-10.166
傑	-10.1669
有成	-10.1674
模式	-10.1674
故仔	-10.1684
終於	-10.1688
一座	-10.1693
對應	-10.1697
希臘	-10.1698
民主黨	-10.17
金屬	-10.1702
gwong	-10.1712
借	-10.1716
嘅研究	-10.1719
所以佢	-10.1719
大樓	-10.172
係日本嘅一個男配音員	-10.1727
年第	-10.1735
三年	-10.1743
特徵	-10.1758
▁係喇	-10.176
足球員	-10.1765
豆	-10.1768
贏咗	-10.1775
以至	-10.1775
濱海沙藍特	-10.1779
統治	-10.1782
貿易	-10.1784
單曲	-10.1787
當時嘅	-10.1791
▁on	-10.1791
希臘文	-10.1798
季	-10.1799
任務	-10.1801
最早	-10.1803
1966	-10.1805
實施	-10.1809
tp	-10.181
中國共產黨	-10.1814
和平	-10.1814
喺廣州	-10.1819
純	-10.1824
可能係	-10.1826
洞	-10.1829
家族	-10.1833
曰	-10.1833
把	-10.1837
晚	-10.184
▁ho	-10.1843
推動	-10.1847
勒	-10.1848
硬	-10.1848
市轄區	-10.185
臣	-10.1865
縮寫	-10.1868
嗰時嘅	-10.1884
▁食	-10.1888
好少	-10.1888
能量	-10.1891
持續	-10.1904
嗰日	-10.1908
日軍	-10.191
或者係	-10.1911
1978	-10.1916
孝	-10.1921
強調	-10.1927
嘅成員	-10.1929
戴	-10.1934
蓋	-10.1934
豐	-10.1937
曾經係	-10.1941
熱爾	-10.1941
死亡	-10.1948
象	-10.1957
專家	-10.1957
原因	-10.1963
福建	-10.197
模擬	-10.1972
老師	-10.1975
詩人	-10.1985
越南文	-10.1987
wong	-10.1991
•	-10.1993
▁basma	-10.1993
訪問	-10.1995
密	-10.1996
ok	-10.1997
廳	-10.2005
候選人	-10.2006
滅	-10.2015
出入	-10.2021
變咗	-10.2022
像	-10.2026
臨時	-10.2029
唔知	-10.2029
塞	-10.2045
領銜主演	-10.2047
錄	-10.2048
▁死	-10.205
觀	-10.205
無綫	-10.2058
尖	-10.206
唱片	-10.2061
出嘅	-10.2062
▁噉	-10.2062
亦喺	-10.2068
運作	-10.2068
啱啱	-10.2069
爆	-10.2079
從而	-10.2084
一座城	-10.2089
守	-10.2097
老婆	-10.2097
瓦	-10.2102
熟	-10.2103
背	-10.2104
精神	-10.2105
嘅其中一個	-10.2106
:[	-10.2109
商人	-10.2109
鞋	-10.2112
多數係	-10.2113
夾埋	-10.2142
盧	-10.2143
某	-10.2144
▁gun	-10.2146
炮	-10.2146
年入夥	-10.2147
軟	-10.2147
防	-10.2151
比如	-10.2156
分佈	-10.2158
▁係囖	-10.2164
係啊	-10.2165
汽車	-10.2165
人哋	-10.2166
電話	-10.2173
佳	-10.2174
▁據	-10.2176
解決	-10.2178
慢慢	-10.2191
推	-10.22
夾	-10.22
巖	-10.22
分子	-10.2203
湧	-10.2212
34	-10.2212
斷	-10.2214
另一	-10.2229
𠻺	-10.2229
餐	-10.223
好多人	-10.2231
便	-10.2237
思想	-10.2241
嘗試	-10.2246
創辦	-10.225
C	-10.2266
忌	-10.2266
共和國	-10.2268
朝鮮	-10.2269
大部份	-10.2277
全面	-10.2278
可能會	-10.2282
報紙	-10.2284
1000	-10.2285
幾多	-10.2285
池	-10.2294
程序	-10.2305
共有	-10.2306
切	-10.2307
各地	-10.2307
兄弟	-10.2312
兮	-10.2321
秋	-10.2325
並無	-10.2325
尺	-10.2326
大橋	-10.2328
結合	-10.233
係唔係	-10.233
提升	-10.2354
▁同時	-10.2359
英雄	-10.236
都唔	-10.2362
好似係	-10.2364
雲南	-10.2367
▁1997	-10.2371
各個	-10.2374
翻	-10.2376
索引	-10.2377
係臺灣	-10.2381
地位	-10.2383
mv	-10.2388
相同	-10.2389
荷蘭	-10.2389
出入口	-10.2389
1963	-10.239
篇	-10.2391
嘅歌	-10.2396
程	-10.2396
規則	-10.2398
拜	-10.2399
物種	-10.241
嘅事	-10.2411
作曲家	-10.2419
其後	-10.2419
有一個	-10.2426
毒	-10.2431
考慮	-10.2433
託	-10.2435
籍	-10.2437
座樓	-10.2438
𡃉嚹	-10.2451
興建	-10.2454
相當	-10.2461
秒	-10.2461
東南	-10.2465
將軍	-10.2466
就好似	-10.2467
贏	-10.2469
頸	-10.2473
偉	-10.2474
腸	-10.2477
▁未	-10.2488
編曲	-10.2488
產	-10.2489
武器	-10.2502
亮	-10.2508
南京	-10.2518
▁1999	-10.2518
改革	-10.252
報導	-10.2524
多過	-10.2525
普通話	-10.2527
民眾	-10.2532
出道	-10.2533
亦都有	-10.2536
吸引	-10.2537
西方	-10.2544
星加坡	-10.2544
唔畀	-10.2545
抗議	-10.2545
mingliu	-10.2549
extended	-10.2549
臨	-10.2554
▁e	-10.2557
第四	-10.256
年嘅法國	-10.2563
皇	-10.2567
靜	-10.2571
爭議	-10.2573
薩	-10.2578
之後就	-10.2578
本來	-10.2581
宋	-10.2581
隨	-10.2581
懷疑	-10.2585
駐	-10.2586
破	-10.2588
行政	-10.2593
佛教	-10.2596
亭	-10.2598
1967	-10.2602
嶺	-10.2602
協議	-10.2612
▁最後	-10.2613
施	-10.2614
▁hong	-10.2615
法國喺	-10.2618
嘅方式	-10.2624
現時	-10.2625
嘅位置	-10.2628
今日嘅	-10.2629
失	-10.2637
高級	-10.2637
紫	-10.2638
別	-10.2639
捉	-10.2646
互相	-10.265
傾向	-10.2653
中部	-10.2655
停	-10.2656
嘅工作	-10.2657
hkscs	-10.2663
粵	-10.2664
相信	-10.2668
花名	-10.2669
回應	-10.2671
呢次	-10.2673
1953	-10.2675
容易	-10.2675
▁新	-10.2678
係香港一	-10.2679
露	-10.268
青年	-10.2684
首先	-10.2694
,2017	-10.27
推廣	-10.2703
民主	-10.2703
輕	-10.271
年之間嗰十年	-10.2719
異	-10.2722
一班	-10.2724
壓	-10.2725
▁2001	-10.2726
utc	-10.2731
法輪功	-10.2735
國內	-10.2737
保持	-10.2737
就將	-10.274
引入	-10.2744
彩	-10.2746
冇乜	-10.275
嘅角色	-10.2752
點解	-10.2758
諗	-10.2762
係香港一間	-10.2763
嘅情況下	-10.2763
東方	-10.2766
痛	-10.2768
ii	-10.2773
鴨	-10.2774
哩	-10.2774
一定要	-10.2774
成為咗	-10.2775
▁i	-10.2775
fzkai	-10.278
設置	-10.2783
交流	-10.279
兩次	-10.2792
動畫	-10.2792
工廠	-10.2804
我覺得	-10.281
桂	-10.282
展開	-10.2822
理解	-10.2824
引擎	-10.2825
儀	-10.2825
奶	-10.2834
盧華	-10.2836
領袖	-10.2839
嘅時間	-10.2842
暫時	-10.2848
後面	-10.2851
跑	-10.2852
起好	-10.2854
聯邦	-10.2861
成績	-10.2861
係以	-10.2865
針	-10.287
核	-10.2878
ta	-10.2882
交界	-10.2887
多啲	-10.2897
周圍	-10.2905
▁jan	-10.2906
保留	-10.2907
事務	-10.2914
但喺	-10.2918
北邊	-10.2918
試過	-10.2919
淨	-10.2922
據	-10.2932
▁2003	-10.2932
箱	-10.2935
上帝	-10.2944
餐廳	-10.2945
youtube	-10.2949
傳播	-10.2956
co	-10.2957
柳	-10.2961
橫	-10.2963
試	-10.2967
質疑	-10.297
隔	-10.2974
夠	-10.2975
英文名	-10.2977
洋	-10.2991
正常	-10.2992
古代	-10.2992
領	-10.2994
程式	-10.2997
隔離	-10.2997
呢類	-10.3001
瞭解	-10.3008
{	-10.3013
阿摩爾濱海	-10.3013
高度	-10.3016
更多	-10.302
me	-10.3025
1930	-10.3029
憑住	-10.303
速度	-10.3031
惠	-10.3033
巴西	-10.3037
國會	-10.3039
之後喺	-10.304
洪	-10.3042
綠色	-10.3042
呈	-10.3043
主題曲	-10.3044
世界盃	-10.3055
中環	-10.3055
一套	-10.3055
指定	-10.306
厄爾	-10.3065
大埔	-10.3069
載	-10.307
▁至	-10.3073
網民	-10.3076
翼	-10.3078
安省	-10.3083
喜	-10.3088
醫學	-10.309
測試	-10.3091
發音	-10.3096
▁tom	-10.3104
赤	-10.3107
1951	-10.3109
li	-10.3112
森林	-10.3112
算	-10.3116
一部	-10.3117
▁d	-10.3125
租	-10.3132
category	-10.3133
聖經	-10.3135
好難	-10.3144
職業	-10.3149
is	-10.3156
▁gei	-10.3159
功	-10.3162
史上	-10.3163
點知	-10.3172
啦	-10.3175
基於	-10.318
ros	-10.3182
發動	-10.3183
喺美國	-10.3194
愛爾蘭	-10.3195
私人	-10.3201
京	-10.3206
肥	-10.3207
孔	-10.3208
趙	-10.3209
右	-10.3215
階段	-10.3233
統計	-10.3234
禁止	-10.3234
年加入	-10.3235
徂	-10.324
▁x	-10.3241
麻	-10.3246
搞咗	-10.3248
幹	-10.3257
枝	-10.3258
tin	-10.3261
1956	-10.3262
ry	-10.3271
股	-10.3274
薄	-10.3281
收到	-10.3282
開辦	-10.3285
示威者	-10.3285
字母	-10.329
簡單	-10.3294
麵	-10.3294
茲	-10.3297
兩人	-10.3299
人口約莫	-10.33
以後	-10.33
一世	-10.3302
退	-10.3304
瓜	-10.3304
號係公曆年嘅第	-10.3316
額	-10.3319
氣候	-10.332
稱呼	-10.3335
一名	-10.334
白色	-10.3343
入侵	-10.3347
sc	-10.3353
噉𠻺	-10.3354
西面	-10.3368
羅馬	-10.3368
有超過	-10.3368
bo	-10.3368
改善	-10.3368
未有	-10.3369
西邊	-10.3373
,1993	-10.3375
1955	-10.3381
其實係	-10.3386
窗	-10.3388
▁chan	-10.3388
羊	-10.3391
四年	-10.3397
碟	-10.3405
兒童	-10.3407
1937	-10.3409
zi	-10.3411
唐人	-10.3413
蟹	-10.3417
收購	-10.3425
▁至於	-10.3428
無論	-10.3429
39	-10.3433
來往	-10.3433
徑	-10.3434
巷	-10.3436
1954	-10.3437
係法國共和曆入面每年嘅第	-10.344
盧華爾山谷嘅	-10.344
體育館	-10.3442
▁而喺	-10.3446
▁然而	-10.345
輸出	-10.3451
用到	-10.3458
▁fu	-10.3463
畀佢	-10.3467
3)	-10.3468
質量	-10.3468
冇得	-10.3471
聲稱	-10.3475
▁安	-10.3478
翻譯	-10.3485
十年	-10.3487
組成嘅	-10.3492
相似	-10.3494
人工	-10.3495
▁長	-10.3496
第啲	-10.3496
影片	-10.3496
等嘅	-10.3502
阿爾代什	-10.3503
燕	-10.3505
嘅設計	-10.3517
sa	-10.352
科學家	-10.3524
:"	-10.3527
佢個	-10.3529
運動員	-10.353
ca	-10.3536
沙田	-10.3538
120	-10.354
▁daai	-10.3543
錫	-10.3548
▁lam	-10.355
漢字	-10.3554
遇到	-10.3554
用途	-10.3554
記載	-10.3561
儀式	-10.3564
職	-10.3565
蒙	-10.3568
男女	-10.3572
gwok	-10.3574
菲律賓	-10.3575
教練	-10.3575
賓	-10.358
繼承	-10.3583
特色	-10.3584
刺激	-10.3587
穩定	-10.3592
發現咗	-10.3593
確定	-10.3594
掛	-10.3596
ve	-10.36
so	-10.3602
西部	-10.3611
條約	-10.3612
基本上	-10.3615
月份	-10.362
都喺	-10.362
足球	-10.3621
物件	-10.3627
,2012	-10.3629
王國	-10.3633
▁game	-10.3636
只要	-10.3636
嚟到	-10.3637
海拔	-10.3639
大會	-10.364
返去	-10.3641
類型	-10.3643
或者叫	-10.3644
球場	-10.3645
紀	-10.3645
治療	-10.3646
形象	-10.3647
可以係	-10.3647
固定	-10.3649
37	-10.3659
秦	-10.3664
ly	-10.3665
有冇	-10.3669
褲	-10.3675
▁park	-10.3676
其餘	-10.3678
碎	-10.3681
全世界	-10.3684
1920	-10.3685
機會	-10.3686
tai	-10.3687
物理	-10.3692
夜晚	-10.3693
微	-10.3696
港鐵	-10.3696
係咪	-10.3697
一部份	-10.3699
▁tong	-10.3706
地面	-10.3708
▁目前	-10.3709
搬到	-10.3712
山區	-10.3713
貝	-10.3718
考試	-10.372
佔地	-10.3725
工具	-10.3736
拒絕	-10.3737
嘅一部分	-10.374
禁	-10.3741
啫	-10.3744
程度	-10.3744
廢	-10.3746
半島	-10.3751
lt	-10.3752
唔係年年	-10.3753
鶯	-10.3755
▁qara	-10.3757
埃羅	-10.3757
健	-10.3758
▁saan	-10.3759
1947	-10.3759
嘅地區	-10.3761
▁眼	-10.3773
鼓	-10.3776
按照	-10.3778
構成	-10.3787
批	-10.3787
鼓勵	-10.3788
校長	-10.3792
添	-10.3793
新會	-10.3793
並唔	-10.3795
同意	-10.3796
活	-10.3796
q	-10.3799
加爾	-10.38
非洲	-10.38
引發	-10.3806
觀察	-10.3808
運輸	-10.3812
ː	-10.3815
往返	-10.382
司職守門員	-10.3821
齋	-10.3822
動作	-10.3822
畫家	-10.3825
の	-10.3826
勢力	-10.3826
▁gong	-10.3829
特別係	-10.383
急	-10.3831
▁佢亦係	-10.3841
鄧	-10.3842
朗	-10.3843
發起	-10.3844
並唔係	-10.386
代替	-10.3863
容	-10.3869
▁1980	-10.3871
示威	-10.3877
ar	-10.3877
釐米	-10.3879
▁1990	-10.388
乃	-10.3883
買咗	-10.3887
患者	-10.3893
五個	-10.3893
成爲	-10.3895
ic	-10.3898
邀請	-10.3899
公元前	-10.39
裕	-10.3902
楚	-10.3907
教堂	-10.3907
do	-10.3912
咗好多	-10.3917
收入	-10.3923
鼻	-10.393
兩個人	-10.3931
衛	-10.3933
推行	-10.3941
個鐘	-10.3946
▁截至	-10.3947
自殺	-10.3953
當日	-10.3954
輸	-10.3958
出身	-10.3959
總理	-10.3962
簡	-10.3966
佔領	-10.3972
煮	-10.3972
go	-10.3976
▁對於	-10.398
煙	-10.3984
ce	-10.3985
–	-10.3987
哈	-10.3988
▁tin	-10.399
宇宙	-10.3992
又話	-10.3997
從事	-10.4
譜	-10.4008
腰	-10.4015
凍	-10.4015
沙藍特	-10.4017
煲	-10.402
東邊	-10.4022
南韓	-10.4023
前往	-10.4024
600	-10.4025
▁...	-10.4028
並冇	-10.4034
集會	-10.4034
咭	-10.4034
第二次	-10.4036
嚿	-10.4036
蝦	-10.4036
鍾	-10.4037
文章	-10.4038
臺北	-10.404
雜	-10.404
▁心	-10.4044
黑色	-10.4044
演算法	-10.4057
堡	-10.4066
屯門	-10.4075
基礎	-10.4077
主題	-10.4077
冠	-10.4078
藝名	-10.4078
宏	-10.4079
加強	-10.4086
徐	-10.4089
交易	-10.4092
隔籬	-10.4092
港產片	-10.4093
基地	-10.4096
山脈	-10.4097
1977	-10.4101
惡	-10.4102
▁雙	-10.4102
▁因此	-10.4104
德龍	-10.411
自動	-10.4112
成立咗	-10.4114
瑪	-10.4116
前身係	-10.4118
南北	-10.412
▁faa	-10.4125
隸屬	-10.4147
故	-10.4148
壓力	-10.415
殿	-10.415
雙方	-10.4153
帝國	-10.4155
收費區	-10.4155
準	-10.4157
嘅做法	-10.4157
講到	-10.4163
di	-10.4164
食物	-10.4165
現	-10.4168
同一個	-10.417
舉	-10.4171
扮	-10.4173
ld	-10.4176
噉解	-10.4179
員工	-10.4187
怪	-10.4188
▁zung	-10.4188
領導	-10.419
阿爸	-10.4201
拆	-10.4207
劍	-10.421
有兩個	-10.421
團隊	-10.4221
的士	-10.4222
倫敦	-10.4232
愛情	-10.4235
專	-10.4237
)、《	-10.425
郎	-10.4252
侯	-10.4253
往往	-10.4259
慶祝	-10.4268
會將	-10.427
村民	-10.427
溫度	-10.4271
通常會	-10.4273
係一套	-10.428
錦	-10.4281
▁拉	-10.4281
降	-10.4292
▁陳	-10.4298
嘅歷史	-10.4299
一張	-10.4302
做緊	-10.4303
瑞	-10.4304
棍	-10.4306
帶有	-10.4307
嘅語言	-10.4314
俊	-10.4316
水平	-10.4317
女子	-10.432
搬去	-10.4323
複雜	-10.4333
▁bou	-10.4336
伊勒	-10.4338
大道	-10.4343
幫助	-10.4347
好快	-10.4359
意外	-10.4363
▁love	-10.4367
生存	-10.437
敏	-10.4371
▁j	-10.4374
,1994	-10.4374
係有	-10.4375
簽	-10.4375
daai	-10.4378
1941	-10.4391
放棄	-10.4396
依然	-10.4409
戲劇	-10.4411
▁嘩	-10.4413
殼	-10.4423
嘅第	-10.4427
啲嘢	-10.4433
銅	-10.4438
農業	-10.444
有時會	-10.4445
珠江	-10.4446
閣	-10.4446
魔	-10.4453
庭	-10.4456
ra	-10.4458
蓮	-10.4458
地名	-10.4464
鳳	-10.4466
1961	-10.4472
貼	-10.4476
+2	-10.4477
係中華人民共和國	-10.4479
表面	-10.4486
遊行	-10.4487
顏色	-10.4487
月開始	-10.4489
維萊訥	-10.449
出名嘅	-10.4494
朝廷	-10.4502
名單	-10.4508
聽到	-10.4511
普通	-10.4515
豪	-10.4519
呢首歌	-10.4521
無法	-10.4522
香港島	-10.4523
▁sai	-10.4523
收費	-10.4528
前面	-10.4529
移動	-10.453
唔能夠	-10.4531
復	-10.4533
所謂	-10.4534
定係	-10.4534
但係佢	-10.4535
醫療	-10.4539
政治人	-10.4539
改做	-10.4542
已經有	-10.4543
日後	-10.455
經歷	-10.4561
琴	-10.4565
1952	-10.4569
冷	-10.457
事業	-10.4573
▁下	-10.4573
若果	-10.4574
寫成	-10.4577
個位	-10.4587
犯	-10.4591
sun	-10.4592
當地嘅	-10.4592
嘅活動	-10.4599
許浚	-10.46
作爲	-10.4601
分開	-10.4606
均	-10.4607
之類	-10.461
ia	-10.4612
公園之一	-10.4612
號成立	-10.4619
藝	-10.462
▁生	-10.4626
天主教	-10.4627
陸	-10.4637
地點	-10.4637
唔識	-10.465
冬	-10.4652
柴	-10.4659
忠	-10.4663
祥	-10.4663
嘅一部份	-10.4667
南海	-10.4682
吹	-10.4682
襲擊	-10.4691
葡萄牙	-10.4693
號由	-10.4695
伊朗	-10.4701
才	-10.4707
農	-10.4708
鹹	-10.4713
大明	-10.4716
大細	-10.4723
地圖	-10.4725
賭場	-10.4725
壽	-10.4727
月底	-10.4728
佢做	-10.473
欄	-10.4731
住宅	-10.4732
膽	-10.4737
電臺	-10.4738
拼音	-10.4743
四川	-10.4754
題	-10.4756
報道	-10.4758
瑞士	-10.4765
▁you	-10.4766
嘅車站	-10.477
面對	-10.4771
優	-10.4771
▁1998	-10.4774
簽約	-10.4776
du	-10.478
整成	-10.478
佢響	-10.4782
檯	-10.4784
寒	-10.479
▁反	-10.4794
相反	-10.4795
暗	-10.4797
五年	-10.4801
嘅其中一個種	-10.4803
穿	-10.4807
拖	-10.4814
力量	-10.4815
至今	-10.4819
打擊	-10.4825
帽	-10.4826
一切	-10.4827
進一步	-10.4828
郭	-10.483
傾	-10.4832
濟	-10.4833
揸	-10.4837
亞洲電視	-10.4839
象徵	-10.4843
一邊	-10.4845
展	-10.4845
諸	-10.4845
洗	-10.4845
嘅內容	-10.4848
收錄	-10.4849
指揮	-10.4851
江西	-10.4854
首播	-10.486
性質	-10.486
接觸	-10.486
更新	-10.486
溝	-10.4862
勞	-10.4863
創造	-10.4866
呎	-10.4867
細佬	-10.4867
坑	-10.4877
女歌手	-10.4886
釘	-10.4894
技巧	-10.4898
唱歌	-10.4904
產業	-10.4905
娜	-10.4908
各國	-10.4913
有幾	-10.4924
批准	-10.4926
元朗	-10.4933
耶穌	-10.4934
之內	-10.4939
主教	-10.4941
用家	-10.4942
實現	-10.4942
曆	-10.4946
傳說	-10.4947
浩	-10.495
係意大利	-10.495
身上	-10.4953
喺日本	-10.4954
號起	-10.4958
校舍	-10.4959
▁gaa	-10.4966
▁西	-10.4968
vi	-10.4973
相關嘅	-10.4976
仍	-10.4978
武漢	-10.498
係一位	-10.4981
▁k	-10.4981
同香港	-10.4988
筒	-10.4993
▁coeng	-10.4995
個月	-10.4995
而成	-10.4998
1974	-10.4998
引	-10.5
au	-10.5002
處於	-10.5003
各自	-10.5008
新界	-10.5011
▁清	-10.5014
過身	-10.5016
兩條	-10.5018
建造	-10.5019
令人	-10.5025
評論	-10.5026
濕	-10.5029
um	-10.5031
改用	-10.5037
寬	-10.5038
長江	-10.5039
ˈ	-10.5045
電子遊戲	-10.5046
sy	-10.5052
盛	-10.5053
假設	-10.5055
要用	-10.5056
▁1993	-10.5059
看	-10.5059
係大韓民國嘅一個女藝人同埋歌手	-10.506
棟	-10.5066
saint	-10.5066
辦公室	-10.5069
以嚟	-10.5072
搞嘅	-10.5072
因素	-10.5077
邨	-10.5081
1973	-10.5082
前後	-10.5082
主唱	-10.5086
晉	-10.5089
出現咗	-10.509
模	-10.5093
感染	-10.5095
存	-10.5098
且	-10.5104
起嘅	-10.5104
海軍	-10.5105
天下	-10.5108
▁yan	-10.5109
巴黎	-10.5112
相比	-10.5118
黃色	-10.512
勇	-10.5124
地震	-10.5128
王朝	-10.5128
冇咗	-10.5128
▁re	-10.513
菲尼斯泰爾	-10.5133
99	-10.5139
策略	-10.5145
開賣	-10.5149
競爭	-10.5151
係一間	-10.5152
文明	-10.5152
人數	-10.5153
綜合	-10.5158
入口	-10.516
嘅國家	-10.5165
鼠	-10.5172
殺死	-10.5176
作者	-10.5179
返到	-10.5183
高中	-10.5187
註冊	-10.5187
含	-10.5194
軍人	-10.5195
效果	-10.5197
檢查	-10.5197
毛澤東	-10.5205
故此	-10.5206
陵	-10.5207
昭	-10.5207
ac	-10.5209
閏年第	-10.5212
展示	-10.5217
有效	-10.522
爐	-10.5222
溝通	-10.5229
ji	-10.5229
恆	-10.5235
竇	-10.5236
呢兩個	-10.5237
係香港一個	-10.5243
單車	-10.5244
浪	-10.5244
▁hok	-10.525
隻歌	-10.5256
所以叫	-10.5259
整嘅	-10.5259
呢個詞	-10.5263
攞過	-10.5264
以下	-10.5265
咖啡	-10.5266
供應	-10.5268
有限	-10.5273
舌	-10.5273
通車	-10.5274
經驗	-10.5278
辛	-10.5281
,1988	-10.5284
記憶	-10.5285
洛特	-10.5285
韋	-10.529
菲	-10.5291
成本	-10.5291
唔想	-10.5296
▁lo	-10.5297
慢	-10.5306
救	-10.5307
43	-10.5309
ba	-10.531
唔多	-10.5316
窿	-10.5316
後期	-10.5319
熊	-10.5323
▁正	-10.5327
操作	-10.5327
肺	-10.5338
平面	-10.5339
can	-10.5339
印尼	-10.5354
bb	-10.5369
棋	-10.537
1968	-10.5372
工程師	-10.5372
汁	-10.5373
就開始	-10.5377
中國政府	-10.5378
運用	-10.5378
族羣	-10.538
塘	-10.5382
第五	-10.5384
先可以	-10.5385
過咗	-10.5386
延	-10.5387
喺北京	-10.5389
舞蹈	-10.5392
柏	-10.5393
敵人	-10.5396
歌詞	-10.5398
英格蘭	-10.5403
號線	-10.5405
就由	-10.5406
甘	-10.541
共產黨	-10.5413
▁g	-10.5414
衰	-10.5415
▁半	-10.5421
tu	-10.5422
櫃	-10.5426
紋	-10.543
近年	-10.5432
阿韋龍	-10.5433
旺角	-10.5437
▁ai	-10.5443
提高	-10.5443
旗下嘅	-10.5458
係德國	-10.5462
國民	-10.5467
乘	-10.5469
個女	-10.5471
停止	-10.5472
47	-10.5473
典	-10.5474
都唔會	-10.5475
採取	-10.5475
集中	-10.5476
書院	-10.5476
,1992	-10.5479
lei	-10.5481
火車	-10.5481
聞	-10.5482
私	-10.5483
係一隻	-10.5485
,2010	-10.5485
端	-10.5494
通道	-10.5496
行星	-10.5497
國語	-10.5497
特定	-10.55
運算	-10.5507
萬國碼	-10.5507
hk	-10.551
術	-10.5515
曹	-10.5515
my	-10.5517
lin	-10.5518
,2015	-10.5522
務	-10.5532
年創校	-10.5533
公主	-10.5536
年代初	-10.5542
大堂	-10.5542
涼	-10.5543
泛民主派	-10.5545
中華	-10.5546
瑞典	-10.5546
噉嘅	-10.5554
歐	-10.5555
主任	-10.556
▁mei	-10.5561
▁海	-10.5565
1976	-10.5566
預計	-10.5569
東莞	-10.5569
一定	-10.5569
▁gung	-10.5572
一份	-10.5574
參考	-10.5577
卻	-10.558
臉	-10.5584
國際機場	-10.5584
裝置	-10.5585
・	-10.5586
我是歌手	-10.5588
打算	-10.5589
蔡	-10.5594
sai	-10.5597
改咗	-10.561
以外	-10.5625
你哋	-10.5626
會員	-10.5626
有機會	-10.5627
乙	-10.5631
領土	-10.5632
mac	-10.5634
,2006	-10.5635
富豪	-10.5635
清朝	-10.5644
上面嘅	-10.5651
隻遊戲	-10.5652
賊	-10.5653
出嚟嘅	-10.5657
▁suk	-10.5663
天皇	-10.5666
貞	-10.5667
犬	-10.5669
▁走	-10.567
苑	-10.5671
境內	-10.5672
甜	-10.5676
42	-10.5676
數值	-10.5678
ie	-10.5681
,2014	-10.5682
青少年	-10.5682
裡面	-10.5684
聲母	-10.5685
符合	-10.5687
街市	-10.5691
整咗	-10.5692
就用	-10.5695
負	-10.5697
三大	-10.5701
▁ii	-10.5705
壁	-10.5705
模特兒	-10.5709
震	-10.5709
com	-10.5712
城區	-10.5713
藤	-10.5723
中國嘅	-10.5723
潘	-10.5724
喉	-10.5727
跌	-10.5729
學術	-10.5731
hung	-10.5733
場地	-10.5735
落嚟	-10.5735
多種	-10.574
港交所	-10.5742
些爾	-10.5742
係大韓民國嘅一個男藝人同埋歌手	-10.5743
後者	-10.5743
▁mou	-10.5744
空氣	-10.5746
淡	-10.5759
馮	-10.576
姆	-10.576
,2009	-10.5766
拆咗	-10.5767
係唔係啊	-10.5772
▁san	-10.5772
坊	-10.5782
玻璃	-10.5785
招	-10.5789
or	-10.5793
識得	-10.5795
多咗	-10.5797
修改	-10.5797
攞嚟	-10.5798
緬甸	-10.5801
懷	-10.5803
接收	-10.5803
得返	-10.5805
mo	-10.5806
尊	-10.5812
崗	-10.5815
上升	-10.5816
猶太人	-10.5816
芬	-10.5817
互聯網	-10.582
廣泛	-10.5835
可以話係	-10.5836
君主	-10.5837
1965	-10.5845
立法會	-10.5846
,1986	-10.5847
賀	-10.5848
▁ming	-10.5849
蘇格蘭	-10.5852
大獎	-10.5854
65	-10.5855
冊	-10.5858
ey	-10.586
樂團	-10.5863
刻	-10.5865
萊	-10.5871
姬	-10.5872
係韓國	-10.5877
解散	-10.588
收集	-10.5886
港幣	-10.5887
出面	-10.5888
其他人	-10.5898
爆炸	-10.5899
貴族	-10.5901
消息	-10.5907
習慣	-10.5912
總站	-10.5912
博士	-10.5914
稅	-10.5918
投	-10.5918
運行	-10.592
呢件事	-10.5924
原則	-10.5929
避免	-10.5932
平原	-10.5933
監	-10.5937
父母	-10.5938
▁牛	-10.5938
仲係	-10.5939
文物	-10.594
條路	-10.5948
醬	-10.5949
直播	-10.5951
陰	-10.5952
致	-10.5956
公頃	-10.5957
開心	-10.5959
父	-10.5962
46	-10.5967
病人	-10.5969
阿拉伯文	-10.5971
▁多	-10.5991
目的	-10.5995
▁波	-10.5996
物理學	-10.6002
副主席	-10.6006
芝士	-10.6011
嘅能力	-10.6015
當中嘅	-10.6017
地底	-10.6018
覺	-10.6018
潮	-10.6021
嘩	-10.6023
59	-10.6025
係俄羅斯	-10.6027
拳	-10.6028
代號	-10.6028
舍	-10.6028
河南	-10.6033
遊客	-10.6035
▁唔係	-10.6039
二十	-10.6044
鶴	-10.6047
芭蕾舞	-10.605
嘅現象	-10.6051
中山	-10.6053
對面	-10.6054
海洋	-10.6054
必	-10.6055
通訊	-10.6057
▁qolyazma	-10.6061
▁kufi	-10.6061
對抗	-10.6065
嘅新	-10.6072
倉	-10.6072
以外嘅	-10.6076
出發	-10.6086
略	-10.609
韓	-10.6101
展覽	-10.6103
絕	-10.6106
有得	-10.6106
莉	-10.6111
少少	-10.6115
窄	-10.6115
辭職	-10.6115
以為	-10.6116
髮	-10.6117
人嘅	-10.6117
追	-10.6119
ai	-10.6121
波蘭	-10.6125
公民	-10.6126
灣仔	-10.613
眾	-10.6131
年上畫嘅	-10.6131
游水	-10.6132
情緒	-10.6133
食品	-10.6136
四大	-10.6141
戈雷茲	-10.6142
突破	-10.6145
出去	-10.6147
ka	-10.615
中國人	-10.6152
叫佢做	-10.6156
幫佢	-10.6156
穿過	-10.6165
廣州地鐵	-10.6174
歷	-10.6178
署	-10.6186
山東	-10.6187
登記	-10.6187
差人	-10.6188
市長	-10.619
戰鬥	-10.6191
宇	-10.6192
十三	-10.6193
衝突	-10.6194
鹿	-10.6195
律師	-10.6195
地鐵站	-10.62
客家	-10.6202
範	-10.6204
▁結果	-10.6204
比例	-10.621
原子	-10.6211
小巴	-10.6214
核心	-10.6215
確保	-10.6217
▁家下	-10.622
▁hei	-10.6221
尿	-10.6224
號喺	-10.6224
東南亞	-10.6224
pa	-10.6227
慧	-10.6227
敬	-10.6228
主流	-10.623
α	-10.6232
▁沙	-10.6237
88	-10.6238
▁現時	-10.6238
週年	-10.6239
明星	-10.6242
有咗	-10.6242
交換	-10.6243
特性	-10.6243
心理學	-10.6243
徵	-10.6243
屬下嘅	-10.6243
難以	-10.6244
港口	-10.6246
嘅地位	-10.6249
邊界	-10.6251
美洲	-10.6257
掉	-10.6258
一條馬路	-10.6259
就叫做	-10.626
重未	-10.6265
pe	-10.6265
民進黨	-10.6267
lau	-10.6268
弱	-10.6269
淺	-10.6274
退出	-10.6274
皆	-10.6275
得出	-10.6284
公眾	-10.6285
佢自己	-10.6287
首相	-10.6287
嘅數據	-10.6288
鬧	-10.6289
表明	-10.629
▁go	-10.6291
近代	-10.6291
800	-10.6295
堅	-10.6296
機制	-10.6296
寫咗	-10.6297
錯誤	-10.6298
命令	-10.6299
自稱	-10.63
康塔爾	-10.6307
魏	-10.6309
聚	-10.6311
生果	-10.6311
兩位	-10.6312
貨幣	-10.6313
迫	-10.6314
太平洋	-10.6316
1975	-10.6317
▁手	-10.632
5;	-10.632
分別喺	-10.633
,2004	-10.633
▁fo	-10.6333
律	-10.6337
生成	-10.6339
粗	-10.6339
榜	-10.6339
澳	-10.634
齒	-10.6344
誠	-10.6352
ze	-10.6354
西藏	-10.6357
注意	-10.6358
顧問	-10.6359
摩	-10.6365
樓係	-10.6366
檔案	-10.6366
以來	-10.637
違反	-10.6377
咁解	-10.6378
阿富汗	-10.638
▁南	-10.6386
‧	-10.639
前後總共	-10.639
相當於公元	-10.6393
管轄	-10.6394
去做	-10.6395
整體	-10.64
▁keoi	-10.6403
▁limited	-10.6403
訂	-10.6408
奉	-10.6408
辭	-10.6411
一系列	-10.6415
研究所	-10.6418
▁神	-10.6419
行業	-10.642
聯賽	-10.6421
張學友	-10.6432
係第	-10.6437
龜	-10.6438
即時	-10.6445
旅客	-10.6448
▁fung	-10.6448
架生	-10.6449
歷史上	-10.6456
芳	-10.6457
女仔	-10.6465
戥	-10.6469
▁playground	-10.6474
simsun	-10.6475
6),	-10.6476
沖	-10.648
以色列	-10.6481
邏輯	-10.6481
天氣	-10.6482
門口	-10.6488
北方	-10.6491
▁club	-10.6492
,1995	-10.6494
▁lau	-10.6495
維修	-10.6497
da	-10.6502
航	-10.6505
證據	-10.6508
分成	-10.6509
一詞	-10.6509
促進	-10.651
路口	-10.6512
▁橫	-10.6522
怕	-10.6522
肯	-10.6526
機械人	-10.6528
民國	-10.653
最高嘅	-10.6531
帶住	-10.6531
1962	-10.6531
西洋	-10.6532
中原	-10.6533
now	-10.6534
荃灣	-10.6535
挪威	-10.654
月初	-10.6546
以北	-10.6555
▁1996	-10.6555
嘅重要	-10.6556
同時亦	-10.6557
兼且	-10.6557
嘅講法	-10.6558
▁雞	-10.656
land	-10.6566
享年	-10.6567
商品	-10.6568
司機	-10.6571
▁lee	-10.6577
胸	-10.6582
▁誒	-10.6583
陶	-10.6586
落成	-10.6591
財	-10.6593
𡃉喇	-10.6595
72	-10.6611
墨西哥	-10.6613
▁平	-10.6617
ation	-10.6621
sing	-10.6621
已經喺	-10.6622
皇家	-10.6625
丙	-10.6625
甩	-10.6626
用於	-10.6628
東亞	-10.6633
撞	-10.6637
奈	-10.6641
嘅城市	-10.6642
一致	-10.6645
一部分	-10.6647
可以用嚟	-10.6651
息	-10.6654
背景	-10.6657
跳舞	-10.6658
▁個站	-10.666
兜	-10.6661
1925	-10.6663
景區	-10.6665
本名	-10.6665
土耳其	-10.6666
非法	-10.6668
上去	-10.6673
練	-10.6675
梨	-10.6676
變得	-10.6676
資格	-10.6678
犯罪	-10.6678
照顧	-10.6679
立場	-10.6682
早喺	-10.6684
鋼	-10.6684
啟	-10.6687
堅持	-10.6688
車身	-10.6688
日本人	-10.6693
軒	-10.6693
大過	-10.6694
海南	-10.6695
金融	-10.6697
訊號	-10.6698
▁張	-10.6701
內地	-10.6702
▁豬	-10.6703
供	-10.6708
少年	-10.6716
分做	-10.6718
減	-10.6722
一塊	-10.6723
分享	-10.6725
祭	-10.6726
主持人	-10.6727
職員	-10.6728
取得	-10.6728
sam	-10.6729
1940	-10.6732
提到	-10.6735
男性	-10.6736
音樂人	-10.6737
進攻	-10.6741
沈	-10.6742
▁centre	-10.6744
3),	-10.6746
▁失	-10.6746
警	-10.6747
首歌	-10.6748
告	-10.6749
揚	-10.675
循環	-10.6753
華語	-10.6755
?」	-10.6755
一支	-10.6759
dung	-10.676
體系	-10.6768
▁sin	-10.677
贏出	-10.6772
浙江	-10.6773
宿	-10.6774
嘉賓	-10.6774
son	-10.6775
▁waa	-10.6775
意見	-10.6779
陸軍	-10.678
供奉	-10.6781
乸	-10.6788
來源	-10.6788
開通	-10.679
95	-10.6791
肚	-10.6797
道教	-10.6797
規模	-10.6797
▁dung	-10.6802
▁1949	-10.6804
耀	-10.6805
奧運	-10.6805
信仰	-10.6805
分支	-10.6805
評	-10.6809
嘅功能	-10.681
苗	-10.6811
進化	-10.6815
元年	-10.6815
女神	-10.6817
晌	-10.6817
真正	-10.6821
史稱	-10.6822
第二季	-10.6822
南方	-10.6823
男子	-10.6823
▁隨住	-10.6826
掂	-10.6827
里	-10.6827
每次	-10.6828
喺翡翠臺播	-10.6829
嗰種	-10.6834
,1997	-10.6836
小姐	-10.6848
▁jyu	-10.6852
,1998	-10.6852
聲音	-10.6855
一對	-10.6856
創辦人	-10.6858
at	-10.6859
移	-10.6866
事實	-10.6868
▁佢同	-10.6869
投訴	-10.6871
機關	-10.6873
爭取	-10.6873
另	-10.6874
銷售	-10.6877
扣	-10.6878
同一	-10.6881
係香港嘅	-10.6883
▁na	-10.6884
量度	-10.6887
墨	-10.6888
平時	-10.6892
暴力	-10.6893
對佢	-10.6893
▁後尾	-10.6894
不如	-10.6897
,2013	-10.6898
又會	-10.6899
碧	-10.6899
小時	-10.69
碳	-10.6901
噸	-10.6903
第二個	-10.6904
睇下	-10.6905
舒	-10.6905
microsoft	-10.6905
鎖	-10.6906
沿	-10.6906
▁二	-10.6906
物業	-10.6916
糧	-10.6925
籠	-10.6926
隨後	-10.6926
石油	-10.6929
所以就	-10.6935
烈	-10.6939
敎	-10.6944
津	-10.6945
狂	-10.6947
平民	-10.6949
聯合國	-10.6955
積極	-10.6955
壞	-10.6955
皇后	-10.6956
,2005	-10.6958
注	-10.6958
▁自從	-10.6966
號夜晚	-10.6967
外交	-10.6968
奧地利	-10.697
尤其	-10.6971
阿爾卑斯	-10.6975
下降	-10.6975
乳	-10.6976
石頭	-10.6977
賴	-10.6978
小組	-10.6978
▁co	-10.6981
動物園	-10.6983
認識	-10.6985
」),	-10.6985
現任	-10.6988
審查	-10.6989
太多	-10.6989
任命	-10.6992
it	-10.6992
係澳門	-10.6992
分裂	-10.6994
藍色	-10.6994
廣州嘅	-10.6994
二世	-10.6995
教師	-10.6995
,2008	-10.6995
末	-10.6995
1957	-10.6996
宜	-10.6997
虛	-10.6998
,1987	-10.7001
豐富	-10.7003
法院	-10.7006
ary	-10.7008
東西	-10.7011
編輯	-10.7013
脈	-10.7015
丘	-10.7015
歲嘅	-10.7016
活躍	-10.7017
高速公路	-10.7017
帶領	-10.7018
,1996	-10.7019
幼	-10.7021
印刷	-10.7022
另一方面	-10.7024
上下	-10.7024
公斤	-10.7028
填	-10.7035
體驗	-10.7036
被視為	-10.7036
互動	-10.7039
風暴	-10.7041
談	-10.7042
年開張	-10.7044
▁茶	-10.7047
樂器	-10.7048
▁巴	-10.7051
dj	-10.7052
係馬來西亞	-10.7057
返來	-10.7057
開頭	-10.7058
實際上	-10.7061
留低	-10.7062
嘅狀態	-10.7063
興起	-10.7064
研發	-10.7067
安裝	-10.7068
大眾	-10.7068
嘅傳統	-10.7071
掣	-10.7072
,2011	-10.7074
as	-10.7075
哲	-10.7076
▁world	-10.7077
一組	-10.7079
醒	-10.7079
課	-10.7081
警告	-10.7082
倍	-10.7083
十五	-10.7083
▁m	-10.7092
▁鐵	-10.7093
大街	-10.7094
])	-10.7097
警員	-10.7099
證實	-10.7102
▁college	-10.7103
呢樣嘢	-10.7105
年創立	-10.7106
1971	-10.7108
rt	-10.7113
刺	-10.7119
內閣	-10.7121
zung	-10.7122
窮	-10.7122
▁依家	-10.7125
獨	-10.7134
一粒	-10.7138
環節	-10.7138
丸	-10.7138
上邊	-10.7142
1934	-10.7143
育	-10.7143
顯	-10.7144
通常都係	-10.7151
第一屆	-10.7154
並由	-10.7154
be	-10.7155
▁烏	-10.7156
重視	-10.7158
翠	-10.7158
人稱	-10.716
700	-10.7165
天然	-10.7166
曹操	-10.7166
▁mun	-10.7167
鴻	-10.7168
判	-10.7168
職務	-10.7169
銅鑼灣	-10.717
參	-10.7172
▁syu	-10.7172
>	-10.7173
一架	-10.7178
52	-10.7178
成長	-10.718
攻	-10.7181
任教宗	-10.7187
陸續	-10.7188
▁飛	-10.7188
類別	-10.7188
▁1970	-10.7189
吧	-10.7189
節奏	-10.7191
飲食	-10.7198
▁佢響	-10.7199
▁group	-10.7202
發達	-10.7207
擊	-10.721
人生	-10.7212
兩者	-10.7216
▁wu	-10.7217
喺上海	-10.7217
嘅遊戲	-10.7217
皮膚	-10.7218
威脅	-10.7218
對象	-10.7219
番禺	-10.7222
被稱為	-10.7226
▁hoi	-10.7228
賭	-10.7229
王子	-10.7229
特登	-10.7229
評估	-10.7236
錄音	-10.7236
海峽	-10.7242
▁火	-10.7242
▁口	-10.7244
駁	-10.7245
畀咗	-10.7246
追求	-10.7246
不滿	-10.7247
停車場	-10.7251
法官	-10.7251
仲會	-10.7253
冇辦法	-10.7256
改造	-10.726
常見	-10.726
最近	-10.7261
1933	-10.7262
──	-10.7264
,2021	-10.7264
死後	-10.7265
個出入口	-10.7266
os	-10.7267
氣體	-10.727
裝飾	-10.7279
常見嘅	-10.7281
」,「	-10.7285
▁之不過	-10.7285
56	-10.7287
荷	-10.7287
打仗	-10.7287
第二日	-10.729
殺咗	-10.7291
祕密	-10.7296
鄉下	-10.7297
係佢	-10.7298
亦即	-10.7302
就冇	-10.7305
▁我	-10.7307
標誌	-10.7307
盒	-10.7312
緣	-10.7316
殖民地	-10.7316
企	-10.7321
形態	-10.7323
泛指	-10.7323
字形	-10.7323
危險	-10.7324
號凌晨	-10.7325
▁係咩	-10.7327
境	-10.7327
▁no	-10.7338
劃	-10.7339
側	-10.7341
到而家	-10.7342
轆	-10.7343
蒙古	-10.7347
大規模	-10.7351
1928	-10.7351
缺乏	-10.7355
誤	-10.7355
尚	-10.7356
之上	-10.7359
同學	-10.7359
44	-10.7362
長度	-10.7366
one	-10.7366
比起	-10.7369
喺呢度	-10.737
年後	-10.737
信徒	-10.7374
伍	-10.7382
網頁	-10.7384
彭	-10.7384
顧	-10.7385
旅行	-10.7389
▁公	-10.739
玩具	-10.739
,2000	-10.7397
創	-10.7402
michael	-10.7404
退役	-10.7406
嘅結果	-10.7407
滑	-10.7413
唱片公司	-10.7414
抽	-10.7421
源於	-10.7422
ville	-10.7423
努力	-10.7426
益	-10.7427
時任	-10.7427
裏面嘅	-10.743
軸	-10.7431
感覺	-10.7432
己	-10.7436
香港警察	-10.7437
畫面	-10.7438
cct	-10.7447
個腦	-10.7449
變做	-10.7453
嘅香港	-10.7453
ko	-10.7458
都係由	-10.7462
,2018	-10.7466
代理	-10.7469
▁international	-10.747
通知	-10.7475
好好	-10.7476
哩啲	-10.7478
合唱	-10.748
湖南	-10.7491
完整	-10.7494
藝術家	-10.7494
重點	-10.7495
紐西蘭	-10.7496
浮	-10.7496
,1980	-10.7497
合成	-10.7502
▁倒	-10.7504
萬張	-10.7505
篤	-10.7513
承	-10.7514
仔女	-10.7514
走咗	-10.7516
珠海	-10.7516
嘅代表	-10.7517
▁dak	-10.7518
不可	-10.7519
棒	-10.752
▁p	-10.7521
道德	-10.7522
主要喺	-10.7527
颱風	-10.7528
即使	-10.7528
符	-10.7529
撐	-10.753
ton	-10.7532
等星	-10.7537
牛肉	-10.7541
裝備	-10.7541
環保	-10.7541
康熙部首	-10.7542
議席	-10.7542
普羅旺斯	-10.7544
校園	-10.7546
護	-10.7549
平衡	-10.7552
就已經	-10.7553
朝早	-10.7554
認	-10.7557
獎項	-10.7559
否認	-10.7563
詞彙	-10.7567
視為	-10.757
分配	-10.7574
防止	-10.7574
卓	-10.7574
少數	-10.7578
gu	-10.7579
戰役	-10.758
態	-10.758
年推出	-10.7581
佩	-10.7581
古時	-10.7581
本土	-10.7582
喺佢	-10.7582
手機	-10.7584
係巴西	-10.7591
給	-10.7592
參加過	-10.7593
列入	-10.7594
遺址	-10.7596
伊拉克	-10.76
物體	-10.76
譚	-10.7601
繩	-10.7603
岡	-10.7604
消費者	-10.7605
剛	-10.7605
保障	-10.7608
cy	-10.7608
係中國廣東廣州嘅	-10.7608
▁睇	-10.7609
赫	-10.7609
委員	-10.7609
接任	-10.7612
艦	-10.7619
奪	-10.7621
呼籲	-10.7624
嘅機會	-10.7625
意識	-10.7626
公共	-10.7628
確認	-10.7629
呢隻	-10.763
主辦	-10.763
係羅馬天主教第	-10.7636
擴張	-10.7636
卡勒茲	-10.7636
係日本嘅一個女演員	-10.7636
大仔	-10.7636
答	-10.7636
馬來話	-10.7639
星座	-10.764
瞓	-10.7643
1936	-10.7644
new	-10.7652
英軍	-10.7652
2),	-10.7653
粒子	-10.7654
返工	-10.7656
ga	-10.7656
放喺	-10.7665
恆星	-10.7665
速	-10.7672
嘅定義	-10.7675
1959	-10.7676
穆	-10.7677
▁你	-10.7679
▁tau	-10.768
肝	-10.7681
保存	-10.7682
呂	-10.7682
亦即係	-10.7684
六年	-10.7687
iv	-10.7692
言論	-10.7698
腔	-10.7698
▁石	-10.7699
直徑	-10.77
▁music	-10.7704
又可以	-10.7706
佢又	-10.7708
▁聖	-10.7708
и	-10.7709
桑	-10.7711
嘅音樂	-10.7716
擴大	-10.7717
臺北市	-10.7721
撈	-10.7721
月至	-10.7723
火車站	-10.7723
後衞	-10.7725
一直到	-10.7725
柄	-10.7727
凱	-10.7728
嘅一條馬路	-10.7729
年嘅美國係介紹美國喺	-10.7731
效應	-10.7732
週期	-10.7734
作戰	-10.7735
ling	-10.7738
,1984	-10.7739
明朝	-10.7739
一件	-10.7742
例子	-10.7748
智能	-10.7751
▁青	-10.7754
發布	-10.7754
▁19	-10.7758
迷	-10.776
家陣	-10.7761
定居	-10.7764
上市	-10.7771
江蘇	-10.7772
講法	-10.7774
聯絡	-10.7782
繁殖	-10.7782
自治	-10.7782
大致	-10.7783
po	-10.7786
des	-10.7786
女演員	-10.7792
▁1995	-10.7795
衝	-10.7798
▁行政上歸	-10.78
然而	-10.7801
選手	-10.7802
▁澳門	-10.7806
嘅資訊	-10.7806
人權	-10.7807
快速	-10.7807
個樣	-10.7808
路段	-10.7808
水塘	-10.7808
增長	-10.781
音樂製作人	-10.781
linux	-10.781
james	-10.7811
研究者	-10.7812
比利時	-10.7812
tv	-10.7814
都市	-10.7814
最早嘅	-10.7815
▁o	-10.7815
廣州話	-10.7815
架車	-10.7816
正面	-10.7821
wan	-10.7825
因應	-10.7826
鶥	-10.7827
天津	-10.7829
消失	-10.7831
歡迎	-10.7831
執	-10.7834
膜	-10.7838
性格	-10.784
con	-10.7844
案件	-10.7845
手上	-10.7847
市中心	-10.7849
漢語	-10.7851
巨	-10.7857
拎	-10.7857
之前嘅	-10.7863
夫人	-10.7865
數學家	-10.7868
年參加	-10.787
啟用	-10.7871
年代開始	-10.7871
▁do	-10.7873
加咗	-10.7875
檳城	-10.7876
安徽	-10.7877
從此	-10.7878
讀者	-10.788
嘅原因	-10.788
個站	-10.7887
▁細	-10.7887
阻止	-10.7888
78	-10.7894
居住	-10.7894
推薦	-10.7895
牌子	-10.7899
預測	-10.7899
投降	-10.79
珍	-10.79
鷹	-10.79
▁po	-10.7901
奴	-10.7904
一般係	-10.7904
婦女	-10.7904
葛	-10.7905
任職	-10.7905
寫做	-10.7907
david	-10.7907
消費	-10.791
第一季	-10.7916
▁ruby	-10.7919
冚唪唥	-10.7919
渡	-10.792
業主	-10.7922
祠堂	-10.7927
羣體	-10.7927
!」	-10.7928
斑	-10.7931
清楚	-10.7932
施工	-10.7937
程式語言	-10.794
▁除此之外	-10.7942
區議員	-10.7948
佛山	-10.7952
麻雀	-10.7953
就響	-10.7954
號發現	-10.7957
聲調	-10.7958
湖北	-10.7958
彎	-10.796
定理	-10.7961
脫	-10.7963
疫情	-10.7966
▁頭	-10.7967
粥	-10.7969
▁gou	-10.7969
號朝早	-10.797
基因	-10.797
重可以	-10.7972
觀點	-10.7973
填海	-10.7975
鎮壓	-10.7976
58	-10.7978
俗	-10.7979
規範	-10.7981
參賽	-10.7985
兩隻	-10.7994
脫離	-10.7998
文獻	-10.8
蒂	-10.8
盟	-10.8
75	-10.8006
冬天	-10.8013
人口大約	-10.8014
振	-10.8017
香港電臺	-10.802
利益	-10.8022
全民造星	-10.8022
國家同地區頂級域	-10.8022
揀咗	-10.8025
垃圾	-10.8029
年電影	-10.8029
▁gaai	-10.8029
大嶼山	-10.8029
對外	-10.8031
▁出	-10.8034
連住	-10.8037
高速	-10.804
錶	-10.8041
net	-10.8043
▁聽	-10.8046
跨	-10.8048
總部喺	-10.806
理想	-10.8062
所以喺	-10.8063
昆蟲	-10.8064
game	-10.8067
做出	-10.8067
ha	-10.8068
傳統嘅	-10.807
圖案	-10.807
字典	-10.8073
鳴	-10.8076
衞	-10.8078
53	-10.8079
都係用	-10.8079
夏天	-10.8082
特殊	-10.8088
芝	-10.8091
指控	-10.8092
入圍	-10.8093
熙	-10.8096
超級	-10.8098
講嘅	-10.8098
▁西邊從	-10.81
演奏	-10.81
鑊	-10.8101
▁一般嚟講	-10.8103
街坊	-10.811
,1979	-10.8112
有關嘅	-10.8112
流動	-10.8112
擔心	-10.8112
舉辦嘅	-10.8113
街頭	-10.8114
皆因	-10.8115
月成立	-10.8116
十八	-10.8119
人工智能	-10.812
上歌斯嘉	-10.812
祿	-10.8121
年期間	-10.8125
▁佢相對應嘅唐字係	-10.8125
時候	-10.8126
佢亦	-10.8126
被迫	-10.8127
轉寫	-10.8128
地理	-10.8128
又寫做	-10.8135
綱	-10.8136
重要嘅	-10.8139
民歌	-10.8141
喺中國大陸	-10.8143
部長	-10.8145
▁收	-10.8146
採	-10.8147
投入	-10.8149
搶	-10.815
▁外	-10.8151
ge	-10.8152
阿根廷	-10.8157
大約有	-10.8159
佢有	-10.8161
刑	-10.8162
官話	-10.8164
幾何	-10.8164
sip	-10.8166
山頂	-10.8166
最先	-10.8166
旁	-10.817
鏡頭	-10.8176
▁另一方面	-10.8183
▁熱	-10.8186
▁wo	-10.8186
重複	-10.819
選民	-10.8192
▁maa	-10.8193
有條	-10.8196
御	-10.82
所謂嘅	-10.8201
一本	-10.8203
擊敗	-10.8206
省城	-10.8207
久	-10.8208
49	-10.821
250	-10.821
覆蓋	-10.821
兆	-10.8211
以東	-10.8211
思考	-10.8212
責任	-10.8212
但因為	-10.8214
蕭	-10.8214
到達	-10.8217
嗰個人	-10.8219
一半	-10.8219
混合	-10.8222
太空	-10.8223
吸收	-10.8223
萬國碼爲	-10.8224
包圍	-10.8225
▁cyun	-10.8226
大佬	-10.8227
側邊	-10.8228
未必	-10.8228
匯	-10.8233
▁東	-10.8236
甚至係	-10.8237
多數都係	-10.8239
形狀	-10.8241
訊息	-10.8242
掌	-10.8243
有所	-10.8244
頻率	-10.8245
54	-10.8248
98	-10.825
軌道	-10.8251
腿	-10.8254
鄰近	-10.8254
▁jing	-10.8255
受試者	-10.8257
祖籍	-10.8258
▁連	-10.826
杭州	-10.8263
住咗	-10.8264
肯定	-10.8265
但係喺	-10.8266
插	-10.8267
好高	-10.8267
係噉	-10.8271
聲明	-10.8272
大臣	-10.8273
舞臺	-10.8276
做法	-10.8282
裡	-10.8282
海邊	-10.8283
爲咗	-10.8285
法庭	-10.8287
拔	-10.8288
術語	-10.829
呢隻歌	-10.8291
只可以	-10.8291
選出	-10.8293
冧	-10.8298
,1999	-10.8299
初頭	-10.8303
鄭秀文	-10.8303
呢條線	-10.8307
提及	-10.8308
合約	-10.831
第六	-10.831
有一	-10.8312
數碼	-10.8313
遇	-10.8316
▁全	-10.8316
▁island	-10.8319
鍋	-10.832
途中	-10.8321
宋朝	-10.8323
測量	-10.8324
伊斯蘭教	-10.8327
▁其後	-10.8329
喺同年	-10.8333
1.5	-10.8333
埃及	-10.8333
▁回	-10.8334
賽季	-10.8336
都會有	-10.8336
呢個概念	-10.8337
su	-10.8339
▁其實	-10.8343
成日都	-10.8346
每一個	-10.8347
係中華民國	-10.8348
電影演員	-10.8351
▁內	-10.8353
年夏季奧林匹克運動會	-10.8355
畫畫	-10.8356
ci	-10.8358
paul	-10.8359
▁v	-10.8368
嘅形式	-10.8368
持	-10.837
▁電	-10.8371
一項	-10.8371
天文	-10.8374
自由黨	-10.8376
主幹道	-10.8377
▁1989	-10.838
年去到	-10.8381
女王	-10.8382
怡	-10.8383
交畀	-10.8386
地區嘅	-10.8392
係香港女演員	-10.8392
微博	-10.8394
個案	-10.8396
▁狗	-10.8396
嘅稱呼	-10.8396
先至可以	-10.8402
部落	-10.8405
香港大學	-10.8406
西貢	-10.8411
持有	-10.8411
▁aa	-10.8412
新疆	-10.8413
張國榮	-10.8413
抵	-10.8413
嘅動物	-10.8416
提出咗	-10.8417
童	-10.8419
國民政府	-10.8422
爵士	-10.8423
適合	-10.8423
哋	-10.8425
▁呢個站一共有	-10.8425
面積有	-10.8426
藥物	-10.8428
財政	-10.843
機器	-10.8433
臭	-10.8433
ri	-10.8435
岸	-10.8436
1938	-10.8436
探索	-10.8436
細菌	-10.8437
,2002	-10.8444
嘅大	-10.8455
無限	-10.8458
▁tung	-10.8463
噉就	-10.8464
保證	-10.8467
喺香港出世	-10.8469
▁放	-10.8474
猛咁	-10.8475
網路	-10.8479
等於	-10.848
▁zai	-10.8481
周邊	-10.8486
修訂	-10.849
亨	-10.8491
生物學	-10.8497
無耐	-10.8498
整數	-10.8498
格式	-10.8499
偏	-10.8506
am	-10.8506
以南	-10.851
浦	-10.8511
nba	-10.8513
籃球場	-10.8514
遜	-10.8514
咀	-10.8515
估	-10.8518
媽媽	-10.852
薑	-10.8522
年代尾	-10.8523
號逢禮拜一到五	-10.8525
起身	-10.8527
拍拖	-10.8529
橫跨	-10.853
太平	-10.8531
領導人	-10.8531
慈	-10.8536
控	-10.8544
願	-10.8547
話係	-10.8549
歸入	-10.855
經濟學	-10.8551
che	-10.8552
城鎮	-10.8553
咁大	-10.8553
轄	-10.8555
整個	-10.8556
大多	-10.8557
炸	-10.8558
呢條	-10.8558
風險	-10.8558
naam	-10.8559
搞掂	-10.856
終	-10.8563
180	-10.8565
做主題	-10.8566
錄製	-10.8567
▁油	-10.8567
江南	-10.8568
相對於	-10.8568
wu	-10.8568
士兵	-10.8569
兩年	-10.857
盆	-10.8571
比較多	-10.8571
正確	-10.8575
嘅學生	-10.8575
戲院	-10.8576
協調	-10.8576
立即	-10.8579
基金會	-10.8581
自行	-10.8581
▁hung	-10.8586
輸咗	-10.8588
▁be	-10.8591
▁落	-10.8597
授權	-10.8599
七年	-10.8599
執政	-10.8603
欣	-10.8605
邊境	-10.8608
fu	-10.8608
嘅路線	-10.8609
聯繫	-10.861
講嘢	-10.861
主人	-10.8611
▁通	-10.8613
有唔同	-10.8617
海灘	-10.8619
1948	-10.8626
葬	-10.8627
嘅樣	-10.8628
主動	-10.863
片段	-10.863
影像	-10.863
提倡	-10.8632
喺英國	-10.8632
身高	-10.8633
統	-10.8635
一級	-10.8635
東面係	-10.8637
小食	-10.8638
罰	-10.8639
但由於	-10.8639
渣	-10.864
題材	-10.8641
開設	-10.8641
高達	-10.8642
天使	-10.8643
名人	-10.8647
下令	-10.8648
通常都	-10.8649
伏	-10.8649
另有	-10.8651
▁乾	-10.8653
疏	-10.8654
▁1994	-10.8654
受傷	-10.8658
玲	-10.8662
1931	-10.8663
▁香	-10.8665
77	-10.8667
連埋	-10.8667
大批	-10.8668
lam	-10.8672
合法	-10.8673
尖沙咀	-10.8675
▁亞	-10.8675
舖頭	-10.8679
引用	-10.868
ti	-10.868
指示	-10.868
措施	-10.8684
困難	-10.8686
一類	-10.8688
液	-10.8688
決賽	-10.8696
▁脫	-10.8696
嗰隻	-10.87
年前	-10.8701
而呢啲	-10.8702
aa	-10.8703
幾年	-10.8707
主要嘅	-10.871
嘅一個屬	-10.8711
▁補	-10.8713
直轄市	-10.8714
採訪	-10.8714
被人	-10.8719
要喺	-10.8719
▁按	-10.8721
至尊寶	-10.8725
個體	-10.8725
耶	-10.8726
吉隆坡	-10.8727
自從	-10.8727
king	-10.8737
被認為係	-10.8738
縮	-10.8741
反抗	-10.8744
世紀初	-10.8745
▁百	-10.8745
已經係	-10.8748
窩	-10.8748
普及	-10.875
▁2022	-10.8752
屍	-10.8752
有可能	-10.8753
抗	-10.8754
西北部	-10.8755
佢會	-10.8756
冇人	-10.876
▁gu	-10.8763
敵	-10.8766
發射	-10.8772
工會	-10.8773
潔	-10.8773
個別	-10.8774
▁=	-10.8777
但就	-10.8779
隋朝	-10.8781
嗱	-10.8782
chi	-10.8783
1919	-10.8788
地址	-10.8789
似乎	-10.8789
隱	-10.879
現實	-10.8791
idae	-10.8795
星雲	-10.8795
完美	-10.88
係印度	-10.8801
只會	-10.8804
mi	-10.8805
吾	-10.8806
每一	-10.8808
黃金	-10.881
後生	-10.8812
質素	-10.8813
建立咗	-10.8816
改名叫	-10.882
墓	-10.8822
儲存	-10.8823
上水	-10.8825
數目	-10.8827
資金	-10.8828
年畀	-10.883
保安	-10.8831
一時	-10.8835
he	-10.8837
呃	-10.8837
同性戀	-10.8838
少數民族	-10.8841
unicode	-10.8844
漏	-10.8845
日常	-10.885
係西班牙	-10.8853
候	-10.886
帕	-10.886
電流	-10.886
奧運會	-10.8867
顏	-10.887
逸	-10.8873
▁係嘞	-10.8877
運動場	-10.8877
菌	-10.8878
900	-10.8878
海上	-10.888
啟動	-10.888
導	-10.8889
判斷	-10.889
生態	-10.8891
根本	-10.8893
做埋	-10.8894
逼	-10.8895
fa	-10.8896
×	-10.8902
習	-10.8903
▁joeng	-10.8904
做生意	-10.8905
姐	-10.8906
嘅電影	-10.8908
嚴	-10.8908
▁1945	-10.8909
老闆	-10.891
親中派	-10.8911
制定	-10.8912
旺	-10.8912
之地	-10.8912
1912	-10.8913
資	-10.8915
▁喫	-10.8917
版權	-10.8919
國道	-10.8922
裂	-10.8926
棚	-10.8927
磚	-10.8928
濱	-10.8928
價格	-10.8929
相當於	-10.893
中國內地	-10.893
贊助	-10.8932
艇	-10.8934
從化	-10.8934
目的係	-10.8936
習近平	-10.894
▁真	-10.8946
牧師	-10.8947
弘	-10.8948
空中客車	-10.895
年間爲日本足球代表隊出場	-10.8951
22:30-23:00	-10.8951
▁diwani	-10.8951
▁esliye	-10.8951
▁kesme	-10.8951
推測	-10.8951
登陸	-10.8951
北半球	-10.8952
透	-10.8953
貴州	-10.8954
(1988	-10.8963
皇室	-10.8966
奪得	-10.8967
▁假	-10.8967
圓形	-10.8968
凡	-10.897
年尾	-10.897
成熟	-10.8971
第一間	-10.8975
唔理	-10.8976
濕地	-10.8979
一人	-10.8983
號下晝	-10.8984
都唔同	-10.8984
潤	-10.8984
累	-10.8985
炎	-10.8985
係香港男演員	-10.8988
gam	-10.899
嘅資料	-10.8991
▁0	-10.8991
法例	-10.8993
▁nei	-10.8995
監督	-10.8997
宣	-10.9
須	-10.9001
穗	-10.9002
怒	-10.9002
甚至喺	-10.901
86	-10.9014
生咗	-10.902
關閉	-10.9023
豬肉	-10.903
前身	-10.9033
蘋果日報	-10.9033
▁or	-10.9034
再用	-10.9035
華南	-10.9038
最少	-10.9041
迅速	-10.9042
一家	-10.9044
約翰	-10.9045
幾次	-10.9051
贏得	-10.9055
即係小行星	-10.9062
下轄	-10.9062
其中有	-10.9062
粵讀	-10.9064
弓	-10.9067
▁爆	-10.9068
世界上	-10.9069
對住	-10.9074
音樂會	-10.9077
走去	-10.9083
▁university	-10.9086
年代係指	-10.9089
輯	-10.909
,1982	-10.909
待	-10.9094
被指	-10.9094
總督	-10.9097
某個	-10.9104
幅	-10.9106
三十	-10.9106
電視節目	-10.9109
女主角	-10.911
▁dai	-10.911
遺	-10.9113
巧	-10.9115
始	-10.9115
流入	-10.9117
扎	-10.9119
一市	-10.912
ian	-10.912
需求	-10.9121
灘	-10.913
亡	-10.913
擴展	-10.913
附	-10.9133
ul	-10.9133
適應	-10.9133
擴建	-10.9134
▁劉	-10.9134
串	-10.9134
頭髮	-10.9136
un	-10.9138
裔	-10.9144
85	-10.9146
勤	-10.9149
測	-10.915
委	-10.915
教區	-10.915
ni	-10.9151
嘅特性	-10.9152
形成咗	-10.9152
而言	-10.9153
蝕	-10.9153
限	-10.9154
都無	-10.9154
▁林	-10.9155
延長	-10.9155
,1983	-10.9157
歌劇	-10.9157
高層	-10.9158
▁世紀	-10.9158
差異	-10.9159
累積	-10.9159
橙	-10.9159
▁chau	-10.916
用嚟做	-10.9161
▁暗	-10.9161
食肆	-10.9165
車輛	-10.9165
寫字樓	-10.9169
幸福	-10.917
發掘	-10.9174
大師	-10.9175
▁轉	-10.9175
綽號	-10.9179
連任	-10.9179
荷蘭文	-10.9184
用過	-10.9186
▁1992	-10.9188
大區	-10.9189
囊	-10.9189
一個市	-10.9193
婚	-10.9194
低過	-10.9194
kam	-10.9196
▁惡	-10.9197
情況下	-10.9198
十分	-10.9199
磨	-10.92
序	-10.9201
製作嘅	-10.9201
壇	-10.9203
幸	-10.9205
▁吊	-10.9206
辣	-10.9208
預料嘅	-10.921
依家嘅	-10.9211
並且喺	-10.9211
加盟	-10.9212
嘅標準	-10.9212
▁單	-10.9212
蘋果	-10.9216
茂	-10.9217
1922	-10.9221
事物	-10.9222
重會	-10.9225
衛生	-10.9227
hr	-10.9227
紐約	-10.9231
具體	-10.9231
好多時都	-10.9234
將領	-10.924
自此	-10.9244
少女	-10.9245
改叫	-10.9251
部電腦	-10.9252
sir	-10.9253
立法會議員	-10.9253
坦	-10.9255
▁等等	-10.9258
始終	-10.9265
打破	-10.9265
▁system	-10.9269
書寫	-10.9269
曾經做過	-10.9275
接手	-10.9275
流傳	-10.9276
羣眾	-10.9279
分數	-10.928
▁運算符	-10.9281
念	-10.9281
隨即	-10.9282
同步	-10.9282
(1993	-10.9283
單一	-10.9284
ak	-10.9284
培訓	-10.9286
繼位	-10.9289
打理	-10.9293
▁company	-10.9298
▁hang	-10.9302
脣	-10.9303
沒	-10.9305
3000	-10.9305
陽光	-10.9306
up	-10.9308
▁冰	-10.9309
,1985	-10.931
跡	-10.931
▁city	-10.9312
出街	-10.9312
退休	-10.9312
夷	-10.9313
取代咗	-10.9314
馬鞍山	-10.9314
51	-10.9314
唯一嘅	-10.9314
博弈	-10.9315
緊急	-10.9318
▁mont	-10.9318
ts	-10.9319
社會主義	-10.9319
香港中文大學	-10.9322
▁tou	-10.9325
晴	-10.9327
戀	-10.9327
(1989	-10.9328
▁通常	-10.9332
成份	-10.9333
一句	-10.9338
變數	-10.9338
害	-10.934
向量	-10.934
會唔會	-10.9341
畢	-10.9345
先會	-10.9349
室內	-10.935
樸	-10.9352
馬英九	-10.9352
martin	-10.9353
介	-10.9355
應付	-10.9356
召開	-10.9356
ism	-10.9357
柯	-10.9358
航空公司	-10.9359
撤銷	-10.936
show	-10.9364
黨員	-10.937
悅	-10.9371
建制派	-10.9374
老公	-10.9374
泡	-10.9375
枱	-10.9379
沉	-10.938
▁翻	-10.938
▁王	-10.9381
ity	-10.9385
生涯	-10.9387
係源自	-10.9387
輻射	-10.9388
▁嗰時	-10.9388
例子有	-10.9389
140	-10.9392
區議會	-10.9392
大賽	-10.9392
續	-10.9393
外界	-10.9394
係大韓民國嘅一個男藝人同埋	-10.9394
幕	-10.9394
培養	-10.9395
▁se	-10.9395
氧化	-10.9397
止	-10.9398
,1974	-10.9403
排名	-10.9405
,1981	-10.9408
南區	-10.941
順利	-10.9411
提議	-10.9421
牌照	-10.9423
無人	-10.9425
屏	-10.9425
▁day	-10.9426
初時	-10.9427
生日	-10.9427
體重	-10.9428
婦	-10.943
(1994	-10.9435
碌	-10.9436
最出名嘅	-10.9437
▁噉𠻺係	-10.9437
▁n	-10.9438
孟	-10.9441
大西洋	-10.9442
ou	-10.9444
信號	-10.9444
騰訊	-10.9445
裏頭	-10.9447
職位	-10.9449
疑	-10.945
貢獻	-10.945
視覺	-10.9451
含有	-10.9451
折	-10.9451
▁sam	-10.9454
賞	-10.9455
視覺藝術	-10.9456
手段	-10.9459
▁推	-10.9459
這	-10.946
叉	-10.9461
三菱	-10.9463
佐	-10.9463
▁魚	-10.9468
320	-10.9469
磅	-10.9469
family	-10.9469
亞軍	-10.947
41	-10.947
性嘅	-10.947
最出名	-10.9471
佐治	-10.9474
don	-10.9476
種類	-10.9476
▁頂	-10.9477
米高	-10.9477
立國	-10.9482
喂	-10.9484
喺九龍	-10.9484
稿	-10.9486
ke	-10.9487
可以做	-10.9492
係將	-10.9492
睇嚇	-10.9492
嘅年代	-10.9494
海域	-10.9496
翻唱	-10.9498
起義	-10.9498
叔	-10.9499
一係	-10.9499
危機	-10.9499
路同	-10.95
咋	-10.9503
係廣州地鐵	-10.9506
家下係地級市	-10.9507
▁輕	-10.9507
▁執	-10.9509
腹	-10.9511
入境	-10.9511
打壓	-10.9512
羽	-10.9517
十一	-10.9518
▁bo	-10.9519
年啟用	-10.9519
觀塘	-10.9526
年創辦	-10.9531
res	-10.9534
樂壇	-10.9535
▁羅	-10.9535
酒樓	-10.9536
堆	-10.9538
俾佢	-10.9541
飛行	-10.9542
死者	-10.9545
長達	-10.9545
1942	-10.9547
屋苑	-10.955
後人	-10.955
1918	-10.9551
號月臺	-10.9551
大選	-10.9552
唔肯	-10.9556
高過	-10.9563
號正式	-10.9564
lu	-10.9566
嶽	-10.9567
嘅效果	-10.9567
海岸	-10.9575
社羣	-10.9579
最後喺	-10.958
沿岸	-10.9585
屬下	-10.9587
1900	-10.9588
債	-10.9589
▁鬼	-10.959
神經	-10.959
砲	-10.9597
1927	-10.9598
模仿	-10.9598
▁雖然話	-10.9598
季節	-10.9599
丹麥	-10.9599
藝員	-10.9603
67	-10.9603
休	-10.9605
損失	-10.9605
立法	-10.9606
jan	-10.9606
61	-10.9606
哲學家	-10.9607
詞曲作家	-10.961
掟	-10.9614
北海道	-10.9616
肌肉	-10.9619
東山	-10.9619
幼稚園	-10.9621
休息	-10.9621
係指一個	-10.9623
路開始	-10.9624
嘅同時	-10.9625
不同	-10.9626
都話	-10.9627
備	-10.9627
主要由	-10.9627
1917	-10.9628
劇情	-10.963
反切	-10.9631
缺	-10.9633
海灣	-10.9633
地產	-10.9634
出過	-10.9634
回歸	-10.9635
銷量	-10.964
資產	-10.9645
學界	-10.9647
有用	-10.9647
▁一般	-10.9647
卦	-10.9649
▁sau	-10.965
法案	-10.965
想要	-10.9651
永遠	-10.9653
絕對	-10.9655
▁古	-10.9655
塵	-10.9659
暫停	-10.9662
嘅書	-10.9663
做主持	-10.9664
所以又叫	-10.9665
喺一個	-10.9672
▁f	-10.9674
嘅技術	-10.9677
▁long	-10.9678
▁核	-10.968
mont	-10.9685
天體	-10.969
廊	-10.9692
嘅生活	-10.9696
老竇	-10.9702
心理	-10.9707
河北	-10.9707
(1985	-10.9707
頁	-10.9708
個單位	-10.9711
早年	-10.9711
姑	-10.9712
,2003	-10.9713
▁合	-10.9714
73	-10.9715
派出	-10.9718
簿	-10.9719
▁ma	-10.972
旦	-10.972
google	-10.9722
翅	-10.9722
市政府	-10.9723
圍住	-10.9726
妃	-10.9727
▁看	-10.9727
super	-10.9728
張敬軒	-10.9728
ip	-10.9729
感知	-10.9729
攝影	-10.973
偷	-10.9732
在於	-10.9733
下載	-10.9733
feature	-10.9738
物品	-10.9738
2.5	-10.9738
住宅區	-10.9739
麵包	-10.9742
▁坐	-10.9743
▁king	-10.9744
ep	-10.9744
車路士	-10.9745
落臺	-10.9745
號綫嘅車站	-10.9745
淡水	-10.9747
一百	-10.9751
態度	-10.9753
▁wing	-10.9756
著作	-10.9758
ty	-10.9758
蔥	-10.976
63	-10.9762
鄉村	-10.9763
胃	-10.9764
地盤	-10.9765
地域	-10.9765
原有	-10.9768
穆斯林	-10.9768
助	-10.977
▁zuk	-10.9771
一直向東去到	-10.9774
發生嘅	-10.9775
噉樣囖	-10.9775
不過佢	-10.9776
永久	-10.9783
嘅範圍	-10.9787
係喇	-10.9788
,1978	-10.9788
▁呢個站有	-10.9789
撳	-10.979
再加上	-10.9793
1932	-10.9794
改良	-10.9796
屈	-10.9798
▁搭	-10.9798
上述	-10.9799
今次	-10.9799
名為	-10.98
至於	-10.9803
嘅知識	-10.9808
資助	-10.9808
▁北	-10.9808
▁di	-10.981
什	-10.9813
不時	-10.9814
茨	-10.9814
嘅稱號	-10.9814
編碼	-10.9814
香港仔	-10.9816
we	-10.9818
唧	-10.9821
嘅環境	-10.9822
鋼琴	-10.9823
學科	-10.9825
大碟	-10.9829
lou	-10.9831
時段	-10.9831
污染	-10.9833
重將	-10.9834
▁da	-10.9834
兼任	-10.9836
較為	-10.9836
唔啱	-10.9838
130	-10.9842
巴基斯坦	-10.9844
傳統上	-10.985
齡	-10.9851
降低	-10.9853
真實	-10.9853
會令	-10.9853
setting	-10.9855
93	-10.9856
sbs	-10.9859
聚集	-10.9859
帳	-10.9861
開展	-10.9862
廣州城	-10.9862
收錄喺	-10.9862
年之後	-10.9864
▁so	-10.9865
佢哋喺	-10.9865
加入咗	-10.9865
禾	-10.9865
猛	-10.9869
霸	-10.987
bi	-10.9871
辦事處	-10.9875
最好	-10.9877
榮譽	-10.9878
打後	-10.988
近住	-10.988
咁啱	-10.988
▁lin	-10.9884
沿海	-10.9884
後世	-10.9884
ps	-10.9885
親自	-10.9886
▁原	-10.9887
決策	-10.9889
基本法	-10.9889
偶像	-10.9889
謀	-10.989
▁何	-10.9891
描繪	-10.9891
實驗室	-10.9897
長安	-10.9898
旋轉	-10.9899
▁日本	-10.9899
嗰啲呢	-10.99
都幾	-10.9901
冇咁	-10.9901
1939	-10.9902
本嚟	-10.9902
jean	-10.9903
歐盟	-10.9904
上映	-10.9906
會對	-10.9908
▁bus	-10.9911
110	-10.9912
見面	-10.9918
短片	-10.9919
貢	-10.9922
扮演	-10.9925
票房	-10.9926
到依家	-10.993
滿足	-10.993
汗	-10.9933
發生喺	-10.9933
年上畫嘅美國	-10.9933
▁嚮	-10.9935
校區	-10.9936
哈爾濱	-10.9939
▁毛	-10.9941
呢啲嘢	-10.9943
廚房	-10.9944
地帶	-10.9945
69	-10.9947
物理學家	-10.9947
喊	-10.9948
▁lung	-10.995
第一位	-10.9954
帶嚟	-10.9955
▁1983	-10.9957
宿舍	-10.9962
極之	-10.9963
105	-10.9964
▁包	-10.9964
恭	-10.9965
霧	-10.9966
坪	-10.9966
嘅節目	-10.997
最重要嘅	-10.997
robert	-10.9972
分解	-10.9973
군	-10.9974
ion	-10.9975
加盟湖南衛視	-10.9975
進步	-10.9975
談判	-10.9976
幾時	-10.9977
透露	-10.9979
ruby	-10.9981
▁live	-10.9983
連同	-10.9983
入到	-10.9984
兩間	-10.9986
公務員	-10.9986
嘅服務	-10.999
失去	-10.9991
逐步	-10.9996
hd	-11.0003
需	-11.0004
疫苗	-11.0007
武漢肺炎	-11.0007
▁胡	-11.0007
碑	-11.0008
—2016	-11.0009
▁show	-11.001
1923	-11.001
議	-11.0011
64	-11.0011
區內	-11.0013
再喺	-11.0014
william	-11.0015
▁去到	-11.0016
卡拉	-11.0016
搬	-11.0019
專用	-11.0019
聖公會	-11.0021
導師	-11.0021
北韓	-11.0041
委任	-11.0041
一個縣	-11.0042
將啲	-11.0045
▁土	-11.0049
寫法	-11.005
國旗	-11.0053
唱碟	-11.0054
▁tai	-11.0059
費用	-11.006
又名	-11.0065
剪	-11.0065
娘	-11.0067
▁1986	-11.0067
▁如	-11.0068
小型	-11.0072
一點	-11.0074
殘	-11.0075
1910	-11.0077
戈	-11.0079
孫中山	-11.008
裙	-11.008
六個	-11.0084
查實	-11.0084
改編自	-11.0084
啄	-11.0085
維多利亞港	-11.0085
審	-11.0086
騰	-11.0086
▁以前	-11.0087
【	-11.0087
彥	-11.0087
訓	-11.0088
▁1950	-11.009
架構	-11.0091
恨	-11.0092
喜劇	-11.0093
啫嗎	-11.0095
▁佢代表日本參加過	-11.0095
將軍澳	-11.0096
日子	-11.0098
再度	-11.0098
揸住	-11.0103
呢個係	-11.0105
卿	-11.0106
,2007	-11.0107
▁之後佢	-11.0107
搬咗去	-11.0107
路嘅交界	-11.0108
▁chi	-11.0109
毅	-11.0109
喫	-11.0111
▁苦	-11.0111
創新	-11.0113
隨機	-11.0117
意義	-11.0121
標記	-11.0122
落實	-11.0122
劉備	-11.0125
食嘢	-11.013
號發行	-11.0134
▁為咗	-11.0139
寄	-11.014
咗佢	-11.014
買賣	-11.0142
發生咗	-11.0143
質數	-11.0145
騎	-11.0147
名叫	-11.0148
係要	-11.0151
玄	-11.0152
角度	-11.0152
盃	-11.0152
梗	-11.0154
觀光	-11.0155
斜	-11.0157
並以	-11.0157
基金	-11.0159
密度	-11.016
一幅	-11.016
▁jin	-11.016
▁雪	-11.0162
屋企人	-11.0164
樽	-11.0172
戰略	-11.0172
僅次於	-11.0175
位置喺上	-11.0175
▁臭	-11.0179
三角形	-11.0181
來𡃉	-11.0181
年開辦	-11.0183
▁"	-11.0183
策	-11.0183
二年	-11.0187
航線	-11.0187
任期	-11.0189
▁ka	-11.0189
隊員	-11.019
浸	-11.019
男仔	-11.0192
講明	-11.0192
▁小行星	-11.0197
最低	-11.0201
帖	-11.0203
爬	-11.0203
當做	-11.0203
典籍	-11.0204
嗌做	-11.0204
▁kei	-11.0207
▁theory	-11.0207
霍	-11.0208
西面係	-11.0208
融合	-11.0209
▁kwan	-11.0213
▁相	-11.0213
價錢	-11.0213
麟	-11.0214
加速	-11.0214
增	-11.0216
酶	-11.0217
梵文	-11.0217
主打歌	-11.0219
fi	-11.0219
十四	-11.0221
美軍	-11.0221
解放軍	-11.0222
▁fong	-11.0223
iii	-11.0224
紗	-11.0224
乜嘢啊	-11.0226
建築師	-11.0227
範疇	-11.0228
軌	-11.023
號開放	-11.023
▁可	-11.0231
欣賞	-11.0231
(1996	-11.0232
淘汰	-11.0232
並非	-11.0234
1924	-11.0235
潭	-11.0236
打開	-11.024
可以將	-11.0243
il	-11.0245
本書	-11.0246
巴士公司	-11.0247
寫住	-11.0249
▁舊	-11.0252
】	-11.0256
包埋	-11.0258
年發現	-11.026
去過	-11.0262
第九	-11.0263
同日本	-11.0268
色彩	-11.0268
主要用	-11.0273
82	-11.0273
衞星	-11.0273
三次	-11.0278
結他手	-11.028
佢可以	-11.0284
▁若果	-11.0285
山西	-11.0288
會用到	-11.0289
男演員	-11.0294
自民黨	-11.0298
捱	-11.0301
支持者	-11.0303
代數	-11.0308
▁with	-11.0308
▁l	-11.0308
係一條	-11.0309
股份有限公司	-11.0311
個程式	-11.0312
沒有	-11.0312
就連	-11.0318
遷	-11.0318
▁爛	-11.0319
旅	-11.0321
嘅大型	-11.0323
ja	-11.0323
桿	-11.0325
試驗	-11.0325
所以有	-11.0326
上有	-11.0328
全港	-11.0328
勻	-11.0328
350	-11.0329
鍵	-11.033
甫	-11.0335
神經細胞	-11.0335
坦克	-11.0336
祠	-11.0336
續集	-11.0337
이	-11.034
有能力	-11.0341
火星	-11.0342
試圖	-11.0343
57	-11.0344
崇	-11.0344
▁chung	-11.0348
妙	-11.0351
佢啲	-11.0351
94	-11.0352
出現喺	-11.0354
出版社	-11.0357
股票	-11.0359
▁馬來西亞	-11.0361
▁周	-11.0363
(1986	-11.0363
保險	-11.0364
national	-11.0364
а	-11.0365
由香港	-11.0365
名詞	-11.0366
譯做	-11.0366
寸	-11.0367
哦	-11.0369
就以	-11.037
逆	-11.0374
海鮮	-11.0374
福利	-11.0374
▁跟住	-11.0376
九巴	-11.0376
詠	-11.0377
算係	-11.0378
一旦	-11.038
巴士總站	-11.0381
va	-11.0383
val	-11.0383
弗	-11.0387
嗰年	-11.0388
引致	-11.0389
▁hau	-11.0392
有份	-11.0392
週	-11.0395
服裝	-11.0396
最尾	-11.0397
鼎	-11.0402
ny	-11.0402
大水	-11.0405
,2020	-11.0408
得好	-11.0408
嘅數值	-11.041
▁風	-11.0411
fe	-11.0412
疾病	-11.0416
per	-11.0416
堤	-11.0421
嘅經濟	-11.0421
悶	-11.0423
英國人	-11.0425
▁hill	-11.0427
廢除	-11.043
通用	-11.0431
裝修	-11.0431
儲	-11.0433
華僑	-11.0434
患	-11.0439
官府	-11.044
妻	-11.0441
咬	-11.0443
喺新界	-11.0444
權利	-11.0445
八年	-11.0446
生長	-11.0448
得知	-11.0449
▁bay	-11.0451
獸	-11.0451
大唐	-11.0456
就咁	-11.0457
笛	-11.0459
▁伊	-11.046
話要	-11.0462
抵抗	-11.0464
起源自	-11.0465
ph	-11.0466
宣稱	-11.0467
年代係指前	-11.0471
年去到前	-11.0472
▁龍	-11.0472
世界各地	-11.0473
月球	-11.0478
個頭	-11.0479
▁mo	-11.048
評價	-11.048
分離	-11.0481
▁seoi	-11.0481
外國人	-11.0482
邪	-11.0482
投資者	-11.0484
接替	-11.0489
▁喂	-11.0491
冚	-11.0491
佢以	-11.0491
波斯	-11.0491
陸地	-11.0493
認同	-11.0496
總裁	-11.0496
運河	-11.0496
傷害	-11.0499
海珠區	-11.05
#	-11.05
耕	-11.0503
▁見	-11.0503
書籍	-11.0506
電器	-11.0507
弟	-11.0508
敏感	-11.0509
框架	-11.0511
▁酒	-11.0517
避	-11.0517
嘅系統	-11.0518
幾種	-11.0519
階	-11.0522
疊	-11.0526
公仔	-11.0527
舉行嘅	-11.0528
903	-11.0534
涉嫌	-11.0535
平行	-11.0536
▁tor	-11.0536
滿洲	-11.0538
化合物	-11.0539
探	-11.0539
嘅政治	-11.0539
兩大	-11.0541
死咗之後	-11.0541
出產	-11.0542
▁竹	-11.0544
其中包括	-11.0546
斑馬	-11.0549
不足	-11.0551
▁shan	-11.0552
督	-11.0553
年齡	-11.0553
▁nom	-11.0557
專頁	-11.0558
▁係呀	-11.056
三國	-11.0561
▁明	-11.0561
商店	-11.0561
舞臺劇	-11.0566
唔少人	-11.0568
遭	-11.0571
災難	-11.0571
培	-11.0575
eu	-11.0577
些	-11.0581
紅磡	-11.0581
湖南衛視	-11.0584
規律	-11.0584
主力	-11.0585
係隻	-11.0587
單元	-11.0588
指數	-11.0588
朱古力	-11.0589
擋	-11.059
橫濱	-11.0591
柬埔寨	-11.0592
▁設施有籃球場	-11.0592
叻	-11.0593
企圖	-11.0594
常用	-11.0594
葵涌	-11.06
蛋糕	-11.06
▁灰	-11.0601
▁當中	-11.0604
擺喺	-11.0604
敦	-11.0606
長大	-11.0607
年代嘅	-11.0608
東區	-11.0612
祖先	-11.0612
桃	-11.0613
呼	-11.0615
納吉	-11.0616
詳細	-11.0617
細個	-11.0619
160	-11.0621
蒸	-11.0622
劇團	-11.0626
嘅身份	-11.0629
84	-11.0632
免	-11.0632
葯	-11.0633
併入	-11.0635
嘅故事	-11.0636
好出名嘅	-11.0638
baak	-11.0639
作業系統	-11.0642
mer	-11.0643
同中國	-11.0645
三種	-11.0645
仲要	-11.0645
89	-11.0645
蛋白質	-11.0647
籃球	-11.0649
▁重有	-11.0656
▁硬	-11.0656
°	-11.0657
綜藝節目	-11.0657
老鼠	-11.0657
煤	-11.0658
地中海	-11.0661
maa	-11.0663
之所以	-11.0663
莎	-11.0664
埠	-11.0665
係前	-11.0665
宜家	-11.0666
間公司	-11.067
而死	-11.067
號首播	-11.0671
廷	-11.0672
都用	-11.0679
天地	-11.0682
讀過	-11.0684
網球	-11.0684
眼鏡	-11.0685
▁sports	-11.0685
司法	-11.0688
劉德華	-11.0699
隨著	-11.07
嘅速度	-11.0701
復活	-11.0702
傳奇	-11.0702
只得	-11.0705
港澳	-11.0708
號綫同	-11.0709
往來	-11.0711
粉嶺	-11.0711
聰	-11.0712
矮	-11.0715
圖像	-11.0716
感情	-11.0716
相繼	-11.0717
罅	-11.0719
重修	-11.0719
配音	-11.0719
凈	-11.0719
之後嘅	-11.0727
趕	-11.0727
▁ging	-11.0728
考慮到	-11.0728
獨立嘅	-11.0729
ron	-11.0732
,2019	-11.0735
老虎	-11.0735
餡	-11.0737
ki	-11.0738
喬	-11.0743
原理	-11.0748
hoi	-11.0749
ner	-11.0749
件事	-11.0752
▁非	-11.0753
荔枝	-11.0753
東南部	-11.0759
省會	-11.0765
當然	-11.0766
呢就	-11.0766
star	-11.0766
盲	-11.0767
劇場	-11.0772
第八	-11.0775
漢族	-11.0779
又寫	-11.078
鬥爭	-11.078
眉	-11.078
van	-11.0783
國務院	-11.0784
▁1960	-11.0786
ine	-11.0787
誕	-11.0791
集體	-11.0796
za	-11.0798
蚊紙	-11.0799
▁呢個站	-11.0801
▁玩	-11.0801
附屬	-11.0806
獅	-11.0809
hip	-11.081
1909	-11.0812
相機	-11.0813
影視	-11.0813
就得	-11.0814
▁naam	-11.0814
我諗	-11.0814
糊	-11.0815
嘅交界	-11.0816
▁1988	-11.0817
唐朝	-11.0818
一柞	-11.0822
し	-11.0822
認證	-11.0823
唔需要	-11.0823
師傅	-11.0824
唔似	-11.0824
民主派	-11.0825
筋	-11.083
開幕	-11.083
重大	-11.0832
▁cheung	-11.0832
古典	-11.0832
▁ping	-11.0834
係中國大陸	-11.0834
氧	-11.0835
火燭	-11.0835
甜品	-11.0837
捷	-11.084
▁jat	-11.0845
嘅字	-11.0846
葵青區	-11.0847
▁saa	-11.0847
▁因爲	-11.0847
智慧	-11.0848
▁siu	-11.085
有啲人	-11.085
噉你	-11.0851
讚	-11.0852
咁滯	-11.0853
號晚	-11.0853
嘅基礎	-11.0857
多啦	-11.0858
日期	-11.0859
鵝	-11.0861
主管	-11.0865
中巴	-11.0867
契	-11.0867
道歉	-11.0869
冬季	-11.0871
係當時	-11.0871
三世	-11.0875
▁除	-11.0876
寫作	-11.0876
使用者	-11.0879
一首	-11.088
jo	-11.0881
醉	-11.0881
傳到	-11.0881
墨索里尼	-11.0881
指令	-11.0884
㗎	-11.0887
▁而家嘅	-11.0888
係代表	-11.089
就讀	-11.0892
(1984	-11.0895
推翻	-11.0896
▁隨後	-11.0897
360	-11.0898
房屋	-11.0899
1914	-11.0899
兩國	-11.09
係廣州	-11.0901
加價	-11.0906
tom	-11.0911
上落	-11.0914
太子	-11.0915
取消咗	-11.0915
連埋一齊	-11.0918
我的	-11.0919
常用嘅	-11.0921
▁超	-11.0923
佔咗	-11.0926
競選	-11.0929
禍	-11.0929
1913	-11.0931
著名嘅	-11.0932
長洲	-11.0932
中國大陸嘅	-11.0932
嘅表現	-11.0937
講過	-11.0937
▁呀噉	-11.0938
集合	-11.0945
炸彈	-11.0946
碗	-11.0947
▁time	-11.0947
政治人物	-11.0948
匈牙利	-11.0949
簽訂	-11.0949
開工	-11.0953
駿	-11.0956
蝴蝶	-11.0958
袁	-11.0961
重組	-11.0962
sha	-11.0962
68	-11.0966
▁木	-11.0967
溶	-11.0967
邱	-11.0968
",	-11.0973
▁jau	-11.0973
▁鷄	-11.0977
號碼	-11.0979
畀錢	-11.098
斬	-11.0983
▁ci	-11.0987
而佢	-11.099
想像	-11.0991
大力	-11.0994
菊	-11.0995
誕生	-11.0996
喺網上	-11.0997
抱	-11.0999
▁血	-11.1
指責	-11.1002
濃	-11.1006
每集	-11.1007
瘦	-11.1007
前者	-11.1008
靈魂	-11.1008
區別	-11.1012
過程中	-11.1013
排列	-11.1013
遮	-11.1021
民建聯	-11.1025
樓高	-11.1026
鬚	-11.1027
後生仔	-11.1033
欲	-11.1033
樓梯	-11.1035
過往	-11.1036
資訊節目	-11.1037
嘅作用	-11.104
監察	-11.1041
作業	-11.1043
教宗	-11.1045
嘅故仔	-11.1046
自治區	-11.1051
jyu	-11.1053
農民	-11.1053
停辦	-11.1057
號推出	-11.106
先至得	-11.1068
愈	-11.1074
衛星	-11.1077
一片	-11.1077
會係	-11.1079
▁舊時	-11.1081
嘅特徵	-11.1081
映	-11.1082
大人	-11.1083
客機	-11.1083
gei	-11.1085
暖	-11.1087
美食	-11.1093
分佈喺	-11.1094
情節	-11.1097
參加咗	-11.1098
一生	-11.1099
:00	-11.11
其中一隻	-11.11
serif	-11.1101
1944	-11.1108
扯	-11.1108
最後一個	-11.1108
學會	-11.111
咗之後	-11.111
佑	-11.111
親王	-11.1111
}	-11.1115
年爲日本足球代表隊出場	-11.1115
獅子	-11.1115
個系統	-11.1115
鏈	-11.1117
蠟	-11.1117
一面	-11.1118
快樂	-11.1119
發覺	-11.1121
▁吳	-11.1122
拍檔	-11.1122
傳出	-11.1123
鮮	-11.1127
兩岸	-11.1128
靠近	-11.1128
暴	-11.1129
邊啲	-11.113
語文	-11.1137
祕書	-11.1138
留意	-11.1139
樑	-11.114
喺第	-11.1141
阿哥	-11.1142
▁zing	-11.1142
條村	-11.1148
自身	-11.1149
場所	-11.1152
▁藍	-11.1153
指標	-11.1154
東北部	-11.1156
▁肥	-11.1157
▁美國	-11.1157
第七	-11.1158
復興	-11.116
喺香港島	-11.1161
der	-11.1166
好細	-11.1166
會出現	-11.1168
科幻	-11.1169
賬	-11.1169
韻母	-11.1172
大使	-11.1172
江門	-11.1173
赤道	-11.1174
節目主持	-11.1175
諷刺	-11.1177
閘	-11.1178
噉講	-11.1181
▁卡	-11.1181
個提名	-11.1182
察	-11.1183
第二年	-11.1184
=	-11.1185
▁ban	-11.1186
協	-11.119
航班	-11.1191
鳩	-11.1192
準確	-11.1194
有三	-11.1197
逝世	-11.1197
出場	-11.1201
其中一個省	-11.1202
▁銀	-11.1204
出版嘅	-11.1212
放入	-11.1216
成人	-11.1219
俠	-11.1219
bu	-11.1221
5000	-11.1221
文藝	-11.1221
興趣	-11.1224
tung	-11.1225
頌	-11.1234
好快就	-11.1235
敗	-11.1235
就好	-11.1238
ju	-11.1239
▁順	-11.1239
wai	-11.1243
面臨	-11.1243
bou	-11.1243
分校	-11.1244
uni	-11.1248
體育場	-11.1249
公園同遊樂場	-11.125
護照	-11.125
混亂	-11.1251
一嚿	-11.1252
▁亂	-11.1252
徒	-11.1253
工藝	-11.1256
事故	-11.1258
號上畫	-11.1261
路軌	-11.1261
提出嘅	-11.1263
(1995	-11.1264
外面	-11.1265
係澳洲	-11.1265
旅遊業	-11.1266
▁li	-11.1267
▁lok	-11.1268
用喺	-11.1268
下晝	-11.1269
嘅元素	-11.127
唔用	-11.1274
甚	-11.1282
咗個	-11.1282
ment	-11.1283
▁因	-11.1286
臂	-11.1287
上阿爾卑斯	-11.1289
理論上	-11.129
擅長	-11.1292
文革	-11.1294
影響力	-11.1297
嚴格	-11.1297
1943	-11.1298
可以由	-11.1299
起嚟	-11.1303
又喺	-11.1303
巢	-11.1305
嚟睇	-11.1306
瓶	-11.1307
固	-11.1308
竟然	-11.1309
翁	-11.1314
三位	-11.1314
琉球	-11.1315
que	-11.1316
元音	-11.1319
矩陣	-11.132
嘅主題曲	-11.1321
本來係	-11.1321
係香港歌手	-11.1323
十六	-11.1323
嘅所有	-11.1324
工作室	-11.1324
材	-11.1325
獵物	-11.1327
喺廣東	-11.1327
基督徒	-11.1328
釋放	-11.1329
功夫	-11.1331
港元	-11.1332
我都	-11.1335
96	-11.1339
十個	-11.1339
日常生活	-11.1342
英國嘅	-11.1343
客人	-11.1347
順序	-11.1347
區分	-11.1351
合稱	-11.1352
淨係得	-11.1357
逐	-11.1359
幾間	-11.1359
以西	-11.1361
87	-11.1363
▁面積	-11.1364
東岸	-11.1365
城牆	-11.1365
專門研究	-11.1366
音譯	-11.1366
初步	-11.1368
婚禮	-11.1369
墟	-11.1372
酒吧	-11.1373
檢測	-11.1373
參賽者	-11.1374
美術	-11.1376
卒	-11.1379
人體	-11.138
屋頂	-11.1381
自我	-11.1383
幣	-11.1384
ser	-11.1385
青春	-11.1385
曾經有	-11.1387
允許	-11.1387
嘅基本	-11.1388
係咁	-11.1389
電影導演	-11.139
尊重	-11.139
乎	-11.1393
流通	-11.1394
而家有	-11.1395
係伊斯蘭教	-11.1395
日本嘅	-11.1397
曼聯	-11.1397
刊	-11.1399
山地	-11.1402
完善	-11.1403
je	-11.1405
▁ce	-11.1408
總決賽	-11.1409
喺澳洲	-11.1413
新人	-11.1415
影相	-11.1415
語言學	-11.1415
有利	-11.1415
戶外	-11.1417
海拔高	-11.1418
僅	-11.1419
巴士站	-11.1422
儒	-11.1422
殷	-11.1423
弄	-11.1424
胎	-11.1425
恐怖	-11.1425
馬來人	-11.1427
ro	-11.1429
電力	-11.1429
▁艾	-11.1432
嘅中心	-11.1438
朵	-11.1439
定律	-11.1442
蘇丹	-11.1442
交通事務局	-11.1445
複	-11.1446
▁愛	-11.1448
在內嘅	-11.1449
應該係	-11.1451
就噉	-11.1452
ley	-11.1455
鈴	-11.1455
物料	-11.1458
面前	-11.1459
各類	-11.1459
北美	-11.146
肩	-11.1461
二人	-11.1463
名稱	-11.1464
毫	-11.1464
在位	-11.1464
尋	-11.1465
摸	-11.1465
打入	-11.1465
電路	-11.1466
山上	-11.147
柏林	-11.147
號開通	-11.1472
吋	-11.1473
葵	-11.1473
昂	-11.1473
嘅建築	-11.1474
四十	-11.1475
車廠	-11.148
之用	-11.1482
鬱動	-11.1483
呢個字	-11.1484
叫佢	-11.1484
信心	-11.1485
穎	-11.1487
積分	-11.1488
日頭	-11.1489
威廉	-11.1489
社團	-11.149
公共圖書館	-11.149
個波	-11.1491
▁文	-11.1492
技能	-11.1493
▁呢次	-11.1494
▁t	-11.1497
勸	-11.1499
喺歐洲	-11.1503
▁直至	-11.1503
局部	-11.1504
▁du	-11.1504
▁sik	-11.1508
營業	-11.151
凳	-11.151
係屬於	-11.151
,1976	-11.1511
北區	-11.1513
生效	-11.1514
深入	-11.1515
嘅諗法	-11.1516
脷	-11.1516
神戶	-11.1517
王室	-11.1519
稱之為	-11.1521
紹	-11.1521
純粹	-11.1524
年度香港小姐競選	-11.1525
〉	-11.1526
〈	-11.1526
平均直徑約莫	-11.1526
蔣介石	-11.1526
接壤	-11.1526
補充	-11.1526
識別	-11.153
sony	-11.153
水道	-11.1531
搵咗	-11.1531
視星等係	-11.1531
獎勵	-11.1534
指導	-11.1535
離子	-11.1537
之稱	-11.1537
▁ˈ	-11.154
美金	-11.154
▁保	-11.1543
輔	-11.1545
噉佢	-11.1546
天后	-11.1546
織	-11.1547
左邊	-11.1548
▁在	-11.1552
能源	-11.1554
170	-11.1555
法輪功學員	-11.1555
結他	-11.156
總人口	-11.156
沙漠	-11.1563
現今	-11.1568
陣營	-11.1568
行到	-11.1575
神話	-11.1576
劃分	-11.1576
擴充	-11.1576
又要	-11.1577
bar	-11.1581
東海	-11.1583
▁佢既係	-11.1584
可以分做	-11.1584
係冇	-11.1584
凈係	-11.1585
定期	-11.1586
距	-11.1588
唯有	-11.1588
內陸	-11.1589
擬	-11.159
論壇	-11.1591
▁1987	-11.1592
先有	-11.1592
不能	-11.1593
西南部	-11.1594
▁h	-11.1594
維護	-11.1595
▁雜	-11.1596
嗰次	-11.16
變體	-11.16
訊	-11.1605
申	-11.1606
一個站	-11.1608
big	-11.1611
第二代	-11.1614
董	-11.1614
細過	-11.1617
電車	-11.1617
玫瑰	-11.1618
▁one	-11.1619
係世界上	-11.1621
焗	-11.1621
將來	-11.1621
係南韓	-11.1622
▁節目	-11.1622
人手	-11.1622
▁散	-11.1624
▁laan	-11.1625
地形	-11.1625
george	-11.1627
傳遞	-11.1627
病逝	-11.1628
屍體	-11.1631
1907	-11.1632
煎	-11.1633
感到	-11.1634
荊州	-11.1636
病死	-11.1636
翔	-11.1637
唉	-11.1638
起源	-11.1639
設喺	-11.1639
漁	-11.1639
62	-11.1639
升級	-11.164
—199	-11.1642
加工	-11.1642
男歌手	-11.1643
封閉	-11.1645
減低	-11.1646
保羅	-11.1649
魂	-11.1649
媽	-11.165
1926	-11.1651
喺嗰度	-11.1651
▁hing	-11.1652
障礙	-11.1652
銘	-11.1653
脊	-11.1654
染	-11.1655
眾多	-11.1655
突	-11.1656
1.6	-11.1657
砌	-11.1659
做主角	-11.1661
,1975	-11.1662
介乎	-11.1663
▁law	-11.1664
痕	-11.1665
居者有其屋屋苑	-11.1665
強制	-11.1666
▁jip	-11.1667
濱海阿爾卑斯	-11.1667
過嘅	-11.1668
登錄	-11.1668
,1973	-11.1668
埃	-11.1674
雞蛋	-11.1675
手法	-11.1677
與及	-11.1677
▁氣	-11.1678
手指	-11.1683
搵食	-11.1684
嘅例子	-11.1685
哺乳動物	-11.1685
▁獨	-11.1686
而被	-11.169
▁ling	-11.1691
新市鎮	-11.1691
賜	-11.1691
規	-11.1692
ting	-11.1693
▁虛	-11.1694
人氣	-11.1695
▁1947	-11.1697
光年	-11.1697
年紀	-11.1698
港島	-11.1698
截	-11.1701
增城	-11.1702
原始	-11.1702
中國國民黨	-11.1704
—2017	-11.1705
嘅中國	-11.1706
粵劇	-11.171
波音	-11.171
唔受	-11.171
包住	-11.1714
水庫	-11.1716
行政長官	-11.1717
第一批	-11.1723
豹	-11.1725
tong	-11.1726
觀音	-11.1726
祕書長	-11.1728
廣州市政府	-11.1729
練習	-11.1731
▁1985	-11.1733
穀	-11.1735
塑膠	-11.1738
起喺	-11.1745
▁受	-11.1745
南路	-11.1745
▁調	-11.1747
中途	-11.1747
都唔係	-11.1747
係加拿大	-11.1747
講述	-11.1748
雕塑	-11.1749
一樣嘢	-11.175
泰文	-11.1753
災	-11.1753
通常用	-11.1753
話自己	-11.1754
逢	-11.1756
唔準	-11.1757
▁加	-11.1757
獨特	-11.1758
荒	-11.1758
啤酒	-11.1758
戒	-11.1758
簽署	-11.1759
引起咗	-11.1759
教書	-11.1759
纖維	-11.176
東涌	-11.176
西岸	-11.1761
尤	-11.1763
一般都	-11.177
當中包括	-11.1773
北京時間	-11.1773
廣東歌	-11.1773
譯名	-11.1775
賈	-11.1776
入聲	-11.1776
▁葉	-11.1777
排球場	-11.1777
▁ge	-11.1778
▁有時	-11.1779
或者其他	-11.1782
吉林	-11.1782
▁君	-11.1783
坡	-11.1783
out	-11.1784
nan	-11.1785
超越	-11.179
噉呢	-11.179
分區	-11.1792
蕉	-11.1792
▁洋	-11.1794
斗	-11.1797
漢人	-11.1799
征服	-11.18
閉	-11.18
妮	-11.1803
十九	-11.1803
增強	-11.1804
客戶	-11.1806
構造	-11.1806
深水埗	-11.1808
預期	-11.1809
圍繞住太陽運	-11.181
英寸	-11.1811
而改成噉嘅名	-11.1811
文人	-11.1811
忽	-11.1812
原因係	-11.1812
發育	-11.1812
列為	-11.1813
物資	-11.1813
正門	-11.1813
係中國大陸嘅	-11.1815
轉移	-11.1816
主播	-11.1818
離婚	-11.1819
,1960	-11.182
em	-11.1822
辰	-11.1822
就算係	-11.1824
輸畀	-11.1824
其中一種	-11.1824
轉車	-11.1829
嘅計劃	-11.1829
等級	-11.183
就被	-11.1831
lai	-11.1832
家下係	-11.1833
呢條馬路	-11.1837
如估	-11.1837
第一部	-11.1841
園林	-11.1843
斯特	-11.1843
理由	-11.1844
馬來王豬籠草	-11.1846
轉換	-11.1846
ers	-11.1846
一角	-11.1849
爺	-11.1849
事後	-11.185
喺越秀區	-11.1851
66	-11.1854
挖	-11.1855
樹木	-11.1856
令佢哋	-11.1857
未能	-11.1861
,1965	-11.1861
可以去到	-11.1863
單獨	-11.1864
大學畢業	-11.1866
時尚	-11.1866
邑	-11.1867
嘅一間	-11.1867
團結	-11.1867
ad	-11.1869
返屋企	-11.1875
金牌	-11.1875
婚姻	-11.1876
嘅成績	-11.1881
於是就	-11.1881
北面係	-11.1882
裕仁	-11.1882
▁tar	-11.1882
歲時	-11.1885
弦	-11.1886
嘅感覺	-11.1887
賽馬	-11.1887
科研	-11.1888
古希臘	-11.1889
▁私	-11.1889
條街	-11.1889
越來越	-11.1894
年之前	-11.1894
利蘭	-11.1898
▁dik	-11.1899
所屬	-11.1905
▁cou	-11.1905
衆	-11.1905
蜜	-11.1907
封鎖	-11.1908
ben	-11.1908
突出	-11.1909
伴	-11.1911
河流	-11.1912
▁muk	-11.1919
▁今	-11.1919
pierre	-11.1919
美國嘅	-11.192
搖滾	-11.192
▁奧	-11.1921
嘅理論	-11.1922
姊妹	-11.1923
阿拉伯	-11.1924
琳	-11.1929
閒	-11.193
撲	-11.1932
診	-11.1933
寵物	-11.1933
勾	-11.1933
定為	-11.1934
食咗	-11.1934
証	-11.1935
穴	-11.1938
火山	-11.1938
起碼	-11.1939
年上畫	-11.1939
air	-11.1941
泊	-11.1941
種族	-11.1943
呼吸	-11.1945
隊長	-11.1947
粵人	-11.1948
$	-11.195
呢段	-11.1951
荔灣區	-11.1952
對出	-11.1954
▁wui	-11.1954
呢家嘢	-11.1954
⇆	-11.1955
細路仔	-11.1955
政變	-11.1957
髀	-11.1958
南洋	-11.1959
佢對	-11.1961
利物浦	-11.1961
▁空	-11.1965
即係有	-11.1966
網友	-11.1967
氫	-11.1967
計畫	-11.1967
相連	-11.1969
▁本	-11.1973
▁haute	-11.1975
car	-11.1978
嘅數量	-11.1978
芯	-11.198
默	-11.1982
嘅結構	-11.1986
太過	-11.1988
一大	-11.1993
填詞人	-11.1993
收藏	-11.1995
已知	-11.1999
通常喺	-11.2001
情感	-11.2003
明確	-11.2003
礦	-11.2004
第一代	-11.2005
gen	-11.2005
都未	-11.2006
提供咗	-11.2007
▁zan	-11.2007
▁拖	-11.2007
莖	-11.2009
型號	-11.2011
有好多人	-11.2014
有意	-11.2015
呢點	-11.2016
,1957	-11.2019
廁所	-11.202
容許	-11.2021
主權	-11.2026
▁飾	-11.2028
國歌	-11.2032
猶太	-11.2032
time	-11.2035
掌握	-11.2037
分隔	-11.2038
氧氣	-11.2039
場景	-11.2045
又將	-11.2053
名義	-11.2054
籽	-11.2054
奏	-11.2055
越嚟越	-11.2057
號通車	-11.2057
嘅第一	-11.2057
係一	-11.2059
其他地方	-11.206
諮詢	-11.2064
誤差	-11.2065
瑤	-11.2065
劇院	-11.2066
本身係	-11.2071
爽	-11.2076
愛國	-11.2077
dr	-11.2078
攪	-11.208
遭到	-11.208
情報	-11.2082
脂	-11.2084
響香港	-11.2089
砂	-11.2091
宣言	-11.2092
姜	-11.2094
佢將	-11.2098
旁邊	-11.2099
動力	-11.2099
380	-11.21
迪士尼	-11.21
有權	-11.21
總會	-11.2101
認知	-11.2101
可蘭經	-11.2102
譚詠麟	-11.2102
呢個時候	-11.2102
打中場	-11.2102
係嚟自	-11.2102
こ	-11.2103
效率	-11.2104
字體	-11.2107
解放	-11.211
好有	-11.211
79	-11.2112
ran	-11.2113
埋一齊	-11.2114
郊區	-11.2115
任內	-11.2116
頻	-11.2117
▁1978	-11.2118
一方面	-11.2135
▁臨	-11.2137
尼泊爾	-11.2137
gr	-11.2141
芬蘭	-11.2145
科目	-11.2145
影響到	-11.2145
鹼	-11.2146
柴灣	-11.2149
空軍	-11.215
沖繩	-11.2152
設計師	-11.2152
比喻	-11.2152
中式	-11.2155
總監	-11.216
冇任何	-11.2162
第十	-11.2164
精選	-11.2164
出現嘅	-11.2165
客流	-11.2165
否則	-11.2167
首個	-11.217
右邊	-11.2171
留喺	-11.2172
—197	-11.2173
▁lai	-11.2174
贏到	-11.2174
釋	-11.2178
原創	-11.2178
嘸	-11.2179
原居民	-11.218
上面有	-11.218
▁1984	-11.2181
盈	-11.2182
可以有	-11.2183
之前係	-11.2184
嘅嘢食	-11.2188
好易	-11.2188
▁千	-11.2189
覆	-11.2189
微軟	-11.219
流行音樂	-11.2195
四圍	-11.2197
旋律	-11.2198
▁沒	-11.2199
鬆	-11.22
平等	-11.2203
開會	-11.2206
蜀	-11.2206
▁交	-11.2207
依賴	-11.2207
共產主義	-11.2208
▁seon	-11.2208
造型	-11.2209
技	-11.221
縣級市	-11.2211
波斯灣	-11.2213
肌	-11.2213
黑社會	-11.2215
心靈	-11.2215
之父	-11.2219
會見到	-11.222
體制	-11.2224
說明	-11.2227
風景	-11.2228
嘅前身	-11.2228
遼寧	-11.2229
勞動	-11.223
現有	-11.2231
葡文	-11.2232
啡	-11.2232
緊張	-11.2234
原住民	-11.2235
侵略	-11.2237
參演	-11.2237
保留咗	-11.2237
林憶蓮	-11.2239
因為佢哋	-11.224
謙	-11.2244
中世紀	-11.2245
▁狼	-11.2245
charles	-11.2247
▁咪	-11.2247
參觀	-11.2247
開嘅	-11.2247
異常	-11.2249
停播	-11.2249
優勢	-11.225
罵	-11.225
幹擾	-11.2251
騷	-11.2252
peter	-11.2252
途經	-11.2252
角逐	-11.2252
▁sou	-11.2254
搵出	-11.2258
dan	-11.2259
鋒	-11.2262
鱷魚	-11.2264
sao	-11.2265
▁抽	-11.2266
茶樓	-11.2266
但最後	-11.2267
截至	-11.2267
▁science	-11.2268
打敗	-11.2269
ya	-11.2271
號上晝	-11.2271
年被	-11.2272
哈薩克	-11.2274
磁場	-11.2275
有幾多	-11.2281
97	-11.2283
▁肉	-11.2283
可能有	-11.2283
雕	-11.2286
▁五	-11.2287
百萬	-11.2288
設定	-11.2288
建國	-11.2288
賺	-11.2289
];	-11.229
指嘅係	-11.2292
𨋢	-11.2293
▁驚	-11.2293
係繼	-11.2295
撞到	-11.2296
味道	-11.2298
色水	-11.2299
年先至	-11.2299
蒲	-11.23
撥	-11.2302
令到佢	-11.2305
嘅象徵	-11.2307
喺呢個	-11.2309
好容易	-11.2309
要有	-11.2311
呢條路	-11.2314
學士	-11.2315
▁博	-11.2317
入讀	-11.2317
個國家	-11.2319
咗唔少	-11.2322
主場	-11.2322
辦法	-11.2322
▁rpg	-11.2323
劇本	-11.2323
ray	-11.2323
神祕	-11.2323
▁借	-11.2324
盜	-11.2324
嘅言論	-11.2326
call	-11.2329
嘅分支	-11.2331
2》	-11.2333
南面係	-11.2333
嘅變化	-11.2335
▁朱	-11.2337
買入	-11.2341
▁經過	-11.2342
教徒	-11.2344
岩石	-11.2345
有乜	-11.2347
公尺	-11.2347
議題	-11.2349
狀況	-11.2349
轄下嘅	-11.2351
政治家	-11.2352
同佢嘅	-11.2356
認爲	-11.2356
種種	-11.2356
▁喺香港	-11.2357
西德	-11.2357
ɔ	-11.2358
▁早	-11.2364
▁冷	-11.2365
大阪	-11.2365
同事	-11.2366
1.2	-11.2367
收尾	-11.2368
嘅功效	-11.237
siu	-11.2374
荃灣區	-11.2374
責	-11.2375
推出咗	-11.2375
返學	-11.2376
列出	-11.2376
千人	-11.2377
唔得	-11.2378
圍繞	-11.2378
過嚟	-11.2382
發揮	-11.2383
▁於是	-11.2384
特徵係	-11.2384
爪	-11.2389
爵	-11.239
身為	-11.239
助理	-11.2391
▁結	-11.2391
典禮	-11.2394
伺服器	-11.2395
梁振英	-11.2395
▁現代	-11.2395
▁陰	-11.2396
壯族	-11.2396
id	-11.2398
彬	-11.2399
淑	-11.2399
珊	-11.2399
趁	-11.24
港府	-11.24
調味	-11.2401
監獄	-11.2402
眞	-11.2402
▁ltd	-11.2403
健身室	-11.2403
之後再	-11.2403
dvd	-11.2403
嘅動作	-11.2404
理性	-11.2405
作詞	-11.2405
主要有	-11.2406
太郎	-11.2406
嘅歌手	-11.2406
墊	-11.2407
走佬	-11.241
椅	-11.2411
canton	-11.2412
ス	-11.2412
ー	-11.2417
口語	-11.2418
主導	-11.242
三條	-11.242
編寫	-11.2424
▁fan	-11.2424
有大量	-11.2427
請求	-11.2427
我們	-11.2428
七月	-11.2431
巨大	-11.2432
(1983	-11.2432
老細	-11.2434
天堂	-11.2436
係廣東	-11.2439
高溫	-11.244
一笪地方	-11.2443
風波	-11.2444
一隊	-11.2449
通過咗	-11.2449
港鐵公司	-11.2449
出售	-11.2449
嘅地底	-11.245
嘅文化	-11.2451
高原	-11.2453
聚會	-11.2454
來回	-11.2455
牛油	-11.2457
順德	-11.2458
長城	-11.2464
1935	-11.2466
嘅電腦	-11.2467
記住	-11.2467
廿	-11.2471
抵制	-11.2474
唔應該	-11.2476
係對	-11.2476
注重	-11.2477
▁溼	-11.2477
年落成	-11.2481
底盤	-11.2484
220	-11.2485
重量	-11.2485
1911	-11.2486
爸爸	-11.2487
▁tv	-11.2488
南非	-11.2488
ur	-11.2492
舟	-11.2493
九龍城	-11.2496
華裔	-11.2496
之處	-11.2499
客家人	-11.25
三人	-11.2501
首爾	-11.2504
全年	-11.2504
實力	-11.2507
水上	-11.2509
依家係	-11.2513
係香港電視廣播有限公司嘅	-11.2514
一般認為	-11.2515
聖誕	-11.2518
手術	-11.2519
米嘅	-11.252
係囖	-11.252
秦國	-11.2521
詩歌	-11.2523
重話	-11.2523
搞笑	-11.2525
三角	-11.2526
▁唐	-11.2527
標記位	-11.2528
惠州	-11.253
通去	-11.2532
min	-11.2533
承諾	-11.2536
)","	-11.2538
膏	-11.2538
役	-11.2538
ku	-11.2538
當係	-11.2542
勳	-11.2543
七個	-11.2543
援助	-11.2545
有一啲	-11.2545
一國	-11.2547
係從	-11.2548
嚟搞	-11.2549
音樂劇	-11.2549
檢	-11.255
畀人叫做	-11.255
き	-11.255
允	-11.2551
噉做	-11.2553
半年	-11.2554
建成	-11.2554
險	-11.2554
企鵝	-11.2555
佈局	-11.2556
扒	-11.2556
希特拉	-11.2556
而家已經	-11.2556
華倫西亞	-11.2556
▁設施有硬地球場	-11.2556
ter	-11.2557
怨	-11.2557
墳場	-11.2558
雁	-11.2558
鉤	-11.2559
閩南話	-11.2559
閃	-11.2559
諸如	-11.2561
日報	-11.2561
為主嘅	-11.2561
動詞	-11.2562
麥可	-11.2563
芒果	-11.2565
而呢個	-11.2566
英超	-11.2566
嚟嘅	-11.2568
傻	-11.2569
修讀	-11.257
相比之下	-11.2571
richard	-11.2572
孖	-11.2573
鑽	-11.2574
年俾	-11.2575
鉗	-11.2582
延續	-11.2588
沙灘	-11.2588
三間	-11.2591
運動會	-11.2592
蓮花	-11.2595
高雄	-11.2597
裏邊	-11.2597
冒險	-11.26
海口	-11.2601
防禦	-11.2602
範圍內	-11.2604
非常之	-11.2604
多人	-11.2606
家長	-11.2608
有陣時	-11.2611
春秋	-11.2614
海水	-11.2615
駐守	-11.2616
遲	-11.2617
▁baa	-11.2617
財產	-11.2617
就係喺	-11.2618
打工	-11.262
無關	-11.2622
紛紛	-11.2623
▁佢亦	-11.2624
▁現任	-11.2625
莫斯科	-11.2626
口味	-11.2627
吸	-11.2629
▁1991	-11.263
▁mi	-11.2634
白話	-11.2636
扇	-11.2637
現存	-11.2638
uk	-11.264
女子世界盃	-11.264
原址	-11.2642
一層	-11.2644
月光	-11.2644
口號	-11.2644
▁最初	-11.2646
喺澳門	-11.2649
黐	-11.2652
北角	-11.2653
lung	-11.2653
交匯處	-11.2656
天水圍	-11.2659
島上	-11.2662
認定	-11.2663
以前係	-11.2664
嘅行動	-11.2665
hon	-11.2665
▁zyu	-11.2671
蘇州	-11.2671
嘅風格	-11.2673
嘅首都	-11.2673
耐	-11.2674
寮	-11.2675
及後	-11.2676
重慶市	-11.2677
名錄	-11.268
拜登	-11.268
購	-11.2682
茶餐廳	-11.2683
背後	-11.2685
lwa	-11.2691
ay	-11.2693
▁mono	-11.2693
崎	-11.2695
▁vi	-11.2696
薪	-11.2697
祐	-11.2698
帶動	-11.2703
嘅比賽	-11.2708
敘利亞	-11.2708
暴動	-11.271
好彩	-11.2711
觀測	-11.2711
規矩	-11.2711
新年	-11.2712
俱樂部	-11.2712
garonne	-11.2712
脂肪	-11.2713
托勒密	-11.2713
價介乎	-11.2713
政府部門	-11.2714
有乜嘢	-11.2715
漁民	-11.2715
灰色	-11.2716
吊	-11.2717
voronoi	-11.272
認真	-11.2721
誰	-11.2722
過後	-11.2725
猴	-11.2727
邊緣	-11.2727
學員	-11.2729
▁bi	-11.2729
汪	-11.273
雕像	-11.2731
▁四	-11.2731
沙頭角	-11.2737
禮拜	-11.2743
cc	-11.2744
▁hon	-11.2745
藉	-11.2746
中國人民解放軍	-11.2748
nh	-11.2748
▁隱	-11.2755
jyun	-11.2756
出海	-11.2759
同埋其他	-11.2759
政府喺	-11.2761
金錢	-11.2761
▁甩	-11.2763
▁攪	-11.2764
獻	-11.2765
▁絕	-11.2766
銀紙	-11.2767
let	-11.2767
▁福	-11.2768
1903	-11.277
牛奶	-11.2772
陷入	-11.2774
別墅	-11.2774
全部都係	-11.2779
之類嘅	-11.2779
行政區	-11.2781
被捕	-11.2782
轉到	-11.2784
發售	-11.2784
創意	-11.2787
崇拜	-11.2789
黃埔	-11.279
嘅版本	-11.2791
か	-11.2791
答案	-11.2793
人流	-11.2793
▁吹	-11.2794
損	-11.2796
匠	-11.2796
二氧化碳	-11.2798
份子	-11.2798
bd	-11.2798
一批	-11.28
諗法	-11.2804
達成	-11.2806
系畢業	-11.2811
分手	-11.2815
失蹤	-11.2815
粵文	-11.282
豆腐	-11.2821
大幅	-11.2823
den	-11.2823
贊	-11.2826
發明咗	-11.2827
繪	-11.2827
有過	-11.2829
商標	-11.2831
壩	-11.2834
點半	-11.2834
學派	-11.2838
各有	-11.2838
老人	-11.2838
一般嘅	-11.2839
腎	-11.2841
越秀區	-11.2841
複雜嘅	-11.2842
入選	-11.2844
捐	-11.2846
壯	-11.2847
號綫嘅	-11.2848
歐美	-11.2848
外來	-11.2849
▁吉	-11.285
▁拋	-11.2852
請咗	-11.2852
憲	-11.2853
號幹線	-11.2853
大王	-11.2853
補選	-11.2853
貨物	-11.2853
▁破	-11.2854
器官	-11.2854
▁浮	-11.2857
帶來	-11.2858
俄國	-11.2858
頒獎典禮	-11.2861
▁追	-11.2861
屠殺	-11.2862
充滿	-11.2863
瓊	-11.2865
皇宮	-11.2866
芝麻	-11.2866
同美國	-11.2868
袍	-11.2869
搜索	-11.2869
有部分	-11.287
服役	-11.287
,1970	-11.287
家經已冇乜人用	-11.2871
jef	-11.2872
tou	-11.2874
可見	-11.2874
尤其是	-11.2874
ver	-11.2875
と	-11.2878
全身	-11.2879
jau	-11.2879
公平	-11.288
第三季	-11.2881
階級	-11.2882
性別	-11.2883
▁夠	-11.2885
清真寺	-11.2885
▁地球	-11.2887
部件	-11.2887
三日	-11.2889
卜	-11.2891
1915	-11.2892
只能	-11.2892
抗日	-11.2892
嘅政策	-11.2893
係一啲	-11.2893
古老	-11.2894
途徑	-11.2898
嘅一啲	-11.2898
風雲	-11.29
矢	-11.2903
龍門	-11.2904
遠東	-11.2905
願意	-11.2905
廖	-11.2906
增設	-11.2906
球季	-11.2907
▁star	-11.2908
棄	-11.2908
▁gin	-11.2909
通行	-11.291
凌	-11.291
嘅植物	-11.2911
中有	-11.2912
▁異	-11.2913
返香港	-11.2914
大火	-11.2914
溼	-11.2914
難民	-11.2915
避開	-11.2917
喪	-11.2918
訪	-11.2918
ig	-11.2918
通信	-11.2921
月尾	-11.2923
fung	-11.2924
呈現	-11.2933
hi	-11.2934
(1990	-11.2935
若干	-11.2939
mou	-11.2939
行李	-11.294
▁撈	-11.2941
廠商	-11.2942
就變咗	-11.2947
魔法	-11.2949
入面有好多	-11.2949
紫色	-11.2949
大門	-11.2949
去搵	-11.295
た	-11.2951
kran	-11.2953
國立	-11.2953
黨內	-11.2954
述	-11.2955
攝	-11.2955
體積	-11.2957
城門	-11.2957
西人	-11.2958
衝擊	-11.296
alan	-11.2962
沿住	-11.2962
做唔到	-11.2963
來嘅	-11.2966
時裝	-11.2966
預	-11.2967
年份	-11.2971
▁燒	-11.2973
1860	-11.2973
▁les	-11.2976
隱藏	-11.2976
拍咗	-11.2978
中山大學	-11.2981
複製	-11.2981
入面嘅第	-11.2985
個故仔	-11.2986
成年	-11.2988
咁就	-11.2995
月起好	-11.2996
卽	-11.2999
百姓	-11.3
千米	-11.3001
註	-11.3001
有兩	-11.3003
習俗	-11.3005
展現	-11.3005
mp	-11.3006
空中客車工業	-11.3006
▁leon	-11.3006
對稱	-11.3008
暨	-11.3009
筆名	-11.301
喺德國	-11.3011
▁報	-11.3011
餸	-11.3012
嘅反應	-11.3017
▁is	-11.3017
山縣	-11.3019
夥	-11.302
解做	-11.3022
成龍	-11.3022
羣組	-11.3022
濤	-11.3025
框	-11.3027
long	-11.3027
頒發	-11.3029
雖然話	-11.303
報名	-11.3031
青山公路	-11.3031
將佢哋	-11.3031
▁定	-11.3031
▁nasq	-11.3033
▁ruqi	-11.3033
一直去到東邊嘅	-11.3033
嘅物體	-11.3033
fzww	-11.3033
lateef	-11.3033
▁sulus	-11.3033
科嘅其中一個屬	-11.3033
mytv	-11.3033
海關	-11.3033
零售	-11.3033
足夠	-11.3035
海盜	-11.3035
長今	-11.3036
倉庫	-11.3036
翻版	-11.3036
嘅精神	-11.3037
農村	-11.3037
中期	-11.3039
yu	-11.3039
大大	-11.304
崔	-11.3041
州市	-11.3042
實體	-11.3043
一段時間	-11.3043
明報	-11.3045
家姐	-11.3046
嘅名義	-11.3047
陝西	-11.3047
最新	-11.3047
得以	-11.3048
係基於	-11.3048
▁ding	-11.3049
僧	-11.3053
劫	-11.3053
武術	-11.3054
and	-11.3057
▁laai	-11.3062
螺	-11.3064
攞返	-11.3064
説	-11.3065
▁面	-11.3066
曆法	-11.3066
嘅目的	-11.3066
xet	-11.3066
兔	-11.3066
潛	-11.3067
阿媽係	-11.3068
係香港女藝人	-11.3069
撚	-11.307
層樓	-11.307
喺馬來西亞	-11.3071
縫	-11.3072
php	-11.3073
時空	-11.3074
成就	-11.3075
水域	-11.3079
部位	-11.308
豐田	-11.3081
築	-11.3082
途	-11.3084
遞	-11.3085
ten	-11.3086
事實上	-11.3088
呢間	-11.3089
zoeng	-11.309
江湖	-11.3091
▁gwan	-11.3097
喺屋企	-11.3099
郊野公園	-11.31
點心	-11.31
漸	-11.31
係一類	-11.3103
住響	-11.3104
就變成	-11.3105
嘢飲	-11.3108
係越南	-11.3108
美元	-11.3108
雙層巴士	-11.3112
彼此	-11.3113
十大	-11.3113
消防	-11.3113
售	-11.3113
識咗	-11.3115
感受	-11.3116
就係所謂嘅	-11.3118
嘅公司	-11.3119
い	-11.3119
▁春	-11.312
1898	-11.312
跟著	-11.312
▁擺	-11.3121
充	-11.3123
平地	-11.3123
▁玉	-11.3126
設計嘅	-11.3128
嘅年號	-11.3131
▁night	-11.3131
all	-11.3133
氣溫	-11.3133
3.5	-11.3137
東漢	-11.3137
,1977	-11.3137
瑩	-11.3137
年美國	-11.3142
各大	-11.3142
都係以	-11.3142
過度	-11.3144
市鎮	-11.3147
1200	-11.3148
教育局	-11.3149
▁領	-11.315
老母	-11.3153
包裝	-11.3154
股權	-11.3158
接管	-11.3158
if	-11.3161
節點	-11.3162
瀝滘	-11.3163
而今	-11.3163
山谷	-11.3164
理念	-11.3168
駕駛	-11.3168
▁粗	-11.3172
其中一位	-11.3173
阻	-11.3176
有幾個	-11.3177
間屋	-11.3179
畝	-11.318
斯里蘭卡	-11.3181
外地	-11.3182
天橋	-11.3183
地主	-11.3185
▁低	-11.3185
驗證	-11.3186
粗口	-11.3186
辣椒	-11.319
號綫一個	-11.3191
節日	-11.3191
改名為	-11.3192
財經	-11.3194
入行	-11.3196
梓	-11.3196
老夫子	-11.3196
好多時會	-11.3196
年間為日本女子足球代表隊出場	-11.3196
鵐	-11.3196
aero	-11.3198
▁原本	-11.3198
依據	-11.3199
英尺	-11.3199
推進	-11.32
原則上	-11.32
管制	-11.3201
賤	-11.3201
主角係	-11.3201
轉變	-11.3202
買嘢	-11.3203
戰後	-11.3203
個名叫	-11.3203
海面	-11.3204
:[ˈ	-11.3205
古蹟	-11.3206
人造	-11.3211
任意	-11.3212
sp	-11.3212
會由	-11.3214
號綫嘅月臺	-11.3214
▁切	-11.3219
五十	-11.3219
唔鍾意	-11.3219
兩地	-11.3221
中共中央	-11.3221
gou	-11.3221
坊間	-11.3222
▁ng	-11.3223
內蒙古	-11.3224
(1981	-11.3225
▁garden	-11.3226
好唔同	-11.3227
ban	-11.3228
▁new	-11.3229
▁楊	-11.3231
弟子	-11.3231
話題	-11.3232
水位	-11.3233
cu	-11.3233
係香港電視娛樂製作嘅	-11.3234
蘇拉	-11.3234
係歐洲	-11.3234
法定	-11.3236
將自己	-11.3236
屯	-11.3237
靴	-11.3239
遼	-11.3241
個品種	-11.3241
嘅世界	-11.3244
,1968	-11.3245
初中	-11.3245
▁con	-11.3246
▁永	-11.3248
股份	-11.3248
崩	-11.3248
梅艷芳	-11.3248
客串	-11.3248
霞	-11.3249
漿	-11.3249
艷	-11.325
北路	-11.3253
囉	-11.3256
九廣鐵路	-11.3259
洛陽	-11.3259
製成	-11.3259
中央政府	-11.3261
收埋	-11.3263
年做過	-11.3263
▁皆因	-11.3264
同期	-11.3265
交通工具	-11.3265
必須要	-11.3266
sin	-11.3268
joeng	-11.327
清潔	-11.3271
私立	-11.3272
豉油	-11.3272
呢一	-11.3274
專利	-11.3275
無論係	-11.3275
過濾	-11.3275
誌	-11.3278
ru	-11.3278
探討	-11.3278
管治	-11.3279
之時	-11.3279
▁w	-11.3279
學位	-11.328
rosa	-11.3285
開拓	-11.3286
其中一	-11.3286
桌球	-11.3288
嘅存在	-11.3289
嘅女	-11.3289
發展成	-11.329
收返	-11.329
電荷	-11.3294
路綫	-11.3295
▁din	-11.3297
支流	-11.3298
係為咗	-11.3298
形成嘅	-11.3299
關卡	-11.3299
孔子	-11.3302
▁van	-11.3303
南岸	-11.3307
跟手	-11.3307
上網	-11.3309
終極	-11.331
嘅核心	-11.3311
ns	-11.3312
見於	-11.3314
潮州	-11.3314
秋天	-11.3315
實用	-11.3316
捉咗	-11.3316
迎	-11.3319
▁language	-11.332
深夜	-11.332
ot	-11.3321
五月	-11.3323
元朗區	-11.3324
卒之	-11.3324
神父	-11.3328
國籍	-11.3329
合併成	-11.3329
生意人	-11.333
▁喜	-11.3331
購物	-11.3336
瑟	-11.3337
▁1940	-11.3338
路嘅交界開始	-11.3339
凈得	-11.3341
座位	-11.3344
三藩市	-11.3345
籃	-11.3345
1500	-11.3347
黑龍江	-11.3348
琪	-11.3348
環繞	-11.3351
浪漫	-11.3351
沿用	-11.3352
,1961	-11.3352
佢做咗	-11.3354
桶	-11.3355
尼亞	-11.3356
冷氣	-11.3358
購買	-11.3358
上咗	-11.3359
無乜	-11.3359
否定	-11.3359
雍	-11.336
主修	-11.3361
十字	-11.3362
菜式	-11.3363
維基媒體基金會	-11.3363
一直向北去到	-11.3363
▁精	-11.3363
英里	-11.3365
芳村	-11.3366
芒	-11.3366
gbs	-11.3366
反駁	-11.3368
查理斯	-11.3368
同時亦係	-11.3368
九年	-11.3369
地質	-11.3369
公共屋邨	-11.3369
ard	-11.3371
支線	-11.3376
醜	-11.3377
由佢	-11.3377
會以	-11.3378
滿洲國	-11.3378
吳國	-11.3379
返轉頭	-11.3381
種植	-11.3383
pro	-11.3383
西亞	-11.3384
穩	-11.3385
嫁	-11.3385
合理	-11.3389
吳語	-11.3391
ang	-11.3396
成為香港	-11.3397
陪	-11.3399
恐龍	-11.3399
係香港嘅一個	-11.34
io	-11.34
個字	-11.3402
兇	-11.3403
幹部	-11.3404
101	-11.3406
行路	-11.3406
武裝	-11.3408
智利	-11.3408
阮	-11.3408
希伯來文	-11.3409
除非	-11.341
astro	-11.3411
演藝	-11.3413
刷	-11.3415
廣州人	-11.3416
罩	-11.3418
珍珠	-11.3419
先知	-11.342
極端	-11.3422
蔣	-11.3423
焦	-11.3426
成都	-11.3427
108	-11.3428
活動室	-11.343
金星	-11.3431
廣州地區	-11.3432
登上	-11.3434
駕	-11.3434
taai	-11.3446
厄	-11.3447
1899	-11.3449
醋	-11.3451
決	-11.3452
成咗	-11.3452
衡	-11.3454
1868	-11.3457
青衣	-11.3458
而且係	-11.3459
場合	-11.3461
ap	-11.3464
製作人	-11.3464
mei	-11.3464
行政總裁	-11.3465
黃埔區	-11.3466
姚	-11.3467
く	-11.3469
慈善	-11.347
嘅紀錄	-11.3472
佢老豆	-11.3473
▁急	-11.3473
早期嘅	-11.3474
中東	-11.3475
▁現今	-11.3476
商業區	-11.3481
現代化	-11.3483
▁嚇	-11.3484
辭典	-11.3486
接駁	-11.3489
原產	-11.349
煉	-11.349
院校	-11.3491
chan	-11.3494
糕	-11.3495
字樣	-11.35
飽	-11.35
上游	-11.3501
廚	-11.3503
—198	-11.3505
少啲	-11.3506
嘅支持	-11.3507
jin	-11.3507
式嘅	-11.3508
都以	-11.3509
▁tour	-11.3512
有興趣	-11.3513
棟樓	-11.3513
亦曾經	-11.3515
第一任	-11.3516
1908	-11.3516
氣象	-11.3519
企業家	-11.3519
芽	-11.3522
瘡	-11.3522
被逼	-11.3523
▁炒	-11.3525
總數	-11.3526
予	-11.3526
槽	-11.3527
示	-11.3527
有好多種	-11.3528
婷	-11.3529
新浪微博	-11.353
暗示	-11.353
譴責	-11.3531
乾燥	-11.3531
三百	-11.3532
bak	-11.3532
毒品	-11.3532
世界巡迴演唱會	-11.3534
22:30	-11.3534
業餘	-11.3536
財務	-11.3536
億美元	-11.3537
磷	-11.3538
廉	-11.3538
係用嚟	-11.354
▁撲	-11.3542
▁熟	-11.3542
前任	-11.3543
現代嘅	-11.3544
蕩	-11.3545
cs	-11.3545
戰術	-11.3546
—196	-11.3547
1929	-11.3548
▁super	-11.3548
對待	-11.3551
少過	-11.3551
策劃	-11.3552
九月	-11.3552
面向	-11.3554
究竟	-11.3555
同時係	-11.3555
正統	-11.3557
拉丁字母	-11.3557
演變	-11.3558
陳奕迅	-11.3559
紐	-11.3561
滅亡	-11.3561
喪失	-11.3565
張錄音室專輯	-11.3565
誤會	-11.3566
抵達	-11.3569
▁美	-11.3569
嘅架生	-11.3569
阿爺	-11.3571
反射	-11.3573
定咗	-11.3574
睇埋	-11.3576
咖喱	-11.3577
強度	-11.3578
二百	-11.3579
成立嘅	-11.3579
shi	-11.358
打到	-11.3581
450	-11.3583
廠房	-11.3584
丈	-11.3584
ster	-11.3586
▁gwong	-11.3586
立體	-11.3588
資本	-11.3588
▁泥	-11.3589
抄	-11.3591
分店	-11.3591
症狀	-11.3594
搞過	-11.3595
亦可	-11.3596
會被	-11.3598
▁賣	-11.36
金鐘	-11.36
依照	-11.3602
一萬	-11.3602
通稱	-11.3603
完工	-11.3603
嘅人士	-11.3603
係指用	-11.3604
聯同	-11.3605
分泌	-11.3605
淚	-11.3606
呢單嘢	-11.3606
嘅老婆	-11.3607
男主角	-11.3607
操	-11.3609
傳入	-11.361
玩法	-11.361
氹仔	-11.3611
未知	-11.3611
鮑	-11.3612
勞工	-11.3613
容量	-11.3614
收咗	-11.3617
▁q	-11.3617
漢朝	-11.3618
成條	-11.3619
亦都可以	-11.3619
月亮	-11.3619
嘅部份	-11.3619
落後	-11.362
sen	-11.362
寨	-11.3623
箭	-11.3626
嘅目標	-11.3626
之後又	-11.3626
soeng	-11.3626
露天	-11.3628
代表作有	-11.3629
之間嘅關係	-11.3629
客家話	-11.3629
71	-11.3631
向上	-11.3631
安慶	-11.3631
熱門	-11.3631
邊度	-11.3632
終點	-11.3632
曾經同	-11.3634
九個	-11.3636
▁舉個例說明	-11.3636
學識	-11.3639
嘅形象	-11.3639
不過喺	-11.3639
有四	-11.3639
落雨	-11.364
性能	-11.364
俾你	-11.3641
重有好多	-11.3641
幾位	-11.3642
(1977	-11.3644
朝鮮半島	-11.3645
客車	-11.3651
槓	-11.3651
走向	-11.3652
▁早喺	-11.3653
僑	-11.3657
▁難	-11.3657
拍賣	-11.3657
𠻹	-11.3659
年代到	-11.366
▁au	-11.3662
九龍灣	-11.3662
緊嘅	-11.3663
原有嘅	-11.3663
臺灣嘅	-11.3665
至到	-11.3665
紀錄片	-11.3665
部機	-11.3665
cl	-11.3666
gaa	-11.3669
城巴	-11.3669
主要分佈喺	-11.3672
艘	-11.3675
資訊科技	-11.3676
蛋白	-11.3677
▁洗	-11.3678
top	-11.3679
當中有	-11.368
佔據	-11.368
掃	-11.368
嘅運動	-11.368
癌	-11.3683
電視演員	-11.3683
輔助	-11.3685
▁其	-11.3688
辦學	-11.3688
▁boy	-11.3689
樹葉	-11.3689
跟住就	-11.369
講話	-11.3692
一千	-11.3693
腫	-11.3695
剩低	-11.3696
亞視	-11.3697
西洋星座	-11.3698
▁柳	-11.3698
蒐集	-11.3698
酮	-11.37
北美洲	-11.3701
帆	-11.3701
綠化	-11.3701
忙	-11.3701
先係	-11.3702
抽象	-11.3702
維也納	-11.3703
奎	-11.3703
拉咗	-11.3704
裴	-11.3704
)、「	-11.3705
鶲	-11.3705
平方千米	-11.3705
祈禱	-11.3708
1800	-11.3708
攞冠軍	-11.3708
常識	-11.3708
即係你	-11.3711
招牌	-11.3711
殺手	-11.3712
攻打	-11.3712
市政	-11.3714
ms	-11.3715
陽縣	-11.3717
粒恆星	-11.3717
世上	-11.3717
1904	-11.3718
par	-11.3718
▁揸	-11.372
men	-11.372
趣	-11.3722
行車	-11.3723
ま	-11.3724
正式宣佈	-11.3725
到底	-11.3726
描寫	-11.3727
zan	-11.3729
香港理工大學	-11.373
應對	-11.3732
▁hospital	-11.3733
東南邊	-11.3733
口音	-11.3735
班次	-11.3735
戀愛	-11.374
第一條	-11.3742
佢都	-11.3742
召	-11.3743
南下	-11.3749
ger	-11.375
政府嘅	-11.375
公司嘅	-11.3753
用作	-11.3754
亦有啲	-11.3756
精確	-11.3757
有啲似	-11.3761
但佢哋	-11.3763
上海市	-11.3763
處理器	-11.3763
▁佢曾經	-11.3764
嘅仔	-11.3766
就快	-11.377
屋邨	-11.3771
割	-11.3772
▁微	-11.3773
▁it	-11.3774
毀	-11.3774
▁節目由	-11.3775
甚至連	-11.3778
尐	-11.3782
呢套劇	-11.3785
反映咗	-11.3787
christina	-11.3787
工業區	-11.3788
變咗做	-11.3791
(1973	-11.3791
mar	-11.3793
產生嘅	-11.3795
佢因為	-11.3796
歌迷	-11.3796
村落	-11.3796
壺	-11.3798
出於	-11.3799
周星馳	-11.3799
豬籠草	-11.3799
▁je	-11.38
大致上	-11.3803
明治	-11.3805
赴	-11.3806
座山	-11.3807
抹香鯨	-11.3809
zong	-11.3809
樂園	-11.381
扶	-11.381
癮	-11.3812
博弈者	-11.3813
▁1972	-11.3813
以便	-11.382
實質	-11.3822
長沙	-11.3822
巨型	-11.3824
並將	-11.3826
演講	-11.3827
推理	-11.383
但係因為	-11.3831
儀器	-11.3833
而且喺	-11.3835
口罩	-11.3836
踢波	-11.3836
食飯	-11.3837
監管	-11.3838
人才	-11.3841
天文學	-11.3843
▁1938	-11.3844
冰島	-11.3844
音樂家	-11.3848
唔同嘅係	-11.385
pan	-11.385
mark	-11.385
們	-11.385
補貼	-11.3856
▁密	-11.3856
▁iii	-11.3856
江澤民	-11.3857
▁china	-11.3858
修復	-11.386
時期嘅	-11.386
dm	-11.386
長沙灣	-11.3861
北宋	-11.3862
擔	-11.3862
中立	-11.3864
轉為	-11.3864
咁做	-11.3865
最多嘅	-11.3866
扁	-11.3868
賦	-11.3868
疏散	-11.3868
簡化	-11.3869
戰士	-11.3871
券	-11.3873
海豚	-11.3874
執法	-11.3874
刪除	-11.3875
兩日	-11.3876
子彈	-11.3876
巴塞隆拿	-11.3877
顧客	-11.3877
實踐	-11.3879
蔬菜	-11.3881
東南走向	-11.3881
協定	-11.3881
延伸	-11.3882
est	-11.3882
確實	-11.3884
全民	-11.3884
調節	-11.3885
辦公	-11.3885
億港元	-11.3886
4000	-11.3893
獨特嘅	-11.3893
▁1973	-11.3893
真相	-11.3895
飄	-11.3897
惡搞	-11.3897
隊伍	-11.3898
alex	-11.3903
▁活	-11.3904
口岸	-11.3904
唱嘅	-11.3906
變到	-11.391
▁近年	-11.391
捷克	-11.391
同行	-11.3911
踏	-11.3913
▁解	-11.3915
年因為	-11.3916
▁綠	-11.3918
拼	-11.3918
唔止	-11.3918
▁佢有	-11.3919
00	-11.3921
▁court	-11.3921
十一月	-11.3923
▁蘇	-11.3923
▁探	-11.3924
城堡	-11.3926
▁由於佢	-11.3927
家人	-11.3929
▁該	-11.393
敢	-11.3931
母語	-11.3932
106	-11.3932
青山	-11.3933
嫩	-11.3937
嘅部分	-11.3939
樓宇	-11.3941
世紀末	-11.3941
邁	-11.3943
都被	-11.3943
上堂	-11.3945
wo	-11.3945
桐	-11.3945
呢樣	-11.3947
八十	-11.3947
製片人	-11.3949
危	-11.395
74	-11.3952
園區	-11.3952
炭	-11.3952
國家公園	-11.3956
一個島	-11.3958
嘅空間	-11.3958
消防員	-11.3958
好近	-11.3959
可以揀	-11.3962
▁fa	-11.3966
提交	-11.3966
▁al	-11.3968
嚟整	-11.3971
嘅唯一	-11.3976
厲	-11.3977
ds	-11.3979
▁南邊從	-11.3979
新城	-11.398
個鐘頭	-11.3981
▁短	-11.3981
風水	-11.3981
會計	-11.3981
1,000	-11.3982
裏便	-11.3982
guangzhou	-11.3985
亦為	-11.3985
重播	-11.3986
會長	-11.3987
▁盤	-11.3987
馬六甲	-11.3987
西瓜	-11.3989
舊名	-11.3989
銀仔	-11.399
仲可以	-11.3994
▁am	-11.3998
原定	-11.3999
line	-11.3999
比較大	-11.3999
當初	-11.4001
混	-11.4005
嘅方向	-11.4005
大澳	-11.4009
到場	-11.4009
iso	-11.401
董事	-11.401
1895	-11.4011
生仔	-11.4011
▁掛	-11.4012
辯論	-11.4013
電單車	-11.4014
基督	-11.4015
心臟	-11.4016
嗰條	-11.4016
較高	-11.4017
做嘅	-11.4017
唔滿意	-11.4023
ium	-11.4024
—194	-11.4026
,1962	-11.4028
猶太教	-11.4031
一般會	-11.4033
所屬嘅	-11.4033
▁ha	-11.4034
航空母艦	-11.4039
宴	-11.4039
jim	-11.404
嘅錢	-11.4043
經已有	-11.4044
係家下	-11.4044
兩座	-11.4044
孫權	-11.4044
蔭	-11.4045
宮廷	-11.4047
本人	-11.4048
週刊	-11.4052
大衛	-11.4054
茜	-11.4054
緒	-11.4055
㞗	-11.4055
急救	-11.4056
官方語言	-11.4056
鷸	-11.4058
π	-11.4059
係日本嘅一個配音員	-11.4059
▁waan	-11.4059
出沒	-11.406
密碼	-11.406
嘅顏色	-11.406
公爵	-11.4061
嘅時期	-11.4061
家屬	-11.4061
提醒	-11.4062
吐	-11.4065
乃至	-11.4069
▁光	-11.4069
整理	-11.4069
泛	-11.4071
進口	-11.4072
亦被	-11.4073
開花	-11.4077
釀	-11.4078
過渡	-11.4078
出名嘅作品有	-11.4078
上便	-11.4079
酒家	-11.408
一直都	-11.4081
工黨	-11.4085
年再	-11.4086
▁笑	-11.4087
享受	-11.4088
大小	-11.409
現在	-11.409
溫泉	-11.4093
億元	-11.4094
▁ting	-11.4095
悠	-11.4096
▁唉	-11.4096
好鍾意	-11.4097
因為噉	-11.4097
尹	-11.4099
▁von	-11.4101
權益	-11.4103
最多人	-11.4104
國道嘅	-11.4109
多數都	-11.4114
荔枝灣	-11.4116
預防	-11.4117
佢阿媽	-11.4118
▁其他	-11.4118
▁gau	-11.4119
咗一個	-11.4121
ille	-11.4123
收錄咗	-11.4124
搬走	-11.4125
拱	-11.4125
內戰	-11.4127
喺法國	-11.4128
特定嘅	-11.4131
仇	-11.4133
發佈咗	-11.4133
失業	-11.4135
gt	-11.4135
嘅車	-11.4135
幾日	-11.4137
首領	-11.4138
國土	-11.4138
王儲	-11.4139
▁相傳	-11.4141
已有	-11.4141
▁腦	-11.4141
舞臺劇演員	-11.4141
東邊嘅	-11.4141
宅	-11.4145
1.4	-11.4145
▁kai	-11.4145
ck	-11.4146
內容係	-11.4146
溫哥華	-11.4146
人民政府	-11.4147
▁kiu	-11.4148
替	-11.4148
整到	-11.4149
西環	-11.4151
臺南市	-11.4151
押	-11.4152
被發現	-11.4152
批判	-11.4155
百貨	-11.4155
禮儀	-11.4157
啤	-11.4158
長頸鹿	-11.4158
總統選舉	-11.4158
落選	-11.4159
磁	-11.416
束	-11.4161
香料	-11.4161
佢地	-11.4161
緊要	-11.4161
▁註	-11.4164
▁因為佢	-11.4171
拍過	-11.4177
就係話	-11.4177
發電	-11.4178
0.5	-11.4178
而來	-11.4183
▁cing	-11.4184
附近有	-11.4184
▁1976	-11.4187
披	-11.4187
▁閃	-11.419
zo	-11.419
於是乎	-11.4191
嚟食	-11.4192
發展出	-11.4193
茅	-11.4196
擦	-11.4197
軍方	-11.4198
270	-11.4198
▁爭	-11.4202
碩士	-11.4202
最細	-11.4203
凸	-11.4204
巾	-11.4204
▁kok	-11.4204
升到	-11.4205
第一隻	-11.4206
福音	-11.4208
麻煩	-11.4208
贈	-11.4209
嘅需求	-11.421
發電廠	-11.421
歧視	-11.421
朋	-11.4211
日野	-11.4211
信任	-11.4212
香港出世	-11.4213
之戰	-11.4216
簽咗	-11.4217
嘅組織	-11.4218
起來	-11.4219
嘅居民	-11.4219
▁high	-11.4219
▁john	-11.422
大宋	-11.4221
改進	-11.4221
視乎	-11.4223
鋁	-11.4223
號晚黑	-11.4223
廣州市人民政府	-11.4225
千萬	-11.4228
加熱	-11.4229
可以透過	-11.4229
發表咗	-11.4233
涵蓋	-11.4234
棱	-11.4234
女藝人	-11.4236
乾淨	-11.4238
佢曾經	-11.4239
祭祀	-11.4239
鍵盤	-11.424
有好大	-11.424
樓係站廳	-11.424
鄧小平	-11.424
拯救	-11.424
京都不死鳥	-11.424
匈奴	-11.4241
霖	-11.4241
大海	-11.4241
恐嚇	-11.4241
保育	-11.4241
舊址	-11.4242
屯馬綫	-11.4242
財富	-11.4243
圖片	-11.4243
公安	-11.4243
▁守	-11.4244
而唔	-11.4244
長方形	-11.4245
打獵	-11.4245
校方	-11.4246
偏向	-11.4247
現金	-11.4248
河口	-11.425
欖	-11.425
西域	-11.4251
上層	-11.4252
原子序號	-11.4252
傳教	-11.4254
制服	-11.4255
彩色	-11.4255
嘅演算法	-11.4255
▁拜	-11.4256
認可	-11.4256
係香港無綫電視	-11.4256
▁英國	-11.4258
國家隊	-11.426
▁mar	-11.426
bbs	-11.4261
▁野	-11.4262
就係指	-11.4262
下邊	-11.4262
社會科學	-11.4266
預先	-11.4267
西安	-11.4267
一開始	-11.4274
先後喺	-11.4275
全新	-11.4277
足球場	-11.4278
語音	-11.4278
新鮮	-11.428
化學反應	-11.4282
樂曲	-11.4283
▁初	-11.4283
野豬	-11.4284
裝甲	-11.4285
俄	-11.4285
唯一一個	-11.4285
月餅	-11.4287
垂直	-11.4287
提前	-11.4288
▁噉你	-11.4288
斯坦	-11.4289
柔	-11.429
山腳	-11.429
率先	-11.429
直線	-11.4292
ana	-11.4292
▁ngaa	-11.4293
崖	-11.4294
就俾	-11.4294
木材	-11.4297
係嘞	-11.4299
嘅交通	-11.4299
▁果	-11.43
出錢	-11.4302
年因	-11.4303
困	-11.4303
陀	-11.4303
▁牙	-11.4304
脆	-11.4304
後邊	-11.4305
tor	-11.4308
醫藥	-11.4308
但係就	-11.4309
月開花	-11.431
歌星	-11.4311
情歌	-11.4311
▁car	-11.4311
拘捕	-11.4312
懲罰	-11.4313
仗	-11.4318
威利	-11.432
食用	-11.432
盛行	-11.4323
起點	-11.4324
書面語	-11.4325
外形	-11.4325
呢套	-11.4327
西邊從	-11.4329
個社區	-11.4333
▁買	-11.4334
彼此之間	-11.4335
▁軟	-11.4339
無咗	-11.434
馬來語	-11.434
船隻	-11.434
偽	-11.4341
會影響	-11.4342
老友	-11.4342
▁mat	-11.4343
個省	-11.4343
鏟	-11.4346
所在	-11.4346
寵物小精靈	-11.4348
喺加拿大	-11.4349
黑警	-11.4351
潛水	-11.4351
共用	-11.4352
漆	-11.4353
環球	-11.4353
port	-11.4354
比較出名嘅	-11.4354
嘅人都	-11.4356
最高法院	-11.4357
▁兩	-11.4357
個區	-11.4358
▁1979	-11.4359
幾大	-11.436
▁naa	-11.4364
甚至有	-11.4364
納粹德國	-11.4365
▁條路	-11.4365
▁韓	-11.4369
所在地	-11.4369
紮	-11.437
彌	-11.4371
進行咗	-11.4376
醫學院	-11.4376
天文學家	-11.4378
真人騷節目	-11.4379
董事長	-11.4379
十月	-11.438
殺人	-11.4381
後代	-11.4382
(1999	-11.4382
▁皮	-11.4382
嬌	-11.4383
good	-11.4385
號先至	-11.4385
.)	-11.4386
呢三個	-11.4386
▁haa	-11.4389
除此之外	-11.4392
方位	-11.4393
▁佢係由	-11.4394
隨時	-11.4398
執政黨	-11.44
大氣	-11.4404
先至有	-11.4405
好多人都	-11.4405
曾志偉	-11.4406
買到	-11.4406
就用咗	-11.4406
系統嘅	-11.4408
教科書	-11.4411
軍官	-11.4411
▁傻	-11.4412
▁雖然佢	-11.4412
sans	-11.4412
貨運	-11.4412
享有	-11.4413
仕	-11.4414
身邊	-11.4415
藻	-11.4415
係講	-11.4417
上訴	-11.4417
零舍	-11.4418
抑或	-11.4418
汪精衛	-11.4418
▁七	-11.4419
sh	-11.4419
天后廟	-11.4422
fo	-11.4424
酒精	-11.4424
建制	-11.4424
娃	-11.4425
,1950	-11.4425
土瓜灣	-11.4425
▁pou	-11.4425
浣熊	-11.4425
堯	-11.4426
仙台七夕	-11.4426
菩薩	-11.4426
泳池	-11.4426
jessica	-11.4426
平定	-11.4427
小精靈	-11.4427
iphone	-11.4427
血統	-11.4428
號綫月臺	-11.4428
發言人	-11.443
軍艦	-11.443
異形	-11.4431
執笠	-11.4432
wing	-11.4432
電池	-11.4433
戰艦	-11.4433
充分	-11.4434
ix	-11.4434
嘅主角	-11.4434
期望	-11.4436
醇	-11.4436
引導	-11.4438
白雲區	-11.4441
5%	-11.4441
適	-11.4443
係香港女歌手	-11.4443
一行	-11.4443
支撐	-11.4444
▁鄭	-11.4444
▁公園	-11.4445
ant	-11.4445
他們	-11.4447
有錢	-11.4448
有問題	-11.445
▁dei	-11.445
噴	-11.445
cher	-11.4451
喺每年	-11.4453
java	-11.4454
融	-11.4455
地處	-11.4456
用地	-11.446
族人	-11.446
加以	-11.4463
cha	-11.4465
樣本	-11.4465
四月	-11.4466
強烈	-11.4467
к	-11.4468
一個月	-11.4468
畢業之後	-11.4469
阿聯酋	-11.4471
站係深圳地鐵	-11.4474
一篇	-11.4474
工作人員	-11.4475
過世	-11.4478
第三代	-11.4478
aceae	-11.4479
杉	-11.448
樣似	-11.4481
水準	-11.4482
向南	-11.4483
外圍	-11.4486
臘	-11.4486
76	-11.4491
江蘇省	-11.4492
合共	-11.4492
審判	-11.4493
▁左	-11.4495
北海	-11.4496
停咗	-11.4498
——《	-11.4499
安置	-11.4499
課室	-11.4502
▁r	-11.4505
喺好多	-11.4505
自細	-11.4509
は	-11.4512
咗嘅	-11.4513
中文名	-11.4513
▁留	-11.4515
回憶	-11.4516
拍電影	-11.4521
本站	-11.4522
(1978	-11.4523
107	-11.4523
梯	-11.4525
清代	-11.4526
▁薄	-11.4527
英倫	-11.4527
sek	-11.4527
演繹	-11.4528
集中喺	-11.4529
恢復返	-11.4529
加州	-11.4531
嘅星	-11.4535
整合	-11.4537
電壓	-11.454
攤	-11.454
特首	-11.4543
納入	-11.4544
到去	-11.4544
屆金曲獎	-11.4545
忍	-11.4547
海洋公園	-11.4547
矛盾	-11.4548
有毒	-11.455
晚黑	-11.455
商務	-11.4551
消除	-11.4552
千里	-11.4553
嘅能量	-11.4554
張專輯	-11.4555
▁1948	-11.4555
消	-11.4557
衍生	-11.4559
兄	-11.4559
係點	-11.456
唔計	-11.4561
佢哋係	-11.4561
景點	-11.4562
▁提	-11.4563
兩名	-11.4564
史學家	-11.4564
之不過	-11.4564
而家喺	-11.4567
企喺	-11.4568
印度人	-11.4568
ler	-11.4569
驗	-11.4569
り	-11.4569
點啊	-11.4569
蝙蝠	-11.4571
嘅關注	-11.4575
嘅會員	-11.4582
真人	-11.4582
anne	-11.4582
蠔	-11.4585
跟隨	-11.4585
致力	-11.4586
ls	-11.4587
受損	-11.4587
貪污	-11.459
seoi	-11.4592
coeng	-11.4593
衍	-11.4594
泳	-11.4594
西關	-11.4595
號起好	-11.4596
好過	-11.4597
危害	-11.4599
瞓覺	-11.46
探測	-11.4601
三星	-11.4603
總經理	-11.4604
呢一點	-11.4606
考察	-11.4607
嘅貢獻	-11.4609
嘅大細	-11.4609
筍	-11.4609
sou	-11.4609
徹底	-11.461
留學	-11.461
鶇	-11.4611
八十八	-11.4612
塔利班	-11.4612
gau	-11.4613
定向	-11.4613
亦有人	-11.4614
鳥棲砂岩	-11.4614
札幌岡薩多	-11.4614
咯	-11.4615
年香港立法會選舉	-11.4615
喪屍	-11.4615
支聯會	-11.4615
糧食	-11.4616
gong	-11.4616
齊秦	-11.4617
所需	-11.4617
23:00	-11.4618
號晏晝	-11.4618
用品	-11.4618
男朋友	-11.4618
鋪頭	-11.4619
三峽	-11.4619
轉做	-11.4619
黎明	-11.462
再將	-11.462
極限	-11.4621
▁早期	-11.4621
天生	-11.4621
固體	-11.4621
原本嘅	-11.4622
間接	-11.4623
開始咗	-11.4623
ff	-11.4626
茶葉	-11.4627
重疊	-11.4627
內嘅	-11.4628
年設立	-11.4628
落車	-11.4628
年開始用	-11.4629
另外有	-11.463
全線	-11.4631
▁退	-11.4631
有兩種	-11.4631
哥哥	-11.4631
其中地下	-11.4632
貫通	-11.4632
被告	-11.4633
▁事後	-11.4635
貨車	-11.4635
被殺	-11.4636
等方面	-11.4636
▁min	-11.4636
優先	-11.4637
救援	-11.4638
▁謝	-11.4639
沙面	-11.4639
社交	-11.464
知名	-11.464
校友	-11.464
畢業後	-11.464
同志	-11.4642
嘅一條	-11.4642
道具	-11.4644
又冇	-11.4649
滯	-11.4653
▁唔係啊	-11.4654
就畀	-11.4654
▁主	-11.4655
研究員	-11.4655
送到	-11.4656
消耗	-11.4657
特點	-11.4659
亦都會	-11.4661
▁呢套劇	-11.4662
雞肉	-11.4662
▁盲	-11.4663
早餐	-11.4667
睇唔到	-11.467
亡國	-11.467
多數用	-11.4671
雖	-11.4672
月到	-11.4673
8%	-11.4674
明白	-11.4675
個字母	-11.4677
▁古時	-11.4677
▁雲	-11.468
日記	-11.468
羅馬尼亞	-11.4681
live	-11.4681
平方呎	-11.4683
都唔知	-11.4683
噉我	-11.4684
方程	-11.4687
好耐	-11.469
鯨魚	-11.469
▁my	-11.4692
佢個名	-11.4692
伊斯蘭	-11.4695
不利	-11.4703
聰明	-11.4706
快啲	-11.4709
流經	-11.4709
友好	-11.471
海港	-11.471
(1980	-11.4713
oi	-11.4714
級數	-11.4716
▁咬	-11.4718
▁sa	-11.4721
最長	-11.4722
晨	-11.4726
展出	-11.4728
嗰陣會	-11.473
▁pa	-11.4731
▁分鐘	-11.4731
淵	-11.4733
▁talk	-11.4733
夢想	-11.4734
底下	-11.4735
上空	-11.4736
彼得	-11.4737
近似	-11.4739
傳染病	-11.4742
撥款	-11.4743
褸	-11.4743
仿	-11.4744
墩	-11.4744
靚女	-11.4745
冇可能	-11.4747
▁認	-11.4748
頒	-11.4749
ab	-11.4749
籍貫	-11.4749
煩	-11.475
dou	-11.4751
さ	-11.4752
獵	-11.4753
高句麗	-11.4755
簡單嘅	-11.4755
喝	-11.4756
舊時叫	-11.4758
回族	-11.4758
▁閒	-11.4759
死人	-11.4759
付	-11.476
長春	-11.476
雀仔	-11.4764
淋	-11.4765
嘅一個郡	-11.4766
會響	-11.4766
裝咗	-11.4767
▁植株	-11.4769
中斷	-11.477
▁zin	-11.477
係香港嘅山	-11.4771
石刻	-11.4771
嘅續集	-11.4772
氣氛	-11.4773
另一種	-11.4773
唱作人	-11.4775
pi	-11.4776
蝶	-11.4778
而有	-11.4779
▁深	-11.478
▁life	-11.4781
生活嘅	-11.4781
真正嘅	-11.4781
年嘅美國	-11.4781
水面	-11.4782
箍	-11.4782
建基於	-11.4783
嘅藝人	-11.4784
▁呢度	-11.4785
沙撈越	-11.4785
呢項	-11.4787
帶埋	-11.4788
年左右	-11.4788
羅馬帝國	-11.4788
係好	-11.4788
經濟學家	-11.4789
睇住	-11.479
出戰	-11.479
先進	-11.4791
jyut	-11.4795
係指由	-11.4796
音符	-11.4798
呢場	-11.4798
330	-11.4799
係英倫	-11.4799
徹	-11.48
瀉	-11.4801
鯨	-11.4801
書法	-11.4801
香港賽馬會	-11.4802
藩	-11.4802
輕鐵	-11.4803
拿破崙	-11.4804
觀塘綫	-11.4805
閱讀	-11.4806
成日用	-11.4806
晃	-11.4806
爵士樂	-11.4806
錘	-11.4807
有三個	-11.4807
糾紛	-11.4807
beyond	-11.4807
mirror	-11.4807
萍	-11.4807
土著	-11.4807
監視	-11.4808
呢個問題	-11.4809
▁daan	-11.4809
第個名係	-11.481
公告	-11.4811
昭和	-11.4812
東北面	-11.4812
創業	-11.4812
有名	-11.4814
短期	-11.4814
政區	-11.4815
來到	-11.4815
▁偏	-11.4815
都已經	-11.4816
農場	-11.4816
ford	-11.4816
提早	-11.4817
全程	-11.4819
炮臺	-11.4819
防守	-11.4819
大戰	-11.482
亦冇	-11.4821
嘅產品	-11.4821
鬼佬	-11.4823
傾偈	-11.4825
168	-11.4827
嘅權力	-11.4829
嘅小	-11.4833
攞住	-11.4833
音節	-11.4834
轉成	-11.4835
▁sek	-11.4835
隊友	-11.4836
係泰國	-11.4836
米蘭	-11.4838
八個	-11.4839
中華人民共和國政府	-11.4839
nes	-11.4841
質子	-11.4841
hu	-11.4842
ut	-11.4845
東路	-11.4845
都一樣	-11.4845
閩	-11.4846
▁1966	-11.4846
剩	-11.4848
▁association	-11.485
嘅歌曲	-11.485
唔停	-11.4852
蟻	-11.4852
歸康樂及文化事務署管	-11.4856
rtc	-11.4859
電機	-11.486
部首	-11.486
▁hou	-11.4865
步驟	-11.4865
組建	-11.4867
1916	-11.4869
圖形	-11.487
嘅首府	-11.4873
落地	-11.4878
上臺	-11.4881
嘅位	-11.4883
▁we	-11.4885
但係由於	-11.4885
大概有	-11.4886
嗰位	-11.4888
湘	-11.4888
西路	-11.4889
股東	-11.4889
條線	-11.489
(1976	-11.489
瀑布	-11.4892
河邊	-11.4895
互	-11.4899
梗係	-11.4899
甚至重	-11.4899
▁佢話	-11.4899
原先嘅	-11.4899
(1997	-11.4899
路面	-11.4899
上載	-11.4901
仲話	-11.4902
國會議員	-11.4903
昇	-11.4903
有助	-11.4904
▁zik	-11.4906
條公共屋邨	-11.4907
▁1952	-11.4908
套戲	-11.4908
少咗	-11.4909
亦有唔少	-11.4909
臺中	-11.491
銷	-11.4911
月起	-11.4914
直屬	-11.4914
句子	-11.4917
會所	-11.4918
授	-11.4918
佢個仔	-11.492
穩定嘅	-11.4921
音高	-11.4921
一期	-11.4922
上山	-11.4922
嘅其中一種	-11.4922
91	-11.4923
蘇軾	-11.4925
個島	-11.4925
嘅觀點	-11.4928
冧巴	-11.4929
唐代	-11.4929
連載	-11.4931
唔過	-11.4931
紀念碑	-11.4934
此外	-11.4935
啡色	-11.4936
▁查	-11.4936
嗰橛	-11.4938
▁逆	-11.4939
▁model	-11.494
見證	-11.4942
稱號	-11.4943
禪	-11.4944
今年	-11.4944
社民黨	-11.4945
開發嘅	-11.4945
主體	-11.4948
首位	-11.4949
嘅女仔	-11.4949
卵	-11.4949
相互	-11.495
就唔	-11.4951
輩	-11.4952
歡	-11.4953
值得	-11.4954
阿爸係	-11.4955
▁十	-11.4956
亦係香港	-11.4957
證券	-11.4958
暈	-11.4958
南宋	-11.496
一條街	-11.4961
沙巴	-11.4963
坤	-11.4964
non	-11.4964
天文臺	-11.4965
嘆	-11.4968
ol	-11.4968
stephen	-11.4968
05	-11.497
炳	-11.4972
參與者	-11.4973
詞語	-11.4973
認為係	-11.4974
外表	-11.4974
▁排	-11.4975
蜂	-11.4976
就成為	-11.4977
睡	-11.4977
號召	-11.4983
公共交通	-11.4985
但冇	-11.4986
拗	-11.4987
呢本書	-11.4987
維多利亞	-11.4989
東鐵綫	-11.499
彼	-11.4991
正規	-11.4992
south	-11.4992
係星加坡	-11.4993
君子	-11.4993
間分店	-11.4995
不明	-11.4995
呢間學校	-11.4996
背脊	-11.4997
管理局	-11.4997
冤	-11.4997
▁juk	-11.4998
不等	-11.4999
虹	-11.4999
休閒	-11.4999
禮堂	-11.4999
經理	-11.5
修建	-11.5
徽	-11.5
蹄	-11.5
鯉魚門	-11.5
圭	-11.5
漫	-11.5001
預算	-11.5002
"1}	-11.5002
滲透	-11.5002
love	-11.5003
▁斷	-11.5003
三國演義	-11.5003
層樓嘅地下區域	-11.5003
鄭中基	-11.5003
시	-11.5003
上高	-11.5003
元旦係禮拜	-11.5003
操縱	-11.5003
週末	-11.5004
coaster	-11.5004
南華	-11.5004
參議員	-11.5004
中亞	-11.5005
交配	-11.5005
配搭	-11.5006
製造商	-11.5006
唔小心	-11.5006
進修	-11.5006
牧	-11.5007
膊頭	-11.5008
用法	-11.5008
區嘅	-11.5009
發言	-11.5011
做皇帝	-11.5012
楚國	-11.5012
佢重	-11.5012
free	-11.5014
傅	-11.5014
▁黐	-11.5015
唔見	-11.5018
▁圓	-11.5018
女朋友	-11.5019
聽眾	-11.502
暱稱	-11.5021
相應嘅	-11.5021
首席	-11.5021
光明	-11.5022
百年	-11.5022
阿發	-11.5023
nd	-11.5023
▁耶穌	-11.5025
大受歡迎	-11.5026
同類	-11.5026
打低	-11.5026
萬蚊	-11.5026
係美國嘅	-11.5027
抗爭	-11.5027
穿越	-11.5031
▁1975	-11.5033
鄭和	-11.5034
峽	-11.5034
賽車	-11.5034
發酵	-11.5035
103	-11.5035
人為	-11.5037
係荷蘭	-11.5043
—19	-11.5045
▁餘	-11.5045
虛構	-11.5045
出租	-11.5048
光學	-11.505
▁ko	-11.5051
▁赤	-11.5053
▁豐	-11.5056
向前	-11.5059
經濟發展	-11.5059
硬件	-11.5062
液體	-11.5062
傳達	-11.5064
前進	-11.5064
記得	-11.5065
轉播	-11.5066
入場	-11.5067
(1998	-11.5067
撤	-11.507
暗殺	-11.5071
如果佢	-11.5072
方程式	-11.5072
國際社會	-11.5072
))》	-11.5075
同佢哋	-11.5075
▁鹹	-11.5076
83	-11.5078
tes	-11.5079
男足球員	-11.5081
地段	-11.5083
六四事件	-11.5084
一景	-11.5088
▁呢樖嘢	-11.5088
會產生	-11.509
學家	-11.509
有少少	-11.509
黨魁	-11.5092
▁飯	-11.5093
喺國土	-11.5094
另一邊	-11.5094
ist	-11.5097
打造	-11.51
1901	-11.51
嘅品種	-11.5101
開始有	-11.5102
諸葛亮	-11.5103
一區	-11.5103
爲主	-11.5104
畀啲	-11.5104
北極	-11.5106
嘅意見	-11.5107
nu	-11.5108
立法委員	-11.5109
▁武	-11.5111
打贏	-11.5111
瓣	-11.5114
選舉委員會	-11.5116
文化同	-11.5116
▁麥	-11.5119
短暫	-11.5119
儒家	-11.5123
國號	-11.5124
▁1956	-11.5125
正式成立	-11.5126
月推出	-11.5126
𡁵	-11.5127
”,	-11.5128
爾個	-11.5128
滴	-11.5129
嘅工具	-11.5129
berg	-11.5131
奇幻	-11.5134
城縣	-11.5134
lan	-11.514
派系	-11.5143
由美國	-11.5144
噉樣嘅	-11.5146
歐洲人	-11.5146
近乎	-11.5147
嘅乘客	-11.5147
被認為	-11.5147
永安	-11.5147
生物學家	-11.5149
hak	-11.515
》;	-11.515
年憑	-11.5151
▁因為噉	-11.5151
星期六	-11.5152
好多種	-11.5152
喻	-11.5155
に	-11.5156
花生	-11.5158
▁channel	-11.5161
樹皮	-11.5162
亨利	-11.5164
1.8	-11.5165
包括有	-11.5165
阿頭	-11.5166
隔住	-11.5166
即使係	-11.5167
法則	-11.5167
3,000	-11.5168
公屋	-11.5169
傢俬	-11.517
韻尾	-11.517
罐	-11.517
▁照	-11.517
2,000	-11.5171
▁lik	-11.5172
八月	-11.5172
鳳凰	-11.5173
字嘅	-11.5174
發燒	-11.5174
一號	-11.5175
修行	-11.5176
多元化	-11.5177
▁蒲	-11.5177
享	-11.5177
末期	-11.5178
唔掂	-11.5178
▁windows	-11.5179
歷史學家	-11.5179
對香港	-11.5181
授予	-11.5183
用返	-11.5183
官兵	-11.5187
強化	-11.5188
要點	-11.5189
繁	-11.5189
威爾斯	-11.519
▁哈	-11.5193
慕	-11.5193
開支	-11.5195
卡爾	-11.5195
而如果	-11.5197
欠	-11.5198
交叉	-11.5198
傳教士	-11.52
裁定	-11.5201
減筆	-11.5201
顯著	-11.5201
寇	-11.5201
匙	-11.5202
速遞	-11.5203
但係佢哋	-11.5203
一國兩制	-11.5203
|	-11.5203
間諜	-11.5203
係杜鵑花目杜鵑花科	-11.5203
郭富城	-11.5203
風味	-11.5204
切韻	-11.5205
雪糕	-11.5205
評級	-11.5205
疑似	-11.5206
風俗	-11.5207
劇情片	-11.5207
平方度	-11.5207
餵	-11.5207
嘅單位	-11.5208
千年	-11.5208
石屎	-11.5211
瑞典文	-11.5211
商朝	-11.5213
清理	-11.5213
hoeng	-11.5214
high	-11.5215
world	-11.5217
埃塞俄比亞	-11.5217
阿爸阿媽	-11.5217
聽覺	-11.5217
左近	-11.522
萬元	-11.5221
▁雷	-11.5225
pop	-11.5228
同名	-11.5228
west	-11.5228
足球隊	-11.5229
her	-11.5229
軍營	-11.5232
咁耐	-11.5233
沃	-11.5235
▁kau	-11.5235
有線電視	-11.5239
鄭公山	-11.5239
博弈論	-11.5239
小販	-11.524
土耳其文	-11.524
最常見嘅	-11.5242
艙	-11.5242
凈係得	-11.5242
▁積	-11.5243
目的地	-11.5243
冇耐	-11.5243
洪水	-11.5246
所有嘅	-11.5248
畀佢哋	-11.5249
草地	-11.5249
▁扯	-11.525
唔只	-11.5252
磷酸	-11.5253
court	-11.5254
oh	-11.5255
▁磨	-11.5256
熱帶氣旋	-11.5256
南邊嘅	-11.5257
有種	-11.5257
發展到	-11.5258
隻手	-11.5261
▁作	-11.5261
嘅細佬	-11.5263
嘅記錄	-11.5264
歷代	-11.5267
治安	-11.5273
行過	-11.5276
pc	-11.5279
墳	-11.5279
元朝	-11.5281
因為咁	-11.5282
佢哋會	-11.5285
桌	-11.5285
從未	-11.5287
▁hop	-11.5288
同第啲	-11.5288
▁富	-11.529
化石	-11.5291
240	-11.5291
要做	-11.5292
嘅生物	-11.5294
類似嘅	-11.5295
一款	-11.5296
天空	-11.5297
工程學	-11.5299
有機	-11.53
▁丟	-11.53
最好嘅	-11.5301
頒佈	-11.5302
但係呢	-11.5302
cv	-11.5304
幾個月	-11.5305
▁1965	-11.5306
係瑞典	-11.5306
▁cho	-11.5307
一方	-11.5308
年到前	-11.5309
澄清	-11.5309
受害者	-11.531
移居	-11.5312
相應	-11.5314
一些	-11.5316
▁蛇	-11.5319
以免	-11.5321
▁kaa	-11.5323
油麻地	-11.5325
擴散	-11.5326
就無	-11.5326
佢阿爸	-11.533
用緊	-11.5331
食材	-11.5332
晚會	-11.5332
如下	-11.5332
夕	-11.5336
神像	-11.5339
嘅演出	-11.5341
唐字	-11.5342
級別	-11.5344
廿一世紀	-11.5346
落來	-11.535
產量	-11.5356
買家	-11.5356
中子	-11.5357
+8	-11.5358
唔一樣	-11.536
京城	-11.536
黑白	-11.5362
起到	-11.5363
年開始做	-11.5363
自然科學	-11.5364
高峯	-11.5367
新村	-11.5371
軍區	-11.5372
等如	-11.5373
唔穩定	-11.5374
▁梁	-11.5374
係指一啲	-11.5374
夫婦	-11.5375
墻	-11.5375
做成	-11.5375
歌唱	-11.5377
開業	-11.5379
晶	-11.5379
多元	-11.538
帶到	-11.538
伸	-11.5381
waa	-11.5382
岐阜	-11.5382
聚居	-11.5382
腺	-11.5385
cou	-11.5387
ram	-11.5387
北邊嘅	-11.5388
一職	-11.5389
譬如話	-11.5389
嫌	-11.5391
它	-11.5392
草原	-11.5393
賭博	-11.5393
每人	-11.5394
燒烤	-11.5397
京都	-11.5398
東北邊	-11.5399
▁ros	-11.54
天子	-11.5401
轉投	-11.5401
,1959	-11.5403
豪宅	-11.5403
1877	-11.5404
匪	-11.5404
瘋	-11.5405
捷運	-11.5405
射擊遊戲	-11.5405
客運	-11.5405
louis	-11.5405
平假名	-11.5406
哉	-11.5406
繁榮	-11.5406
有返咁上下	-11.5406
屆香港區議會選舉	-11.5406
解除	-11.5407
神戶勝利船	-11.5407
櫈	-11.5407
朱元璋	-11.5407
叛亂	-11.5408
踢中場	-11.5408
室內體育館	-11.5408
嘅要求	-11.5408
寡	-11.5408
fuso	-11.5408
直譯	-11.5408
私家車	-11.5408
嘅思想	-11.5408
最佳女主角	-11.5409
文化大革命	-11.5409
歌斯嘉	-11.5409
長時間	-11.5409
紐約時報	-11.5409
廚師	-11.541
體內	-11.541
潮流	-11.541
向西	-11.541
形勢	-11.5412
橡膠	-11.5412
霜	-11.5413
繪畫	-11.5413
惡化	-11.5414
瀨	-11.5418
行駛	-11.5418
蚊葡幣	-11.5418
號逢禮拜日	-11.5418
啞	-11.542
唔確定	-11.542
一眾	-11.542
復出	-11.5421
開出	-11.5422
號逢禮拜六	-11.5422
終止	-11.5422
蒼	-11.5423
joseph	-11.5423
個人電腦	-11.5424
笨	-11.5425
薛	-11.5425
西江	-11.5425
週邊	-11.5426
很	-11.5427
united	-11.5428
定位	-11.5429
1902	-11.5429
變相	-11.5433
應用程式	-11.5435
保守黨	-11.5438
凌晨	-11.544
喺當地	-11.544
▁莫	-11.544
對付	-11.544
喺公元前	-11.5441
▁不過喺	-11.5442
ier	-11.5442
大嘅	-11.5443
▁滑	-11.5443
ping	-11.5444
係指喺	-11.5445
高鐵	-11.5445
土庫曼	-11.5446
傳聞	-11.5447
嘅事件	-11.545
片長	-11.5455
尊稱	-11.5459
權威	-11.546
龐	-11.546
改建	-11.546
大概係	-11.5461
▁out	-11.5461
遊戲設計	-11.5462
有位	-11.5462
ec	-11.5462
嘅水	-11.5464
▁up	-11.5465
挺	-11.5468
喺大陸	-11.547
▁哀	-11.547
不是	-11.5471
拉丁	-11.5472
佢仲	-11.5472
逮捕	-11.5472
亦成為	-11.5472
▁踩	-11.5474
綁	-11.5475
▁遊	-11.5481
ging	-11.5481
龐大	-11.5482
第三次	-11.5482
mk	-11.5483
▁齊	-11.5483
侵犯	-11.5483
1896	-11.5483
1870	-11.5484
或其他	-11.5485
▁試	-11.5486
▁滿	-11.5489
1.7	-11.5489
甚至乎	-11.5489
第一架	-11.549
樖	-11.549
▁之但係	-11.5491
可以睇嚇	-11.5494
▁os	-11.5494
▁雅	-11.5495
證書	-11.5496
烏克蘭文	-11.5497
坳	-11.5497
中間有	-11.5498
夾埋有	-11.5499
inter	-11.5502
連鎖	-11.5502
去睇	-11.5509
長者	-11.5509
鄰	-11.5513
▁taai	-11.5514
護理	-11.5515
未經	-11.5515
出土	-11.5516
雨水	-11.5517
主打	-11.5518
mai	-11.5519
可以用嚟做	-11.552
年正式出道	-11.5521
▁1982	-11.5523
▁寶	-11.5525
踩	-11.5526
起源於	-11.5528
兩層	-11.5528
回收	-11.553
抹	-11.5533
娛樂圈	-11.5534
其他地區	-11.5534
塊面	-11.5535
▁tang	-11.5535
嘅形狀	-11.5535
肇慶	-11.5536
第二大	-11.5536
個名嚟自	-11.5536
▁印	-11.5536
北上	-11.5537
康樂	-11.5539
去旅行	-11.5541
嘅聲	-11.5545
▁baak	-11.5545
china	-11.5546
條尾	-11.5547
六四	-11.5548
竈	-11.5549
胞	-11.555
合埋	-11.5551
援	-11.5553
發表聲明	-11.5554
龍蝦	-11.5557
一個鐘	-11.5559
粟米	-11.556
▁流	-11.5561
▁1981	-11.5562
南亞	-11.5563
嘅意思係	-11.5565
好出名	-11.5565
二戰	-11.5566
▁wah	-11.5566
年代起	-11.5567
係佢嘅	-11.5567
好多時都會	-11.5568
係一座	-11.5568
逃	-11.5571
再加	-11.5572
▁元	-11.5572
迦	-11.5579
負責人	-11.558
西區	-11.5582
重返	-11.5584
改由	-11.5588
常數	-11.5589
ə	-11.5591
武漢肺炎疫情	-11.5593
▁machine	-11.5593
演化	-11.5596
▁標	-11.5597
啓	-11.5597
島嶼	-11.5597
嘅睇法	-11.5598
祕魯	-11.5598
會上	-11.5598
對比	-11.5599
說話	-11.56
警隊	-11.5602
立陶宛	-11.5603
第日	-11.5603
帥	-11.5604
好多個	-11.5604
借用	-11.5607
嘅機械	-11.5608
繁忙時間	-11.5609
▁貓	-11.5609
甸	-11.5609
斧	-11.561
語言嘅	-11.561
喺越南	-11.561
成分	-11.561
▁呢隻	-11.5612
菇	-11.5612
1600	-11.5612
筲箕灣	-11.5613
踢前鋒	-11.5614
▁故此	-11.5614
海南島	-11.5614
盾	-11.5614
黃大仙	-11.5614
甲府風林	-11.5615
水戶蜀葵	-11.5615
福岡黃蜂	-11.5615
年嘅臺灣係介紹臺灣喺	-11.5616
佔天球面積	-11.5616
座標	-11.5616
有票務設施	-11.5616
messier	-11.5616
▁夾	-11.5616
乒乓波	-11.5616
芝莎	-11.5616
攻入	-11.5617
各方	-11.5617
by	-11.5617
傳承	-11.5618
歡樂	-11.5618
紀念館	-11.5618
在內	-11.5618
季軍	-11.5619
珠寶	-11.5619
生前	-11.5619
廣韻	-11.5619
▁男	-11.562
luk	-11.562
飲品	-11.5621
祝	-11.5623
嘅一個州	-11.5623
罷工	-11.5623
youtuber	-11.5624
記憶體	-11.5624
印度教	-11.5624
創建	-11.5625
幹預	-11.5625
地勢	-11.5626
被譽為	-11.5626
旨在	-11.5627
專輯入面	-11.5628
第二輯	-11.5628
遂	-11.563
甘地	-11.563
▁望	-11.5631
躉	-11.5632
中路	-11.5632
撻	-11.5632
民生	-11.5632
台山	-11.5633
寶石	-11.5634
係套喺	-11.5634
辯	-11.5636
▁entertainment	-11.5636
導彈	-11.5637
林冠英	-11.5637
枕	-11.5637
扭	-11.5639
效	-11.564
話佢哋	-11.5641
呵	-11.5642
▁徐	-11.5643
▁套	-11.5643
年代中	-11.5644
直升機	-11.5644
佔士	-11.5644
學生會	-11.5644
fans	-11.5645
西漢	-11.5646
ngaai	-11.5646
就係一個	-11.5646
熱帶	-11.5648
紅星	-11.5649
𡃉啫	-11.5653
嘅祖先	-11.5653
率領	-11.5653
一帶嘅	-11.5653
zyu	-11.5654
前夕	-11.5654
身分	-11.5654
北歐	-11.5656
瑪麗	-11.5656
music	-11.5659
就係由	-11.566
大馬	-11.566
動態	-11.5661
ah	-11.5662
去世	-11.5662
▁索	-11.5664
310	-11.5671
一般嚟講	-11.5673
懶	-11.5673
咗啲	-11.5675
▁蒙	-11.5676
種子	-11.5677
係香港新界	-11.568
址	-11.5683
▁依	-11.5689
5.5	-11.5689
嘅文章	-11.5692
投入服務	-11.5694
會同	-11.5695
▁jung	-11.5695
跑馬地	-11.5696
年出	-11.5698
大圍	-11.5699
呢個地方	-11.5702
gung	-11.5703
個縣	-11.5704
民居	-11.5705
由於佢	-11.5708
嘅消息	-11.571
慳	-11.5711
無數	-11.5712
南極	-11.5713
桂林	-11.5713
守門員	-11.5714
黃現璠	-11.5716
行山	-11.5717
mc	-11.5718
係波蘭	-11.572
二級	-11.5721
一條河	-11.5729
燃料	-11.573
重用	-11.5731
嘅決定	-11.5735
籌備	-11.5739
好遠	-11.574
嘅藝術	-11.5744
清晰	-11.5744
唔成	-11.5745
▁江	-11.5745
救火	-11.5746
護士	-11.5747
嘅土地	-11.5748
優秀	-11.5748
▁偷	-11.5749
珊瑚	-11.5751
化成	-11.5752
嘅區域	-11.5754
天河區	-11.5755
粒到	-11.5757
發現嘅	-11.5758
▁節目喺	-11.5761
又再	-11.5761
新九龍	-11.5761
出錯	-11.5761
騎馬	-11.5762
中醫	-11.5763
體育會	-11.5765
講咗	-11.5765
▁直	-11.5768
舊時係	-11.5769
嘅證明	-11.5771
▁hotel	-11.5771
▁鬆	-11.5771
▁house	-11.5773
嚟起	-11.5774
1.1	-11.5774
黃智雯	-11.5774
力學	-11.5775
克斯	-11.5775
miss	-11.578
嘅狼	-11.578
▁佢曾經喺	-11.5782
垣	-11.5783
之餘	-11.5783
▁spike	-11.5784
▁leung	-11.5784
可以令	-11.5784
二月	-11.5785
女士	-11.5786
強迫	-11.5787
個陣	-11.5789
猛獅	-11.579
華南地區	-11.5792
蔚	-11.5793
神經網絡	-11.5794
新增	-11.5796
恤	-11.5796
唔錯	-11.5798
▁禁	-11.5798
年攞到	-11.5799
萌	-11.5802
好多嘢	-11.5804
鵬	-11.5804
ology	-11.5804
比較少	-11.5805
嘅經驗	-11.5806
都仲係	-11.5806
攞埋	-11.5806
中西區	-11.5807
嘅態度	-11.5807
186	-11.5807
上陣	-11.5808
黑人	-11.5808
專登	-11.5809
預留	-11.5812
▁紫	-11.5813
轉向	-11.5813
秤	-11.5814
佢參加	-11.5815
嗰段	-11.5816
凡係	-11.5816
旭	-11.5818
fon	-11.5818
宣告	-11.582
體型	-11.5821
一下	-11.5821
蝨	-11.5822
硫	-11.5822
▁1930	-11.5823
氮	-11.5824
配備	-11.5824
公益	-11.5824
因為喺	-11.5824
113	-11.5824
志願	-11.5824
碩	-11.5825
入邊嘅	-11.5825
競賽	-11.5826
追蹤	-11.5826
▁yuen	-11.5826
輔導	-11.5826
▁貪	-11.5827
二期	-11.5827
西鐵綫	-11.5827
涅	-11.5827
大宮松鼠	-11.5828
醜聞	-11.5828
栃木	-11.5828
站名	-11.5828
gothic	-11.5828
日本電視遊戲寵物小精靈系列入面嘅	-11.5828
頻繁	-11.5828
乒乓球檯	-11.5829
kevin	-11.5829
無得	-11.5829
停電	-11.5829
西遊記	-11.5829
為首發歌手	-11.5829
而定	-11.583
避難	-11.583
自願	-11.5831
西歐	-11.5831
廢咗	-11.5831
大使館	-11.5832
孤	-11.5832
行走	-11.5833
盆地	-11.5833
カ	-11.5833
一覽	-11.5833
新北市	-11.5835
教省	-11.5837
使者	-11.5837
嘅網站	-11.5837
普京	-11.5838
標本	-11.5838
▁基	-11.5839
雕刻	-11.584
交代	-11.584
衰變	-11.584
好友	-11.5841
退位	-11.5843
色情	-11.5844
有軌電車	-11.5844
跑道	-11.5844
突然間	-11.5845
綿	-11.5847
廈門	-11.5849
亦開始	-11.5849
128	-11.585
隻軟件	-11.585
消化	-11.5851
兩組	-11.5851
襯	-11.5852
咳	-11.5853
絨	-11.5853
合同	-11.5854
▁八	-11.5855
雪梨	-11.5855
建立嘅	-11.5857
野生	-11.5859
疾	-11.586
以往	-11.5862
椰子	-11.5863
tan	-11.5864
就是	-11.5864
合組	-11.5864
出品	-11.5865
塑	-11.5868
嘅一位	-11.5869
雖然係	-11.5869
塞爾維亞	-11.5869
其間	-11.5869
一陣	-11.5869
出現過	-11.587
同俄羅斯	-11.587
只不過係	-11.5871
撒	-11.5872
み	-11.5872
▁實	-11.5872
等等嘅	-11.5875
等地方	-11.5875
奸	-11.5875
▁tube	-11.5876
控股	-11.5878
black	-11.5878
間中	-11.5879
得多	-11.5879
全香港	-11.5879
嗰套	-11.588
得票	-11.5884
▁引	-11.5885
棲	-11.5888
翡翠臺	-11.5888
(1979	-11.5888
都同	-11.5888
▁挨	-11.5889
結論	-11.5892
笪	-11.5893
消毒	-11.5895
排行榜	-11.5897
造成嘅	-11.5897
夫妻	-11.5898
ization	-11.59
喺大埔	-11.59
屬第	-11.59
dc	-11.59
事先	-11.5901
啊真係	-11.5904
▁dance	-11.5904
app	-11.5905
嘅起源	-11.5909
1906	-11.591
,1971	-11.5913
公約	-11.5913
注入	-11.5914
確診	-11.5915
清拆	-11.5918
▁daat	-11.5918
坐喺	-11.5921
神仙	-11.5921
神星	-11.5924
圍牆	-11.5928
呢次選舉	-11.5929
▁gam	-11.593
特質	-11.593
深度	-11.5932
只能夠	-11.5934
勝利	-11.5935
打橫	-11.5935
木雕	-11.5936
呢處	-11.5938
▁yu	-11.594
源頭	-11.5941
漢陽	-11.5943
嘅日子	-11.5944
馬力	-11.5947
▁public	-11.5948
▁coi	-11.5948
▁淫	-11.5949
他人	-11.5949
受歡迎	-11.5951
一連串	-11.5952
▁syun	-11.5952
深受	-11.5953
住嘅	-11.5954
一個禮拜	-11.5955
係非洲	-11.5955
好多地方	-11.596
郵票	-11.596
校內	-11.5961
庵	-11.5964
及時	-11.5964
下游	-11.5964
美學	-11.5964
智商	-11.5964
1894	-11.5965
年輕	-11.5968
領地	-11.5971
殯儀館	-11.5971
六百	-11.5972
一聲	-11.5973
▁zeon	-11.5973
簽名	-11.5974
▁象	-11.5975
▁呢間	-11.598
個鎮	-11.5982
透明	-11.5982
1.3	-11.5982
南便	-11.5982
م	-11.5983
一般都係	-11.5983
簡寫	-11.5988
惟	-11.5989
特色係	-11.5989
況	-11.599
另一位	-11.599
傳送	-11.5992
▁知	-11.5994
81	-11.5995
135	-11.5995
呢位	-11.5996
▁壽	-11.5996
語法	-11.5997
位置喺南	-11.5998
嘅唔同	-11.6001
分公司	-11.6002
北岸	-11.6002
遭到淘汰	-11.6003
鹹水	-11.6005
年正式	-11.6009
良好	-11.601
晚年	-11.6012
指明	-11.6013
嗣	-11.6013
陷	-11.6013
多間	-11.6014
殖民	-11.6014
交匯	-11.6016
喺中國廣東	-11.6016
92	-11.6016
真名	-11.6016
中國中央電視臺	-11.6017
年獲	-11.6018
嘅牌	-11.6018
黃河	-11.6019
▁xp	-11.6019
民族主義	-11.602
要將	-11.6021
所得	-11.6023
悟	-11.6023
▁骨	-11.6025
戶口	-11.6026
都係喺	-11.6027
▁1977	-11.6029
sm	-11.603
馬來	-11.603
▁草	-11.6031
賣咗	-11.6032
焉	-11.6034
巡	-11.6035
推斷	-11.6035
黑暗	-11.6036
芙蓉	-11.6036
應該要	-11.6036
屏幕	-11.6037
履	-11.6037
臺南	-11.6037
課題	-11.6038
三級	-11.6038
▁斑	-11.6038
罷免	-11.6039
捷克斯洛伐克	-11.604
各項	-11.6041
延遲	-11.6042
斌	-11.6042
葫蘆	-11.6042
系列嘅	-11.6042
裁判	-11.6043
論文	-11.6043
東北走向	-11.6045
親戚	-11.6045
秋田藍閃電	-11.6045
支付	-11.6045
湘南比馬	-11.6045
株式會社	-11.6045
視頻	-11.6045
減輕	-11.6046
屬嘅常綠喬木	-11.6046
南丫島	-11.6046
▁corporation	-11.6046
妓女	-11.6046
客務中心同商鋪	-11.6046
▁records	-11.6046
攻略	-11.6046
藤枝	-11.6047
洋蔥	-11.6047
𡃉咋	-11.6047
運送	-11.6047
羽毛球場	-11.6047
粵語流行曲	-11.6047
橙色	-11.6049
聖母	-11.605
守護	-11.6051
下一個	-11.6052
歌唱比賽	-11.6052
有一定	-11.6055
2.3	-11.6056
▁設施有	-11.6057
親民黨	-11.6057
emi	-11.606
寺院	-11.606
係中國廣東省廣州市嘅一間	-11.6061
▁即使	-11.6061
揸車	-11.6062
並未	-11.6066
但有	-11.6067
aux	-11.6068
塗	-11.6068
利亞	-11.6068
▁靈	-11.607
涉	-11.607
發光	-11.6072
cat	-11.6073
文法	-11.6074
係中國廣東廣州嘅東西走向	-11.6075
傳輸	-11.6076
▁he	-11.6077
▁湯	-11.6077
茄	-11.6077
執教過	-11.6078
跟進	-11.6078
280	-11.6078
字頭	-11.6079
靖	-11.6079
遊戲機	-11.608
粉紅	-11.608
港督	-11.6083
nhk	-11.6083
一直去到	-11.6085
古埃及	-11.6085
交界開始	-11.6086
狄	-11.6086
125	-11.6087
老人家	-11.6087
麥當勞	-11.6087
更多嘅	-11.6087
01	-11.6088
成員國	-11.6089
荊	-11.609
前線	-11.6092
手語	-11.6092
聯合會	-11.6093
豪華	-11.6094
場競演	-11.6095
鴉	-11.6095
餐館	-11.6097
sky	-11.6098
潮濕	-11.6098
搵唔到	-11.6098
ɑ	-11.6098
揚州	-11.6099
街口	-11.6099
命運	-11.61
sei	-11.61
用字	-11.6101
佢去	-11.6102
嚴重嘅	-11.6103
平安	-11.6105
削	-11.6106
嘅社會	-11.6106
輸咗畀	-11.6106
2.8	-11.6106
次序	-11.6107
▁building	-11.6109
皇太子	-11.6109
馬騮	-11.6111
感官	-11.6111
anti	-11.6114
用語	-11.6114
嘅認識	-11.6114
當地人	-11.6116
嶺南大學	-11.6116
嘅基礎上	-11.612
又有叫	-11.6123
一大柞	-11.6123
出動	-11.6124
(1974	-11.6125
老撾	-11.6125
不知	-11.6127
咦	-11.6128
yo	-11.6128
▁saang	-11.6128
中方	-11.613
一般喺	-11.613
bat	-11.6132
ice	-11.6133
副總統	-11.6135
調景嶺	-11.6135
遺傳	-11.6137
音樂節	-11.6137
好多次	-11.6138
噉樣喇	-11.6138
六十	-11.6139
藍田	-11.614
訂立	-11.6142
遭受	-11.6142
bus	-11.6143
培育	-11.6144
二仔	-11.6145
▁bun	-11.6146
號綫喺	-11.6146
舊稱	-11.6147
華北	-11.6149
轉乘	-11.6152
如果有	-11.6153
製品	-11.6155
差距	-11.6156
三月	-11.6158
▁ku	-11.6159
盧森堡	-11.616
迫害	-11.6162
▁all	-11.6163
▁sea	-11.6163
▁network	-11.6165
些少	-11.6165
仲未	-11.6167
呢間嘢	-11.6167
▁這	-11.6168
被叫做	-11.6168
有住	-11.617
帶頭	-11.6171
語系	-11.6171
考入	-11.6172
hou	-11.6174
收視	-11.6177
亦因為	-11.6178
白雲山	-11.6178
市出世	-11.6179
灣仔區	-11.6179
大城市	-11.6181
義務	-11.6184
戲曲	-11.6185
因為有	-11.6185
許可	-11.6185
森美	-11.6187
關鍵	-11.6188
tro	-11.6188
貌	-11.619
哥倫比亞	-11.619
▁lu	-11.619
▁說	-11.619
落咗	-11.6192
約莫有	-11.6193
相隔	-11.6193
纜	-11.6193
澱粉	-11.6194
係中國廣東廣州嘅一間	-11.6195
提取	-11.6196
惡劣	-11.6198
▁漢	-11.6202
字型	-11.6203
常見於	-11.6203
激進	-11.6204
▁重慶	-11.6204
大雄	-11.6206
古城	-11.6206
開口	-11.6208
升降機	-11.6209
嘅發音	-11.6209
最快	-11.6211
紡織	-11.6211
喺倫敦	-11.6213
英國政府	-11.6215
幕後	-11.6216
前名	-11.6217
公投	-11.6217
起咗個	-11.6218
至少有	-11.6221
嘔	-11.6222
入圍第	-11.6224
▁party	-11.6226
2017》	-11.6226
捕	-11.6227
考古	-11.6227
cing	-11.6228
▁toi	-11.6228
一處	-11.6228
夏季	-11.6229
狙擊	-11.6229
標示	-11.623
轉去	-11.623
kan	-11.6231
魚類	-11.6232
北周	-11.6232
撤退	-11.6237
康熙	-11.6238
離開咗	-11.6238
奶茶	-11.6238
拍子	-11.6239
伶	-11.624
曼谷	-11.624
中華民國政府	-11.6241
雙手	-11.6242
激	-11.6243
▁趕	-11.6244
有大約	-11.6245
賓館	-11.6246
ル	-11.6246
消滅	-11.6247
輕鬆	-11.6247
搏	-11.6248
療法	-11.6248
領導嘅	-11.6249
有機化合物	-11.6249
衞生	-11.625
yan	-11.625
送去	-11.6252
肺炎	-11.6252
一個叫	-11.6253
武昌	-11.6254
來做	-11.6254
唔敢	-11.6255
190	-11.6255
辨	-11.6255
▁丁	-11.6256
捐款	-11.6258
1875	-11.6259
國外	-11.6259
儲起	-11.6259
版嘅	-11.626
漲	-11.6261
十七	-11.6261
喺海珠區	-11.6261
講師	-11.6261
沼	-11.6261
band	-11.6261
領隊	-11.6262
漢堡	-11.6263
礁	-11.6263
▁pui	-11.6265
傘	-11.6265
唔記得	-11.6266
▁街名係嚟自	-11.6266
醣	-11.6267
峻	-11.6267
ん	-11.6268
電訊盈科	-11.6268
呢兩	-11.6268
裴楷	-11.6268
김	-11.6268
媒介	-11.6268
和諧	-11.6268
操控	-11.6268
煽動	-11.6268
趙構	-11.6269
愛媛	-11.6269
▁神經	-11.6269
間客房	-11.6269
全職	-11.6269
賞識	-11.6269
嘅戲	-11.627
ceoi	-11.627
放映	-11.627
指揮官	-11.6271
幫襯	-11.6272
部署	-11.6273
擔當	-11.6273
軟體	-11.6274
貫	-11.6276
喊做	-11.6276
你覺得	-11.6277
啲學生	-11.6278
俾玩家	-11.6278
死於	-11.6281
▁而佢嘅	-11.6282
播映	-11.6283
唔似得	-11.6284
日益	-11.6284
但嗰時	-11.6284
咗去	-11.6287
老人同殘疾人士	-11.6287
手下	-11.629
美斯	-11.629
管理層	-11.629
射擊	-11.629
仍然係	-11.6291
曹魏	-11.6291
六月	-11.6291
廣大	-11.6293
個模型	-11.6295
▁z	-11.6295
丹麥文	-11.6298
с	-11.6299
足球代表隊	-11.6299
帶咗	-11.6301
欽州	-11.6301
有唔同嘅	-11.6303
ous	-11.6303
tot	-11.6304
zit	-11.6305
▁膠	-11.6305
景觀	-11.6306
將個	-11.6307
歌王	-11.6308
祕	-11.631
鋼鐵	-11.6311
▁麻	-11.6312
當時係	-11.6312
住戶	-11.6312
我就	-11.6312
▁擦	-11.6313
觀念	-11.6314
專欄	-11.6315
▁1927	-11.6315
ふ	-11.6315
西北邊	-11.6315
呢個角色	-11.6317
吞	-11.6319
大氣層	-11.6319
nt	-11.6322
維他命	-11.6322
ren	-11.6322
早前	-11.6325
▁樸	-11.6326
某種	-11.6329
bbc	-11.6329
應承	-11.633
管道	-11.633
並稱	-11.6331
▁呢套戲	-11.6332
周杰倫	-11.6333
阿塞拜疆	-11.6333
鬱手	-11.6334
幅圖	-11.6334
age	-11.6335
level	-11.6335
外星人	-11.6335
十萬	-11.6336
麪包	-11.6338
行人	-11.6338
隻動物	-11.6338
關心	-11.634
傷亡	-11.6341
▁football	-11.6341
賠	-11.6342
世代	-11.6343
邨係香港嘅一	-11.6343
馬拉	-11.6345
船廠	-11.6345
係最	-11.6345
一書	-11.6346
wa	-11.6347
嘅一個省	-11.6348
幾百	-11.6349
▁不可	-11.635
saa	-11.635
ea	-11.635
放咗	-11.6351
▁隨	-11.6352
驚悚	-11.6352
▁鬥	-11.6353
參數	-11.6353
推出嘅	-11.6354
ez	-11.6354
而成為	-11.6355
兵力	-11.6356
撰寫	-11.6356
就任	-11.6357
特點係	-11.6358
數列	-11.6359
廣播劇	-11.6359
印度洋	-11.636
大量嘅	-11.636
第二次世界大戰	-11.636
時事	-11.6362
耶路撒冷	-11.6362
呢種做法	-11.6362
都會用	-11.6363
佢老婆	-11.6363
介入	-11.6363
嘅詞	-11.6365
講座	-11.6367
▁消	-11.6368
舞步	-11.6368
望落	-11.6368
人類嘅	-11.6368
▁val	-11.6369
結束後	-11.6369
▁總	-11.637
嘅頻率	-11.637
鷗	-11.6373
雅典	-11.6373
任總統	-11.6374
不安	-11.6374
心理學家	-11.6374
總冠軍	-11.6374
南邊從	-11.6375
海底	-11.6375
楠	-11.6378
登基	-11.6378
1897	-11.6379
行政上歸	-11.6379
罪犯	-11.6381
就唔會	-11.6383
原本叫	-11.6383
宋代	-11.6384
將會喺	-11.6385
就因為	-11.6386
河河口	-11.6389
局長	-11.639
▁wa	-11.639
▁孖	-11.6392
▁咦	-11.6393
電腦科學	-11.6396
有名嘅	-11.6396
▁如估	-11.6399
▁呢個站喺	-11.6399
唔同地方	-11.6402
整咗個	-11.6402
缸	-11.6402
進士	-11.6403
實在	-11.6405
會展	-11.6406
1.0	-11.6406
所用嘅	-11.6406
相傳	-11.6407
▁dau	-11.6408
含量	-11.641
豎	-11.6412
咁長	-11.6414
斯洛伐克	-11.6414
循	-11.6415
年成為	-11.6416
九州	-11.6416
戰事	-11.6419
可以直接	-11.642
fer	-11.6421
▁london	-11.6422
嘅一個概念	-11.6423
▁hz	-11.6423
都有唔同	-11.6426
金額	-11.6426
農曆	-11.6428
鰂魚涌	-11.643
平日	-11.643
院長	-11.6431
燈籠	-11.6431
▁比如	-11.6432
四位	-11.6433
rs	-11.6434
間學校	-11.6435
媒	-11.6435
花序	-11.6439
已故	-11.6439
,1952	-11.6441
保守	-11.6444
僕	-11.6444
1880	-11.6445
送畀	-11.6445
四隻	-11.6447
最主要嘅	-11.6447
亦做過	-11.6448
▁跳	-11.645
▁相反	-11.645
藝術品	-11.6452
歲嗰陣	-11.6452
喺全球	-11.6456
暑	-11.6457
鑒	-11.6458
冧咗	-11.6459
上岸	-11.646
唔大	-11.6461
發展嘅	-11.6461
▁溫	-11.6462
最古老嘅	-11.6463
為中心	-11.6464
自治縣	-11.6464
well	-11.6465
舞蹈員	-11.6466
▁gwai	-11.6466
又唔係	-11.6466
學校嘅	-11.6466
可以睇到	-11.6466
密切	-11.6466
匹	-11.6467
摩打	-11.6469
工作者	-11.647
金獎	-11.6471
接住	-11.6472
唔單只	-11.6472
指引	-11.6472
羹	-11.6473
星星	-11.6474
鴉片	-11.6477
熊貓	-11.648
115	-11.6481
擾	-11.6481
市政局	-11.6481
飯店	-11.6481
勿	-11.6481
大增	-11.6482
標題	-11.6483
當成	-11.6483
民意	-11.6485
仍然有	-11.6485
委託	-11.6487
開平	-11.6487
脹	-11.6487
研製	-11.6488
接待	-11.6489
而俾	-11.649
鈔	-11.6491
抗戰	-11.6492
笠	-11.6492
而不	-11.6492
偈	-11.6493
嘅病	-11.6493
必然	-11.6493
釣魚	-11.6494
哈利波特	-11.6494
剌	-11.6494
簾	-11.6494
瑪竇	-11.6495
望遠鏡	-11.6495
德島漩渦	-11.6495
通往	-11.6495
緩跑徑	-11.6495
壟斷	-11.6495
▁轄區總面積	-11.6495
悼念	-11.6495
android	-11.6495
▁肉眼可以睇到	-11.6495
鴝	-11.6495
珊瑚礁	-11.6495
突圍賽演唱	-11.6495
拉丁轉寫	-11.6495
▁estate	-11.6496
爭奪	-11.6496
卡通	-11.6496
具備	-11.6496
壓縮	-11.6496
濟州島	-11.6496
考驗	-11.6496
破產	-11.6497
職業生涯	-11.6497
刑事	-11.6497
通常有	-11.6497
▁松	-11.6497
或者就咁叫	-11.6497
丹拿	-11.6498
亞媽	-11.6498
伴奏	-11.6499
時嘅	-11.6499
樹枝	-11.65
漸漸	-11.65
dy	-11.6501
百度	-11.6503
ent	-11.6503
到佢	-11.6504
喜劇電影	-11.6504
共識	-11.6505
水流	-11.6506
白雲	-11.6506
業界	-11.6506
▁但由於	-11.6507
性交	-11.6507
克羅地亞	-11.6508
項羽	-11.6509
大事	-11.6509
▁釐米	-11.651
原著	-11.6511
詩經	-11.6511
на	-11.6511
縮細	-11.6511
係古希臘	-11.6511
▁應	-11.6513
▁bar	-11.6513
花瓣	-11.6513
年之間	-11.6513
村莊	-11.6513
坎	-11.6514
為名	-11.6514
飛去	-11.6514
尖沙嘴	-11.6514
打前鋒	-11.6515
統籌	-11.6516
小池	-11.6517
聯合颱風警報中心	-11.6518
揼	-11.6518
係墨西哥	-11.652
電腦程式	-11.6521
新傳媒	-11.6522
公國	-11.6523
世紀嘅	-11.6523
勝出	-11.6524
tim	-11.6524
av	-11.6527
日人口有	-11.6527
戰場	-11.6529
流行嘅	-11.6531
完之後	-11.6532
股價	-11.6532
嘅程式	-11.6535
向東	-11.6536
▁針	-11.6537
過海	-11.6538
(1972	-11.654
進度	-11.654
sous	-11.654
ire	-11.654
稱爲	-11.6543
萬平方公里	-11.6543
公里嘅	-11.6544
原唱	-11.6544
同英國	-11.6544
加密	-11.6544
▁紙	-11.6544
嘅官方	-11.6545
外號	-11.6545
jam	-11.6545
號開業	-11.6546
阿爾	-11.6547
以前叫	-11.6548
村入面	-11.6549
嘅權利	-11.6553
零件	-11.6553
魚肉	-11.6553
教材	-11.6553
山水	-11.6553
廣義上	-11.6555
譽	-11.6555
拓	-11.6556
煮食	-11.6557
河東	-11.6558
改爲	-11.6558
做完	-11.6559
汽水	-11.656
▁1953	-11.656
230	-11.6563
淳	-11.6563
攞到第	-11.6564
負擔	-11.6565
澄	-11.6565
拜仁	-11.6568
(1975	-11.657
鑿	-11.657
樓盤	-11.657
被判	-11.6571
狐	-11.6571
▁複	-11.6571
往往會	-11.6575
杜拜	-11.6575
▁call	-11.6576
層面	-11.6577
地標	-11.6577
鎂	-11.6578
四百	-11.6578
牛頓	-11.658
嘅主題	-11.658
決定將	-11.6581
次數	-11.6585
又得	-11.6585
單嘢	-11.6585
thomas	-11.6585
exta	-11.6586
出來嘅	-11.6586
淫	-11.6586
好似個	-11.6587
多媒體	-11.6588
使到	-11.6588
ida	-11.6588
gdp	-11.659
(2000	-11.659
晚上	-11.6591
好處	-11.6592
幾條	-11.6593
女星	-11.6594
green	-11.6594
挑	-11.6594
噉啊	-11.6596
隋煬帝	-11.6598
maria	-11.6599
鯊魚	-11.66
籌	-11.66
▁淺	-11.6601
bre	-11.6603
正係	-11.6604
席位	-11.6605
事務所	-11.6605
友誼	-11.6608
gan	-11.6608
回教	-11.6609
林鄭月娥	-11.6613
音標	-11.6615
踏入	-11.6615
▁招	-11.6616
教派	-11.6617
▁song	-11.6618
太陽系	-11.6619
對佢哋	-11.6623
匿	-11.6624
1874	-11.6624
大石	-11.6625
有些少	-11.6625
作咗	-11.6625
佢開始	-11.6626
再由	-11.6627
冇幾耐	-11.6628
gui	-11.6628
保加利亞	-11.6629
出演	-11.6629
後嘅	-11.663
係朝鮮民主主義人民共和國	-11.663
焦點	-11.663
▁關	-11.6631
▁耳	-11.6632
▁design	-11.6635
各區	-11.6637
中午	-11.6638
lee	-11.664
陶瓷	-11.664
咁高	-11.6641
太大	-11.6643
▁fai	-11.6643
▁混	-11.6646
面頭	-11.6648
▁haau	-11.665
遺跡	-11.6651
典型	-11.6651
教義	-11.6654
兩粒	-11.6655
係世界	-11.6655
遷徙	-11.6656
深海	-11.6659
▁秋	-11.6661
被揭發	-11.6661
上嚟	-11.6661
於是佢	-11.6664
遵守	-11.6666
(?—	-11.6666
賣出	-11.6668
嘅性質	-11.6669
女友	-11.6669
▁廣	-11.6671
▁朝	-11.6671
米爾	-11.6672
新型	-11.6673
審議	-11.6673
四種	-11.6674
衫褲	-11.6675
▁找	-11.6677
唯	-11.6677
榕	-11.6677
坐車	-11.6678
向下	-11.668
▁cam	-11.6681
外觀	-11.6682
星期日	-11.6685
流水	-11.6685
選票	-11.6686
嗰時係	-11.6686
嘅球員	-11.6687
離島	-11.6687
1%	-11.6687
尤其喺	-11.6688
絕種	-11.6688
營養	-11.6689
鱷	-11.669
個個	-11.6691
香港特別行政區	-11.6692
元首	-11.6694
香港樂壇	-11.6694
都叫	-11.6695
tri	-11.6696
只係得	-11.6696
𢆡	-11.6697
萬名	-11.6697
最受歡迎	-11.6697
最細嘅	-11.6697
酯	-11.6699
心口	-11.6702
午	-11.6702
寧波	-11.6702
妝	-11.6704
大馬路	-11.6704
多位	-11.6705
lia	-11.6705
稍	-11.6706
一集	-11.6706
史書	-11.6707
有啲係	-11.6708
唔符合	-11.6709
兩架	-11.671
為佢	-11.671
▁班	-11.6711
sau	-11.6711
▁1958	-11.6711
立委	-11.6711
對立	-11.6712
古巴	-11.6712
她	-11.6713
香港市民	-11.6713
熱帶雨林	-11.6713
王后	-11.6714
沛	-11.6715
kol	-11.6716
10%	-11.6718
男友	-11.6719
意味住	-11.6719
站廳	-11.672
領事館	-11.6722
災害	-11.6722
游泳池	-11.6723
▁east	-11.6723
制裁	-11.6724
食水	-11.6724
附加	-11.6725
會搞到	-11.6725
係根據	-11.6726
蕊	-11.6726
茵	-11.6727
係大韓民國嘅一個女藝人同埋	-11.6727
周恩來	-11.6727
大分三神	-11.6727
山形山神	-11.6727
曝光	-11.6727
八爪魚	-11.6728
薈	-11.6728
沓	-11.6728
螢幕	-11.6728
徐佳瑩	-11.6728
ɐ	-11.6728
敦煌	-11.6728
新約聖經	-11.6728
噪鶥	-11.6728
噪音	-11.6728
研究顯示	-11.6728
無咎	-11.673
清廷	-11.6731
命名為	-11.6731
攝氏	-11.6731
離世	-11.6731
一般人	-11.6731
替代	-11.6732
第一期	-11.6732
鑽石	-11.6733
律政司	-11.6733
大律師	-11.6733
普通話拼音	-11.6734
網球場	-11.6734
違法	-11.6734
嘅選擇	-11.6734
國家安全	-11.6735
▁傳統上	-11.6737
博士學位	-11.6737
幫人	-11.6738
阿寬	-11.6738
引述	-11.6739
岩	-11.674
中國高速公路	-11.674
升做	-11.674
範圍包括	-11.6741
平方公里咁大	-11.6742
紀念日	-11.6743
為人	-11.6743
▁立	-11.6743
洛杉磯	-11.6743
傷者	-11.6743
紐約市	-11.6744
上晝	-11.6744
嘅數字	-11.6745
▁west	-11.6745
▁搵	-11.6746
▁your	-11.6747
出名作品包括	-11.6748
欽	-11.6748
安縣	-11.6748
卽係	-11.6748
az	-11.6752
340	-11.6752
古仔	-11.6753
一律	-11.6753
▁as	-11.6753
呢帶	-11.6754
▁佛	-11.6754
放假	-11.6755
德軍	-11.6755
▁hall	-11.6755
1905	-11.6757
借錢	-11.6757
以致	-11.6757
bit	-11.6757
掂到	-11.6757
晏晝	-11.6759
ish	-11.6761
鑄造	-11.6761
梯度	-11.6763
臨牀	-11.6763
禁區	-11.6764
乜都	-11.6767
維基百科	-11.6768
不變	-11.6769
133	-11.677
東歐	-11.6774
球迷	-11.6775
罰款	-11.6777
頭一次	-11.6778
佢被	-11.6778
dor	-11.6779
一條路	-11.6779
親中	-11.6781
嘅距離	-11.6782
緡	-11.6783
細仔	-11.6783
搵返	-11.6785
▁at	-11.6785
緯度	-11.6785
畢業生	-11.6788
滾	-11.6788
30%	-11.679
德國嘅	-11.679
日出	-11.6793
gon	-11.6793
而成嘅	-11.6794
0.3	-11.6795
證明咗	-11.6795
年頭	-11.6795
pre	-11.6798
階層	-11.6801
baa	-11.6803
公民黨	-11.6803
港人	-11.6804
行使	-11.6805
警司	-11.6806
向量空間	-11.6807
一間公司	-11.6807
三水	-11.681
巫	-11.6811
好大嘅	-11.6811
流派	-11.6812
▁甜	-11.6812
熱潮	-11.6812
cal	-11.6812
頂部	-11.6814
可以分為	-11.6814
仰	-11.6814
亞歷山大	-11.6816
一代	-11.6816
起緊	-11.6816
做決策	-11.6816
罷	-11.6816
闢	-11.6817
و	-11.6818
癌症	-11.6818
喺新加坡	-11.6819
嗰陣嘅	-11.6822
1888	-11.6823
т	-11.6827
報章	-11.6828
嗰晚	-11.6828
打電話	-11.6828
唔算	-11.6828
繫	-11.6829
擁躉	-11.6831
掩	-11.6832
幾個人	-11.6833
北非	-11.6833
分散	-11.6833
ei	-11.6833
henry	-11.6833
galaxy	-11.6834
樹林	-11.6836
風格嘅	-11.6836
下面有	-11.6838
field	-11.6839
龐統	-11.6839
係位於	-11.6839
漢奸	-11.6839
麗的電視	-11.684
loeng	-11.684
嘅責任	-11.6841
普通嘅	-11.6841
fei	-11.6842
越來越多	-11.6842
平聲	-11.6843
cung	-11.6846
會令到	-11.6848
諗到	-11.6849
賣畀	-11.6849
op	-11.6851
安定	-11.6854
許多	-11.6856
就係佢	-11.6856
大雨	-11.6857
經由	-11.6857
即位	-11.6858
神經系統	-11.6858
las	-11.6861
以上嘅	-11.6861
post	-11.6861
て	-11.6862
嘅女人	-11.6863
還原	-11.6864
如此	-11.6864
耳仔	-11.6865
後果	-11.6865
▁不過到咗	-11.6865
五百	-11.6866
車廂	-11.6867
嘅東邊	-11.6869
ios	-11.6869
高壓	-11.687
渡輪	-11.6871
號稱	-11.6872
菠蘿	-11.6873
嘅粵語	-11.6874
▁1971	-11.6875
計數	-11.6876
睇過	-11.6876
eric	-11.6876
▁big	-11.6877
▁mui	-11.6878
如何	-11.6878
一向	-11.6879
舞曲	-11.6879
縣城	-11.6881
▁防	-11.6881
▁折	-11.6882
傳染	-11.6883
等佢	-11.6883
▁屈	-11.6884
靚仔	-11.6885
嘅角度	-11.6885
ɛ	-11.6886
爪哇	-11.6887
廟宇	-11.6887
▁bei	-11.6887
好鬼	-11.6888
診斷	-11.6888
所講嘅	-11.6888
神學	-11.689
對應嘅	-11.689
嘅最大	-11.6891
就做	-11.6891
就係咁	-11.6891
汝	-11.6892
▁gaak	-11.6894
係唯一	-11.6894
▁art	-11.6895
金曲獎	-11.6896
人間	-11.6897
嘅最高	-11.6898
ham	-11.6901
納粹	-11.6902
お	-11.6902
嘅日本	-11.6905
地殼	-11.6907
生態系統	-11.6908
五大	-11.6908
爆出	-11.6913
▁粉	-11.6914
兼職	-11.6915
eure	-11.6915
獲獎	-11.6921
近衛	-11.6921
損害	-11.6923
托	-11.6926
傑出	-11.6926
負責管理	-11.6927
相同嘅	-11.6927
評判	-11.6928
椒	-11.6928
1871	-11.693
廿八	-11.6932
之意	-11.6933
▁眞	-11.6934
計算機	-11.6935
▁一般認為	-11.6935
公式	-11.6936
睇實	-11.6937
收購咗	-11.6939
▁寬	-11.6939
有五	-11.694
同演員	-11.694
發聲	-11.6941
印象	-11.6942
南唐	-11.6943
馬達加斯加	-11.6943
灌木	-11.6943
噉囖	-11.6944
185	-11.6944
社會嘅	-11.6944
中學讀	-11.6948
微生物	-11.6948
國際象棋	-11.6948
▁宿	-11.6949
德意志	-11.695
之間有	-11.695
每個禮拜	-11.6953
大洋洲	-11.6955
虞	-11.6957
人心	-11.6957
哩樣嘢	-11.6958
壹	-11.6959
鈞	-11.6959
市內	-11.6959
湛江	-11.696
回復	-11.6961
下嘅	-11.6961
渣打銀行	-11.6961
魁	-11.6961
薯仔	-11.6962
誼	-11.6962
聞名	-11.6962
ino	-11.6963
街同	-11.6963
片假名	-11.6964
拓展	-11.6964
紅十字會	-11.6965
康熙字典	-11.6965
鈣	-11.6965
目嘅一個科	-11.6965
新潟天鵝	-11.6965
冷卻	-11.6966
司儀	-11.6966
optare	-11.6966
○	-11.6966
附近範圍劃咗入	-11.6966
수	-11.6966
정	-11.6966
無軌電車	-11.6966
犯規	-11.6966
佈置	-11.6966
美容	-11.6966
揭露	-11.6966
係香港女模特兒	-11.6967
▁teng	-11.6967
走廊	-11.6967
獎學金	-11.6967
觀賞	-11.6967
結盟	-11.6967
流行曲	-11.6967
新華社	-11.6968
配置	-11.6968
存款	-11.6968
樂迷	-11.6968
無效	-11.697
關閘	-11.697
▁呢個時候	-11.697
選美	-11.6972
▁寒	-11.6972
油畫	-11.6973
嘅學校	-11.6973
農曆新年	-11.6975
有網民	-11.6975
係香港男藝人	-11.6976
界別	-11.6977
咗一啲	-11.6977
規例	-11.6978
基層	-11.6978
旅程	-11.6979
暢	-11.698
cho	-11.6981
乾隆	-11.6982
д	-11.6984
萬港元	-11.6985
經歷過	-11.6986
羅馬傳語	-11.6987
然之後	-11.6989
名牌	-11.699
嘅規定	-11.6991
550	-11.6991
判決	-11.6991
嘅個體	-11.6991
背面	-11.6992
▁套戲	-11.6993
▁植株高	-11.6993
山坡	-11.6993
dna	-11.6993
義工	-11.6994
▁mon	-11.6997
崛起	-11.6997
選秀節目	-11.6997
黨主席	-11.6997
▁每	-11.6998
配料	-11.6999
高考	-11.6999
澳門通	-11.7001
啲乜	-11.7002
د	-11.7002
流出	-11.7002
打交	-11.7003
建築面積	-11.7004
就業	-11.7004
外牆	-11.7005
南部嘅	-11.7007
年舉行	-11.7008
垂	-11.7009
▁申	-11.7009
鳥類	-11.7011
飲酒	-11.7011
日日	-11.7012
▁way	-11.7012
是為	-11.7012
利潤	-11.7013
線性	-11.7013
嘅小說	-11.7015
▁棉	-11.7016
▁利	-11.7017
▁per	-11.7017
▁1969	-11.7019
鉛	-11.7019
大戲	-11.7019
太和	-11.702
流域	-11.7021
太極	-11.7023
一地	-11.7023
iata	-11.7024
▁髮	-11.7025
以前嘅	-11.7027
高雄市	-11.703
香港特區政府	-11.703
可以攞嚟	-11.7033
rna	-11.7033
同廣州	-11.7034
麵粉	-11.7034
做題材	-11.7035
目標係	-11.7035
係香港電視廣播有限公司	-11.7035
一堆	-11.7036
2.4	-11.7036
*	-11.7037
捉到	-11.7042
北愛爾蘭	-11.7042
只係理論	-11.7046
錫克教	-11.7047
mh	-11.7048
屯門區	-11.7048
高低	-11.705
嘅優勢	-11.705
殊	-11.7052
1867	-11.7053
▁呢種植物	-11.7054
pat	-11.7056
1890	-11.7056
隋	-11.7057
研	-11.7059
幾萬	-11.706
係希臘	-11.706
▁許	-11.7061
發佈嘅	-11.7061
日間	-11.7061
惜	-11.7063
批發	-11.7064
▁gwo	-11.7064
幫過	-11.7065
留言	-11.7066
1893	-11.7066
君主制	-11.7067
able	-11.7068
▁財	-11.7068
水浸	-11.7068
▁矮	-11.7069
蘿蔔	-11.707
憎	-11.7072
計出	-11.7073
呢個過程	-11.7073
▁第二日	-11.7074
學士學位	-11.7075
常規	-11.7077
摩洛哥	-11.7081
測驗	-11.7081
終點站	-11.7081
捧	-11.7082
▁fe	-11.7083
ken	-11.7085
要去	-11.7085
羅拔	-11.7085
vin	-11.7086
高嘅	-11.7088
好簡單	-11.7088
獄	-11.709
只不過	-11.7093
主持係	-11.7094
廣東人	-11.7094
如果唔係	-11.7094
е	-11.7094
甘肅	-11.7095
▁ca	-11.7096
喺唔同	-11.7097
打咗	-11.7098
南美洲	-11.7099
詐	-11.71
—195	-11.71
其次係	-11.7102
同時又	-11.7102
話過	-11.7103
巨大嘅	-11.7103
1.9	-11.7104
客觀	-11.7104
同馬來西亞	-11.7104
▁羊	-11.7104
第四季	-11.7106
好多時都係	-11.7108
鄉民	-11.7109
嘅其一	-11.7113
光緒	-11.7116
為香港	-11.7116
嘅色	-11.7117
演變成	-11.7117
教育家	-11.7117
呢一個	-11.7118
自主	-11.7118
響應	-11.7119
▁扣	-11.7119
喺當時	-11.7119
而設	-11.712
▁jam	-11.712
羽毛球	-11.7122
ada	-11.7123
搶救	-11.7123
而用咗	-11.7123
左派	-11.7124
航海	-11.7125
即係佢	-11.7126
▁棕	-11.7129
▁殘	-11.713
好興	-11.7131
西班牙人	-11.7132
正式出道	-11.7136
聖誕節	-11.7137
堪	-11.7137
左翼	-11.7138
斯基	-11.7142
吉祥	-11.7142
▁充	-11.7142
嘅球隊	-11.7144
1872	-11.7144
時間係	-11.7146
補習	-11.7146
改返	-11.7146
盟軍	-11.7147
嘅力量	-11.7149
▁而佢	-11.7149
],	-11.715
呢啲地方	-11.715
▁service	-11.7151
1883	-11.7152
梭	-11.7153
空中	-11.7153
十幾年	-11.7153
忌廉	-11.7155
匯合	-11.7156
▁識	-11.7157
▁memory	-11.7159
街邊	-11.7161
冚唪唥都	-11.7161
貧	-11.7165
吸引咗	-11.7165
係蘇聯	-11.7166
埔	-11.7167
歐洲嘅	-11.7169
north	-11.7171
姿	-11.7171
世界文化遺產	-11.7173
拼寫	-11.7173
後裔	-11.7173
萊茵	-11.7174
就嚟	-11.7174
anna	-11.7175
虎門	-11.7176
分咗	-11.7176
嘅情緒	-11.7179
ward	-11.7181
嘅第一個	-11.7182
裝住	-11.7182
▁fei	-11.7182
遺產	-11.7183
美國政府	-11.7184
本地人	-11.7185
際	-11.7188
社會運動	-11.7189
精靈	-11.7189
衹	-11.7189
同好多	-11.7189
央	-11.719
▁夏	-11.719
完咗	-11.7191
起訴	-11.7193
呢份	-11.7195
美麗	-11.7196
吻	-11.7196
更改	-11.7197
嗯	-11.7197
0°	-11.7198
兩公婆	-11.7199
九鐵	-11.72
電報	-11.72
糠	-11.72
狹	-11.72
▁另	-11.7202
港島綫	-11.7205
資深	-11.7207
交響樂團	-11.7208
架空	-11.7209
盡量	-11.7209
示範	-11.7209
隙	-11.7209
唔係咁	-11.7209
嘅特色	-11.721
右手	-11.721
▁有一到四等星	-11.721
倡議	-11.721
▁備註	-11.721
檢討	-11.721
羅密歐	-11.721
舊石器時代	-11.721
適當	-11.7211
商舖	-11.7211
▁但喺	-11.7212
刻意	-11.7212
myfc	-11.7212
過程入面	-11.7212
報警	-11.7212
樹脂	-11.7212
手續	-11.7213
對上	-11.7214
介面	-11.7214
東南面	-11.7214
沸點	-11.7214
氣功	-11.7215
最近嘅	-11.7216
增加咗	-11.7216
大約係	-11.7217
講求	-11.7217
新興	-11.7218
ir	-11.7218
進軍	-11.7219
09	-11.7219
不得	-11.722
線上	-11.7221
香港國際機場	-11.7223
出咗名	-11.7223
佢已經	-11.7224
對外開放	-11.7225
算術	-11.7226
唔見咗	-11.7226
260	-11.7226
開拍	-11.7227
嘥	-11.7227
汶萊	-11.7228
派咗	-11.7231
喺而家	-11.7231
城邦	-11.7232
mes	-11.7232
七十	-11.7233
演技	-11.7233
入波	-11.7234
嘅可能性	-11.7237
呢個站嘅	-11.7237
有自己嘅	-11.7238
封面	-11.724
▁甘	-11.7242
文憑	-11.7242
慎	-11.7245
號公佈	-11.7247
人民幣	-11.7248
巡迴演唱會	-11.7248
qua	-11.7252
帶走	-11.7256
位處	-11.7256
方面嘅	-11.7257
嘅前	-11.7258
激烈	-11.7258
對眼	-11.7258
青海	-11.726
書店	-11.726
─	-11.7261
▁窮	-11.7262
な	-11.7262
決議	-11.7262
加快	-11.7265
一線	-11.7266
你話	-11.7267
綫路	-11.7268
小說家	-11.7269
太守	-11.7269
gin	-11.727
+5	-11.727
大地	-11.7272
第一日	-11.7275
特區	-11.7275
幾好	-11.7277
而且重	-11.7278
長遠	-11.728
化學家	-11.728
▁library	-11.7281
▁line	-11.7282
轉型	-11.7286
ll	-11.7288
慣	-11.7289
𡃉嘞	-11.7289
點解啊	-11.7291
ose	-11.7293
化身	-11.7293
較大	-11.7294
▁cin	-11.7296
1887	-11.7296
九龍半島	-11.7298
埞	-11.7299
哀	-11.7299
釐	-11.7301
處死	-11.7301
而將	-11.7302
量子力學	-11.7302
港臺	-11.7302
五位	-11.7303
火箭	-11.7304
大敗	-11.7304
已經開始	-11.7305
變種	-11.7306
嘅局面	-11.7306
成果	-11.7307
可以畀	-11.7307
魏國	-11.7307
同位素	-11.7308
捲	-11.731
嘅時候呢	-11.731
▁挑	-11.731
岸邊	-11.7311
又譯做	-11.7312
lock	-11.7314
西灣	-11.7315
kin	-11.7315
其他國家	-11.7315
中大	-11.7315
全日制	-11.7315
本嚟係	-11.7317
▁church	-11.7318
▁keng	-11.7319
淨得	-11.7319
路易	-11.732
上任	-11.732
校址	-11.7321
晏	-11.7321
入嚟	-11.7322
梁國雄	-11.7324
廿一世紀初嘅	-11.7325
廬	-11.7325
可以搵到	-11.7325
為首嘅	-11.7326
嘅總	-11.7327
擴展到	-11.7328
意識形態	-11.7329
國軍	-11.7329
ness	-11.733
薯	-11.7331
星期	-11.7331
馳	-11.7332
146	-11.7333
,1951	-11.7333
佢哋都	-11.7333
▁100	-11.7333
ance	-11.7336
揭發	-11.7337
playstation	-11.7337
haa	-11.7337
open	-11.7338
溜	-11.7338
諧	-11.7338
稀	-11.7339
開播	-11.7341
古羅馬	-11.7342
▁託	-11.7342
南越	-11.7342
牢	-11.7342
曲線	-11.7346
裏面有	-11.7346
р	-11.7347
昏	-11.7349
肅	-11.735
音響	-11.7351
▁can	-11.7351
古典芭蕾舞	-11.7352
tel	-11.7353
閪	-11.7356
謂	-11.7356
▁zou	-11.7357
係因為佢	-11.7357
地皮	-11.7358
zau	-11.7358
綺	-11.7358
▁差	-11.7358
寵	-11.7358
edward	-11.7359
係烏克蘭	-11.736
萬年前	-11.7361
η	-11.7361
租界	-11.7362
最為	-11.7364
亮相	-11.7364
▁事實上	-11.7366
賠償	-11.7368
tus	-11.7368
下層	-11.7369
嘅條件	-11.7369
大英帝國	-11.737
▁°	-11.7372
因為呢	-11.7372
優惠	-11.7373
學說	-11.7375
大規模嘅	-11.7375
四日	-11.7376
的確	-11.7376
國字標準字體	-11.7376
嘅武器	-11.7383
化嘅	-11.7383
▁ze	-11.7383
繞	-11.7383
但之後	-11.7384
黛	-11.7384
1873	-11.7386
構	-11.7388
137	-11.7389
華盛頓	-11.7389
▁惹	-11.739
凹	-11.739
▁呢個係	-11.7391
▁yeung	-11.7392
唱咗	-11.7392
▁by	-11.7393
如果係	-11.7393
合唱團	-11.7396
▁廣東	-11.7397
最後一次	-11.7398
多年	-11.7399
蔓	-11.7403
思想家	-11.7403
鑄	-11.7404
1)、	-11.7405
軍政府	-11.7407
▁鬧	-11.7408
pun	-11.7408
▁遊戲	-11.7411
畀人睇	-11.7411
當前	-11.7412
搞咗個	-11.7413
pra	-11.7416
入學	-11.7417
dai	-11.7417
有分	-11.7417
萬人次	-11.7418
記低	-11.7423
諗頭	-11.7423
▁smith	-11.7424
一手	-11.7424
▁delta	-11.7424
滑雪	-11.7426
講下	-11.7426
開槍	-11.7427
有間	-11.7427
▁1968	-11.7427
information	-11.7428
一步	-11.7429
一條公共屋邨	-11.7429
▁曾	-11.7432
中小學	-11.7433
▁養	-11.7436
下跌	-11.7437
鎮江	-11.7438
北面嘅	-11.7438
論證	-11.7439
詔	-11.744
長途	-11.744
▁gan	-11.7442
隻船	-11.7443
膊	-11.7444
隼	-11.7444
日落	-11.7445
表決	-11.7445
度嘅	-11.7445
熵	-11.7446
有咩	-11.7447
▁hoeng	-11.7447
好多都	-11.7448
功率	-11.7448
標籤	-11.7448
嘅任務	-11.7449
四條	-11.745
騙	-11.745
重力	-11.745
寺廟	-11.7452
珠三角	-11.7454
▁孤	-11.7455
瑜	-11.7456
九龍塘	-11.7456
通常都會	-11.7456
嫂	-11.7456
係乜	-11.7456
向北	-11.7457
評選	-11.7457
呢個節目	-11.7457
南中國海	-11.7457
多數會	-11.7457
董建華	-11.7457
搜尋	-11.7458
兌	-11.7459
再生	-11.7459
紐卡素	-11.7459
橢圓	-11.7459
羨	-11.746
刊登	-11.746
周潤發	-11.746
奧林匹克運動會	-11.746
穆罕默德	-11.746
取決於	-11.746
金曲撈	-11.746
曹丕	-11.746
銀緯	-11.746
感謝	-11.746
▁腳	-11.746
讀緊	-11.746
day	-11.7461
提示	-11.7461
眼淚	-11.7462
慘	-11.7462
祈求	-11.7462
檢驗	-11.7462
先鋒	-11.7462
營造	-11.7462
智能電話	-11.7462
差館	-11.7463
子弟	-11.7463
商家	-11.7463
客運站	-11.7463
陶器	-11.7464
遍及	-11.7464
點播出	-11.7464
流亡	-11.7465
係指一個人	-11.7465
包含咗	-11.7465
聯合國教科文組織嘅世界遺產	-11.7466
木鳥	-11.7467
嘅非	-11.7467
獎金	-11.7468
登場	-11.7468
召集人	-11.7469
正式開始	-11.7469
(1971	-11.7469
生活喺	-11.747
年推出嘅	-11.747
嘅一座	-11.7471
嚟行	-11.7471
產生咗	-11.7472
所以佢哋	-11.7473
之故	-11.7473
書記	-11.7473
依靠	-11.7475
成功當選	-11.7475
文庫	-11.7475
羅馬字	-11.7476
保衛	-11.7476
▁hak	-11.7476
嘅價錢	-11.7477
▁1932	-11.748
正義	-11.7481
私家	-11.7484
就做咗	-11.7485
泵	-11.7485
考生	-11.7486
amd	-11.7486
年成立嘅	-11.7488
控制住	-11.7488
係印尼	-11.7489
大隻	-11.749
所以就叫	-11.7492
一尐	-11.7493
嘅光	-11.7494
開局	-11.7495
光譜	-11.7496
係中國廣東省廣州市嘅	-11.7496
嘅機會率	-11.7496
ex	-11.7498
嘅宗教	-11.7498
車牌	-11.7499
大和	-11.75
大聲	-11.75
再一次	-11.7501
完整嘅	-11.7501
光碟	-11.7502
mu	-11.7503
嘅舖頭	-11.7504
舉報	-11.7504
喬治市	-11.7505
會議室	-11.7506
遇上	-11.7507
bc	-11.7509
霸咗	-11.751
忘	-11.7511
▁呢條馬路	-11.7513
編程	-11.7513
所講	-11.7514
革新	-11.7514
冇曬	-11.7514
內心	-11.7515
light	-11.7516
▁story	-11.7516
一個地方	-11.7519
嘅規劃	-11.752
個樣似	-11.752
嗰間	-11.752
年代中期	-11.7521
嘅一個區	-11.7521
▁車站	-11.7524
臺灣人	-11.7525
注意力	-11.7526
▁1959	-11.7526
睇法	-11.7526
▁遠	-11.7527
獲取	-11.7528
▁bat	-11.7528
▁最終	-11.753
▁送	-11.753
▁拼	-11.7531
醫師	-11.7531
明代	-11.7531
巴薩隆拿	-11.7531
好驚	-11.7531
開張	-11.7532
中場	-11.7532
嘅一門	-11.7533
分流	-11.7535
午夜	-11.7535
嘅一個縣	-11.7538
州府	-11.7538
細節	-11.7539
嘅世界遺產	-11.7539
嚟表達	-11.7542
贏過	-11.7542
出行	-11.7544
▁以下	-11.7546
meta	-11.7546
落水	-11.7547
上嘅一個概念	-11.7549
一隻動物	-11.7549
進行嘅	-11.7552
巴士線	-11.7552
重有啲	-11.7552
一樓	-11.7554
▁病	-11.7555
嘅安全	-11.7555
嘅細路	-11.7557
的人	-11.7558
對話	-11.7558
診所	-11.7558
▁佢響天球	-11.7558
經理人	-11.7562
詩詞	-11.7563
年香港電影	-11.7564
封建	-11.7564
絕大多數	-11.7564
二樓	-11.7567
1844	-11.7567
專科	-11.7568
04	-11.757
發放	-11.7572
太太	-11.7572
節目主持人	-11.7573
計劃中	-11.7575
任何人	-11.7576
▁soeng	-11.7576
0.1	-11.7576
碰	-11.7577
▁刀	-11.7577
厭	-11.7581
排喺	-11.7582
阿仙奴	-11.7584
!》	-11.7586
擁	-11.7586
偶	-11.7586
呢班	-11.7587
覺得佢	-11.7588
難度	-11.7588
私人屋苑	-11.759
嘅一系列	-11.7591
五日	-11.7591
輿論	-11.7592
я	-11.7594
宗派	-11.7594
▁趙	-11.7595
配樂	-11.7596
昆	-11.7597
武力	-11.7597
創下	-11.7601
最長嘅	-11.7601
可以通過	-11.7602
層次	-11.7602
語言學家	-11.7602
犀利	-11.7603
一個男足球員	-11.7603
驛	-11.7605
開始用	-11.7605
港式	-11.7608
大韓民國	-11.761
幾十	-11.761
杏	-11.7612
▁呼	-11.7612
國際學校	-11.7612
一單	-11.7612
百越	-11.7613
強大	-11.7614
題目	-11.7615
嘅領域	-11.7615
東吳	-11.7616
港珠澳大橋	-11.7617
地球嘅	-11.7619
個車站	-11.7619
▁fuk	-11.7619
號小行星	-11.762
rat	-11.7621
▁river	-11.7621
分行	-11.7621
考到	-11.7621
燈光	-11.7623
犧牲	-11.7623
延長到	-11.7624
濃度	-11.7624
鴨脷洲	-11.7624
喺意大利	-11.7624
jon	-11.7625
▁zoeng	-11.7625
▁奇	-11.7625
頭先	-11.7628
就即刻	-11.7629
grand	-11.763
great	-11.7631
票價	-11.7631
red	-11.7631
為例	-11.7632
central	-11.7633
▁請	-11.7633
鑑	-11.7634
轉車站	-11.7634
好重要	-11.7635
工場	-11.7635
就係用	-11.7636
▁杜	-11.7636
+9	-11.7636
雯	-11.7636
煞	-11.7637
個地方	-11.7637
曾經響	-11.7638
地方政府	-11.7639
由日本	-11.7639
棠	-11.7639
口水	-11.7639
為湖南衛視	-11.764
可以見到	-11.764
楊千嬅	-11.7641
晶片	-11.7642
冇錢	-11.7643
行經	-11.7644
縣治	-11.7645
轉動	-11.7645
西式	-11.7646
攝影師	-11.7649
▁jr	-11.7651
大型嘅	-11.7651
好開心	-11.7651
噉樣呢	-11.7652
又好	-11.7652
▁大明	-11.7652
拐	-11.7652
嘅建議	-11.7655
所寫	-11.7655
中國古代	-11.7655
jing	-11.7655
預料	-11.7655
周圍嘅	-11.7656
旋	-11.7661
裁決	-11.7661
唔存在	-11.7662
直達	-11.7662
醃	-11.7664
贊成	-11.7665
但唔	-11.7667
▁猛	-11.7668
主要負責	-11.7668
廿四	-11.7669
科舉	-11.767
馬上	-11.7672
櫻	-11.7672
之後先至	-11.7672
鼓手	-11.7674
▁寧	-11.7677
你都	-11.7677
扶手電梯	-11.7678
餐飲	-11.768
嘅文字	-11.7682
▁sang	-11.7683
city	-11.7684
▁cha	-11.7689
嘅機構	-11.7691
▁bak	-11.7692
選項	-11.7693
win	-11.7694
元帥	-11.7694
ntal	-11.7694
細嘅	-11.7695
由英國	-11.7696
ŋ	-11.7696
吏	-11.7698
號宣佈	-11.7698
+8)	-11.7699
圍村	-11.77
當晚	-11.7701
哨	-11.7701
最出名係	-11.7701
中藥	-11.7701
家居	-11.7702
超市	-11.7702
90%	-11.7707
1864	-11.7707
▁夜	-11.7708
荔	-11.7708
毋	-11.7709
唐樓	-11.7709
斥	-11.7709
嘅學者	-11.7709
阻礙	-11.771
個議席	-11.771
ɡ	-11.771
握	-11.7711
公眾假期	-11.7711
jose	-11.7712
半導體	-11.7713
ss	-11.7713
賺錢	-11.7714
瀾	-11.7714
瘤	-11.7714
瀨那	-11.7714
運營	-11.7715
杖	-11.7715
曱甴	-11.7715
鎖匙	-11.7716
燦	-11.7716
template	-11.7716
警署	-11.7716
貸款	-11.7716
位置喺銀經	-11.7716
當打之年	-11.7716
巴勒斯坦	-11.7716
嘅數據代表冇經過實驗	-11.7716
vincent	-11.7716
出名嘅配音作品有	-11.7716
困擾	-11.7716
專用𨋢往返月臺都得	-11.7716
抑制	-11.7716
括號括	-11.7716
腳趾	-11.7717
約束	-11.7717
原子重量	-11.7717
清除	-11.7717
體操	-11.7717
驅逐	-11.7718
史記	-11.7718
記述	-11.7718
防範	-11.7718
墓地	-11.7718
思潮	-11.7718
牌坊	-11.7719
查地鐵	-11.7719
sch	-11.772
齋靠	-11.7721
駱駝	-11.7722
元件	-11.7722
一粒恆星	-11.7722
常住人口	-11.7723
境外	-11.7723
λ	-11.7723
主題係	-11.7724
▁states	-11.7724
一次過	-11.7725
脊椎動物	-11.7725
紅色小巴	-11.7725
補助	-11.7726
報考	-11.7726
各界	-11.7728
出選	-11.773
大屠殺	-11.7731
▁上海	-11.7732
▁moy	-11.7732
面積大約	-11.7733
實質上	-11.7734
金曲	-11.7735
差佬	-11.7735
知名度	-11.7735
耗	-11.7736
起成	-11.7737
反對派	-11.7738
憂	-11.7738
揭	-11.7739
▁情	-11.774
▁劈	-11.7742
航運	-11.7746
▁進	-11.7746
法師	-11.7747
製造業	-11.7748
▁over	-11.7748
▁布	-11.7748
主辦嘅	-11.7748
qui	-11.7748
治理	-11.7752
輪流	-11.7753
唔妥	-11.7753
要搵	-11.7754
橄欖	-11.7754
動員	-11.7755
交流道	-11.7755
個禮拜	-11.7758
南漢	-11.7759
燈塔	-11.7759
hei	-11.7762
▁james	-11.7762
亦要	-11.7763
▁斜	-11.7764
然後再	-11.7765
當場	-11.7766
樓層	-11.7767
就認為	-11.7768
獲頒	-11.7768
人工島	-11.777
▁saam	-11.7772
合格	-11.7772
另外一個	-11.7774
伐	-11.7774
大自然	-11.7774
東德	-11.7776
俾人叫做	-11.7776
派人	-11.7777
▁拆	-11.7777
嘅經歷	-11.7777
▁bin	-11.7782
假說	-11.7783
個角色	-11.7783
回答	-11.7784
嚟查	-11.7784
當代	-11.7785
同埋佢嘅	-11.7787
全體	-11.7787
經費	-11.7787
off	-11.7788
俾啲	-11.7788
銳	-11.7789
解讀	-11.7792
高官	-11.7792
九十	-11.7794
學堂	-11.7794
一嚇	-11.7795
最先喺	-11.7796
▁自此	-11.7796
聯賽冠軍	-11.7798
佢哋兩個	-11.7798
嘅男人	-11.78
人文	-11.78
成日會	-11.7801
出生	-11.7802
長嘅	-11.7804
▁疏	-11.7804
イ	-11.7805
問佢	-11.7806
▁呢隻歌	-11.7807
個老婆	-11.781
斤	-11.7811
nam	-11.7812
1892	-11.7812
▁ro	-11.7813
漢口	-11.7813
雀鳥	-11.7813
嚟形容	-11.7815
得票率	-11.7816
▁奶	-11.7816
普選	-11.7817
七日	-11.7818
神戶市	-11.7818
器材	-11.7819
所在嘅	-11.7819
設立嘅	-11.7822
望到	-11.7822
價值觀	-11.7822
天河	-11.7822
頭部	-11.7823
家鄉	-11.7823
變成咗	-11.7827
如果你	-11.7827
下屬	-11.7827
無幾耐	-11.7828
有啲乜嘢	-11.7828
併	-11.7828
多項	-11.7829
м	-11.783
世紀開始	-11.783
▁故	-11.783
唔一定	-11.783
our	-11.7831
▁今日	-11.7831
馬會	-11.7834
會館	-11.7836
攞到冠軍	-11.7837
西門	-11.7837
嘅用戶	-11.7837
▁信	-11.7837
▁put	-11.7838
跌落	-11.7839
或以上	-11.7841
特殊學校	-11.7841
已知嘅	-11.7842
動能	-11.7844
嘅軍隊	-11.7844
中聯辦	-11.7845
大女	-11.7846
點到	-11.7846
啲水	-11.7847
ber	-11.7847
嘅影響力	-11.7849
通商	-11.7849
個個都	-11.785
▁隻	-11.785
三千	-11.785
年通車	-11.785
一棟	-11.7851
棉	-11.7852
獨有嘅	-11.7853
中國國家	-11.7854
甚至可以	-11.7856
▁1954	-11.7857
1884	-11.7857
凝	-11.7859
南越國	-11.7862
研究院	-11.7869
灌	-11.787
打出	-11.7871
眾議院	-11.7873
襪	-11.7875
頭頂	-11.7876
庚	-11.7876
gang	-11.7877
▁mak	-11.7878
萬平方米	-11.7879
國防	-11.788
▁崔	-11.788
第三個	-11.788
▁green	-11.7882
閱	-11.7882
喺韓國	-11.7882
▁學校喺	-11.7883
分出	-11.7883
愁	-11.7883
bun	-11.7885
弊	-11.7886
姦	-11.7886
,1967	-11.7887
全部都	-11.7888
幾人	-11.7888
載客	-11.7889
媚	-11.7889
講緊	-11.7889
生於	-11.7889
mon	-11.789
線路	-11.7891
青洲	-11.7892
奔	-11.7892
佢憑住	-11.7893
開咗間	-11.7893
旱	-11.7893
▁胸	-11.7893
美國人	-11.7894
慄	-11.7894
計埋	-11.7896
朔	-11.7896
shek	-11.7897
彌敦道	-11.7897
▁1957	-11.7899
西南邊	-11.79
就表示	-11.79
▁搶	-11.79
總統府	-11.79
西貢區	-11.7902
▁1931	-11.7902
樺	-11.7902
國徽	-11.7902
土木工程	-11.7902
嘅運算	-11.7906
優質	-11.7906
住過	-11.7907
綜藝	-11.7908
▁世紀嘅	-11.7909
兩個字	-11.791
佢哋啲	-11.791
哎吔	-11.7912
鄂	-11.7914
通常係指	-11.7915
薯片	-11.7915
號響	-11.7916
▁pin	-11.7916
相近	-11.7916
university	-11.7916
international	-11.7917
秦始皇	-11.7918
進駐	-11.792
大國	-11.7922
▁luk	-11.7923
一字	-11.7925
嘅各種	-11.7925
1878	-11.7926
yes	-11.7926
辛苦	-11.7929
一道	-11.7931
悉尼	-11.7932
進展	-11.7934
高啲	-11.7935
▁裝	-11.7937
就同	-11.794
強姦	-11.7941
晶體	-11.7941
▁蒼	-11.7942
商臺	-11.7947
詞人	-11.7947
大日本帝國	-11.7947
▁封	-11.7947
例外	-11.7948
呢張專輯	-11.7948
▁藏文	-11.795
過河	-11.7951
取自	-11.7951
得閒	-11.7952
氈	-11.7952
噉咪	-11.7953
會出	-11.7953
真人騷	-11.7954
怪獸	-11.7955
嘅宣傳	-11.7956
蔡依林	-11.7957
但如果	-11.796
改變咗	-11.796
佳麗	-11.7962
能夠喺	-11.7963
係自	-11.7964
嘅症狀	-11.7967
andre	-11.7967
三等	-11.7968
▁鼻	-11.7968
▁淡	-11.7969
鴿	-11.7969
孟加拉	-11.797
嘅諗頭	-11.7972
兩廣	-11.7973
同文化	-11.7973
修正	-11.7973
監控	-11.7974
蘿	-11.7974
佛山地鐵	-11.7974
膝	-11.7974
辱	-11.7975
之際	-11.7975
▁聚	-11.7975
爸	-11.7975
長期記憶	-11.7976
肋	-11.7976
騷擾	-11.7976
亞美尼亞	-11.7976
痰	-11.7977
赤鱲角	-11.7977
憶蓮	-11.7978
評審	-11.7978
卯	-11.7978
擲	-11.7978
澀	-11.7978
辦理	-11.7979
三元里	-11.7979
楊宗緯	-11.7979
黃毓民	-11.7979
instagram	-11.7979
梁詠琪	-11.7979
烹飪	-11.7979
三文治	-11.7979
約瑟夫	-11.7979
李家超	-11.798
碰撞	-11.798
世襲	-11.798
絲綢	-11.798
李克勤	-11.798
償	-11.798
主宰	-11.798
路名	-11.798
獵食	-11.798
勳章	-11.798
初戀	-11.7981
尺寸	-11.7981
氏族	-11.7981
支綫	-11.7981
條馬路	-11.7981
官職	-11.7982
教訓	-11.7982
賭錢	-11.7982
考證	-11.7983
假期	-11.7984
下一代	-11.7984
派遣	-11.7984
利比亞	-11.7985
斷層	-11.7985
個性	-11.7985
組件	-11.7985
拆解	-11.7986
雌	-11.7986
eo	-11.7986
加速器	-11.7987
精英	-11.7987
閃電	-11.7987
一節	-11.7987
ngau	-11.7988
不過因為	-11.799
象牙	-11.7991
菲臘	-11.7991
輸入法	-11.7992
諡號	-11.7993
神奇	-11.7993
嘅一個子領域	-11.7995
北靠	-11.7996
紅磡站	-11.7996
組別	-11.7998
先至搵到	-11.7999
嘅身體	-11.7999
風情	-11.8
滿文	-11.8
▁捉	-11.8001
生理	-11.8001
少見	-11.8001
孫文	-11.8002
上帝嘅	-11.8002
升為	-11.8002
▁yi	-11.8002
ft	-11.8003
青島	-11.8003
▁嗰陣時	-11.8003
木星	-11.8003
僕人	-11.8003
歸納	-11.8003
終身	-11.8005
半徑	-11.8005
▁投	-11.8005
▁jyut	-11.8007
雄性	-11.8007
係香港電視娛樂製作嘅真人騷	-11.8007
火災	-11.8008
初選	-11.8008
07	-11.8012
ag	-11.8013
個島式月臺	-11.8015
份工	-11.8015
放學	-11.8016
直頭	-11.8017
任天堂	-11.8018
汕頭	-11.8019
童星	-11.802
有錢人	-11.8023
▁幽	-11.8024
條款	-11.8024
▁1920	-11.8024
▁哎吔	-11.8025
一到	-11.8027
萬千星輝頒獎典禮	-11.8027
ges	-11.8027
嘅市民	-11.8028
社會學	-11.8029
維生	-11.803
香港立法會	-11.8031
同臺灣	-11.8033
▁an	-11.8033
革	-11.8033
1/	-11.8033
地獄	-11.8034
但實際上	-11.8037
sis	-11.8039
外商	-11.804
東京都	-11.8041
亦都喺	-11.8041
大膽	-11.8044
▁但係佢	-11.8045
首度	-11.8049
而佢哋	-11.8051
多謝	-11.8051
開門	-11.8052
▁尾	-11.8052
經歷咗	-11.8052
留返	-11.8053
佢加入	-11.8053
二千	-11.8054
海岸線	-11.8055
荷蘭人	-11.8055
煤氣	-11.8057
罕	-11.8058
104	-11.8058
joe	-11.806
▁弄	-11.806
係新加坡	-11.8061
始於	-11.8061
創立咗	-11.8061
▁屋苑	-11.8062
▁威	-11.8062
0.2	-11.8064
奴隸	-11.8066
ر	-11.8068
出身嘅	-11.8069
啟德	-11.8069
口感	-11.8069
對中國	-11.8071
1862	-11.8072
都可以搵到	-11.8073
月中旬	-11.8073
爭論	-11.8074
蜜蜂	-11.8075
侵	-11.8076
翻新	-11.8076
行去	-11.8076
赤柱	-11.8077
9%	-11.8077
白色嘅	-11.808
變態	-11.808
好嬲	-11.8081
轉會	-11.8082
特有嘅	-11.8085
亦可以係	-11.8086
同日	-11.8089
係香港藝人	-11.809
之後佢	-11.809
▁home	-11.8092
▁舉	-11.8094
南海郡	-11.8094
▁second	-11.8095
內有	-11.8095
一股	-11.8095
▁are	-11.8096
首屆	-11.8097
一間航空公司	-11.8097
係一首	-11.8097
汀	-11.8099
pr	-11.8099
總結	-11.81
188	-11.8102
表現出	-11.8104
動作電影	-11.8106
史學	-11.8107
▁ching	-11.8108
亦有好多	-11.8111
明仁	-11.8111
會變成	-11.8111
除咗有	-11.8115
例如喺	-11.8115
east	-11.8117
每年嘅	-11.8119
羅斯	-11.812
之但係	-11.8122
▁rock	-11.8123
同音	-11.8124
渝	-11.8124
▁engineering	-11.8124
河道	-11.8127
打和	-11.8129
▁leoi	-11.813
番茄	-11.8134
之首	-11.8134
插入	-11.8137
波動	-11.8137
水深	-11.8137
聘	-11.8137
2.2	-11.8137
二等	-11.8138
神經科學	-11.8138
被列入	-11.8139
gh	-11.814
▁analysis	-11.8142
馬場	-11.8143
係可以	-11.8143
嘅立場	-11.8143
▁澳洲	-11.8144
▁懶	-11.8145
鈉	-11.8145
條街道	-11.8145
主要用嚟	-11.8146
入便嘅	-11.8147
蕃	-11.8148
貪	-11.815
規管	-11.8151
1841	-11.8152
同盟	-11.8153
幢	-11.8154
美國總統	-11.8156
袖	-11.8156
葡萄	-11.8158
係菲律賓	-11.8158
金國	-11.8159
車隊	-11.8159
做一啲	-11.816
石門	-11.8162
容器	-11.8163
北伐	-11.8163
長短	-11.8163
喐手起	-11.8163
▁space	-11.8164
會造成	-11.8165
鍊	-11.8166
趕走	-11.8166
蔗	-11.8168
lay	-11.8169
嚟表示	-11.817
▁state	-11.8171
恐	-11.8171
間醫院	-11.8171
高地	-11.8172
剝	-11.8173
緩	-11.8173
▁撞	-11.8174
儉	-11.8174
清軍	-11.8175
β	-11.8175
統計學	-11.8175
同其它	-11.8176
計劃喺	-11.8177
nic	-11.8178
受影響	-11.8182
hang	-11.8182
香港電影	-11.8184
1889	-11.8184
嘅教育	-11.8185
嘅專輯	-11.8185
同陳	-11.8185
量計	-11.8185
鱗	-11.8186
虧	-11.8186
菸	-11.8186
back	-11.8187
外交官	-11.8187
幽	-11.8187
▁扭	-11.8187
酌	-11.8188
隻碟	-11.8188
先前	-11.8189
yue	-11.819
禽	-11.8192
混淆	-11.8194
一班人	-11.8196
叫法	-11.8197
波箱	-11.8197
總之	-11.8198
▁first	-11.8198
壘	-11.8199
外嘅	-11.8199
嘅溫度	-11.8199
函	-11.82
融入	-11.82
投身	-11.8201
saam	-11.8202
方針	-11.8202
american	-11.8207
遣	-11.8208
分別有	-11.821
▁乳	-11.821
ngo	-11.8212
原料	-11.8213
波士頓	-11.8215
個月臺	-11.8215
母親	-11.8215
首歌曲	-11.8215
▁同日	-11.8217
獨家	-11.8219
上海話	-11.8221
處決	-11.8222
嘅來源	-11.8223
公里長	-11.8224
旨	-11.8224
trans	-11.8225
▁ju	-11.8225
起初	-11.8225
之分	-11.8225
棲息地	-11.8226
時速	-11.8226
由此	-11.8226
引力	-11.8228
▁japan	-11.8228
同一時間	-11.8229
1859	-11.8229
情人	-11.8229
宮殿	-11.8229
貨櫃	-11.8229
供應商	-11.8232
mr	-11.8233
襲	-11.8234
把聲	-11.8234
到時	-11.8235
將軍澳綫	-11.8235
專為	-11.8237
分會	-11.8237
年區議會選舉	-11.8238
年香港區議會選舉	-11.8239
流浪	-11.8239
可以追溯到	-11.8239
參與過	-11.8239
覽	-11.824
嘅聲音	-11.8241
謎	-11.8241
亞運	-11.8241
汶	-11.8241
嘅開發	-11.8242
係中國廣東廣州嘅南北走向	-11.8242
車禍	-11.8242
彰	-11.8242
▁鍾	-11.8243
吞併	-11.8243
規格	-11.8244
行政院	-11.8244
鷺	-11.8244
現身	-11.8245
博彩	-11.8246
遊埠節目	-11.8246
唔方便	-11.8246
桓	-11.8246
嘛	-11.8247
王菲	-11.8247
▁現	-11.8248
大巴	-11.8248
2.7	-11.8248
冇休息室	-11.8248
朝代	-11.8248
房屋局	-11.8249
喱	-11.8249
]、[	-11.8249
滅絕	-11.8249
富蘭克林	-11.825
漏洞	-11.825
鄺	-11.825
コ	-11.825
捍衛	-11.825
相模原	-11.825
磐田山葉	-11.825
趙嫗	-11.825
闕	-11.825
twitter	-11.825
手提電話	-11.825
kutta	-11.825
昭和天皇	-11.825
健身徑	-11.825
紀律	-11.825
安東尼	-11.825
預備	-11.825
internet	-11.825
大埔墟	-11.825
維吾爾文	-11.825
肯雅	-11.8251
北平	-11.8251
刊物	-11.8251
消防局	-11.8252
香蕉	-11.8252
泳場	-11.8252
錄音室	-11.8252
痛苦	-11.8252
柳永	-11.8252
粵曲	-11.8252
進化論	-11.8253
學問	-11.8253
皇冠	-11.8253
ensis	-11.8253
記者會	-11.8253
gi	-11.8254
沙田區	-11.8254
門徒	-11.8254
jack	-11.8254
推論	-11.8255
都會用到	-11.8255
呢日	-11.8255
解體	-11.8256
板塊	-11.8256
錨點	-11.8256
釀酒	-11.8257
▁1939	-11.8258
迷你	-11.8259
打劫	-11.826
錄影	-11.826
瀋陽	-11.826
1885	-11.8261
上限	-11.8262
星系	-11.8262
深圳市	-11.8263
唔舒服	-11.8263
反對黨	-11.8264
韓紅	-11.8264
廣州南站	-11.8266
興盛	-11.8266
領先	-11.8266
路程	-11.8267
散文	-11.8268
相通	-11.8268
黑客	-11.8268
▁着	-11.8268
藥材	-11.8268
嗰處	-11.8269
出到	-11.827
主要以	-11.827
年嘅美國電影	-11.827
電郵	-11.827
▁尤其係	-11.8271
專區	-11.8271
▁耍	-11.8274
高等法院	-11.8276
米長	-11.8276
咁好	-11.8276
天然氣	-11.8276
海龜	-11.8276
搖滾樂隊	-11.8278
145	-11.8278
北京大學	-11.8278
較多	-11.8279
阿樂	-11.828
喺呢個站	-11.828
亦唔	-11.828
第一時間	-11.8281
監禁	-11.8281
啟發	-11.8281
ies	-11.8282
轟炸	-11.8282
遊戲節目	-11.8283
殺害	-11.8283
而非	-11.8284
大主教	-11.8285
陸路	-11.8285
尚書	-11.8287
謠言	-11.8289
第二大城	-11.8289
8000	-11.8289
廿六	-11.829
ε	-11.8291
發行嘅	-11.8291
東正教	-11.8292
mel	-11.8294
一年後	-11.8298
奧斯卡	-11.8299
行人路	-11.83
▁ba	-11.83
血液	-11.8303
歲開始	-11.8304
即將	-11.8306
劍橋	-11.8306
▁嬌	-11.8307
後備	-11.8307
盡快	-11.8308
鐘樓	-11.8309
▁順帶一提	-11.8311
▁cor	-11.8311
萬個	-11.8313
月頭	-11.8313
羌	-11.8314
入夥	-11.8314
返啲	-11.8316
錦標賽	-11.8317
一定係	-11.8317
生菜	-11.8317
橋段	-11.8318
金色	-11.8318
之作	-11.8319
呢柞	-11.8319
資本主義	-11.8321
夜間	-11.8326
ua	-11.8326
way	-11.8327
▁歐	-11.8329
▁呢套劇喺	-11.833
蓉	-11.833
四次	-11.8332
行爲	-11.8333
真空	-11.8334
嘅化合物	-11.8334
世人	-11.8334
嘅法律	-11.8335
腦電波	-11.8335
▁寄	-11.8336
諧音	-11.8336
高山	-11.8338
adam	-11.8339
▁巖	-11.8339
萬裏	-11.834
病情	-11.8341
盲人	-11.8341
佛寺	-11.8342
都屬於	-11.8345
▁與此同時	-11.8346
▁厚	-11.8347
標語	-11.8348
事情	-11.8349
花紋	-11.835
版本嘅	-11.835
嘅所在地	-11.8351
維爾	-11.8352
om	-11.8352
唔通	-11.8353
最後一日	-11.8355
學歷	-11.8357
為咗方便	-11.8358
地級市	-11.8359
平成	-11.8359
bin	-11.836
一門	-11.836
尼斯	-11.836
▁啱	-11.8361
對白	-11.8361
副主任	-11.8362
▁deon	-11.8362
食糊	-11.8362
▁society	-11.8364
iy	-11.8364
轄下嘅一個街道	-11.8365
係響	-11.8365
委員會主席	-11.8367
人對	-11.8368
▁暖	-11.8369
中外	-11.837
貶	-11.8371
▁詐	-11.8371
市原	-11.8373
▁成個	-11.8373
存在嘅	-11.8374
左手	-11.8375
一直係	-11.8376
嘅道路	-11.8376
黃道	-11.8379
嘅一套	-11.838
其中以	-11.8382
另外重有	-11.8384
開始出現	-11.8384
搞出	-11.8387
2500	-11.8387
▁pai	-11.8388
佢為	-11.8389
嘅舊	-11.8393
勃	-11.8394
粵音	-11.8394
起咗間	-11.8396
西周	-11.8397
要點樣	-11.8397
老頭	-11.8398
長約	-11.8398
地鐵公司	-11.8398
陣時	-11.8399
香港同澳門	-11.8399
▁war	-11.8399
▁背	-11.84
京劇	-11.84
嘅相	-11.8402
更加係	-11.8403
主教座堂	-11.8404
富商	-11.8407
1891	-11.8408
對人類	-11.8409
人腦	-11.8409
唔變	-11.8411
▁供	-11.8412
▁印度	-11.8414
位置喺越秀區	-11.8415
高等	-11.8415
同一啲	-11.8416
▁零	-11.8418
互通	-11.8418
掌管	-11.8419
▁尋	-11.842
高潮	-11.842
佈	-11.842
又或者係	-11.8421
而得名	-11.8421
就一直	-11.8422
鉀	-11.8422
三層	-11.8423
係瑞士	-11.8423
not	-11.8423
▁搏	-11.8424
南山	-11.8425
八千	-11.8425
俘虜	-11.8427
tic	-11.8428
教室	-11.8429
泰山	-11.8429
娶	-11.8432
永恆	-11.8434
得主	-11.8435
開始發展	-11.8436
探險家	-11.8436
意味	-11.8437
犯人	-11.8438
bel	-11.8439
任教	-11.8439
ク	-11.8441
國家嘅	-11.8442
就喺呢度	-11.8444
處境劇	-11.8446
負數	-11.8447
討	-11.8449
定時	-11.845
2)、	-11.8451
便利店	-11.8451
北京路	-11.8452
排第	-11.8452
睇佢	-11.8452
▁所謂	-11.8452
coco	-11.8452
歐亞大陸	-11.8453
▁宋	-11.8455
▁鈴木	-11.8455
當佢	-11.8458
▁fat	-11.8459
彈性	-11.8461
天台	-11.8462
氨	-11.8464
邵	-11.8467
最初係	-11.8469
滘	-11.8469
▁震	-11.847
▁吸	-11.8471
喐	-11.8471
癡	-11.8471
哩一個	-11.8472
din	-11.8472
搖	-11.8473
wright	-11.8474
四世	-11.8475
東西走向	-11.8476
戎	-11.8477
team	-11.848
▁縱	-11.848
project	-11.848
年代後期	-11.8481
劃入	-11.8482
主場係	-11.8482
悲	-11.8482
攞咗第	-11.8483
展覽館	-11.8483
誓	-11.8485
又唔	-11.8485
銀河	-11.8486
忽略	-11.8486
出手	-11.8486
同埋佢	-11.8486
幾何學	-11.8489
點幾	-11.8489
好緊要	-11.8492
嘅比例	-11.8492
啲乜嘢	-11.8492
▁換	-11.8492
交州	-11.8494
奧林匹克	-11.8494
雖然佢	-11.8495
澳大利亞	-11.8496
由一個	-11.8496
五世	-11.8497
配套	-11.8498
四方	-11.8498
金剛	-11.8499
屏山	-11.85
營地	-11.85
青銅	-11.8501
瀝	-11.8501
嘅北邊	-11.8501
自助服務設施畀乘客用	-11.8502
西伯利亞	-11.8503
▁maria	-11.8503
𡃉咩	-11.8504
光度	-11.8504
1300	-11.8504
娼	-11.8505
國際足協	-11.8505
瀏覽器	-11.8505
換咗	-11.8506
兩部	-11.8506
氹	-11.8507
▁接	-11.8507
▁彈	-11.8508
▁冤	-11.8508
嘅交界開始	-11.8509
教育部	-11.851
幾耐	-11.8512
而開始	-11.8512
承擔	-11.8513
人羣	-11.8513
最終喺	-11.8514
▁best	-11.8515
單純	-11.8516
鞏固	-11.8517
]),	-11.8518
小區	-11.8519
民選	-11.852
點數	-11.852
爹	-11.8521
而冇	-11.8523
和絃	-11.8523
背叛	-11.8523
基部	-11.8524
坂	-11.8524
墨爾本	-11.8524
和合石	-11.8525
ي	-11.8525
隻眼	-11.8526
艦隊	-11.8526
頒獎禮	-11.8526
姑娘	-11.8527
2%	-11.8527
熊本羅亞素	-11.8527
同歌手	-11.8527
懿	-11.8527
狩獵	-11.8527
札	-11.8527
斐濟	-11.8527
愛因斯坦	-11.8527
史太林	-11.8527
笙	-11.8527
魯迅	-11.8527
霸王別姬	-11.8527
先至改咗噉嘅名	-11.8527
日本足球代表隊前成員	-11.8527
年為日本女子足球代表隊出場	-11.8527
陳日君	-11.8527
cjk	-11.8527
交水電費同交通嘅罰錢	-11.8527
遠東運動會	-11.8528
迴旋處	-11.8528
語言嘅維基百科	-11.8528
runge	-11.8528
掌控	-11.8528
專訪	-11.8528
調味料	-11.8528
一個市轄區	-11.8528
撤離	-11.8528
尋求	-11.8529
注射	-11.8529
三國志	-11.8529
▁呢期係	-11.8529
80%	-11.853
跨越	-11.853
apple	-11.853
散佈	-11.853
屋宇	-11.853
服飾	-11.853
康復	-11.853
helena	-11.853
杜鵑花	-11.853
apm	-11.8531
敵方	-11.8531
遼東	-11.8531
嘅方言	-11.8531
砂糖	-11.8531
停靠	-11.8531
塞爾維亞文	-11.8531
太監	-11.8531
係中國音樂製作人	-11.8531
草案	-11.8531
▁ning	-11.8532
石器	-11.8532
百合	-11.8532
沙律	-11.8532
唔會再	-11.8534
同老婆	-11.8535
廣府話	-11.8535
▁電子	-11.8535
183	-11.8535
修士	-11.8535
連結	-11.8535
搭客	-11.8536
新福利	-11.8536
實權	-11.8538
清遠	-11.8538
▁香港嘅	-11.8538
何文田	-11.8539
前期	-11.854
攜帶	-11.854
138	-11.854
▁大清時	-11.8541
接納	-11.8541
▁露	-11.8542
觸發	-11.8543
花色	-11.8543
第三方	-11.8544
諺文	-11.8544
123	-11.8544
戰機	-11.8545
ɪ	-11.8545
拍戲	-11.8545
剩低嘅	-11.8545
▁勾	-11.8546
新民黨	-11.8548
喺佢嘅	-11.8549
20:30	-11.855
世家	-11.855
中超	-11.855
馬克	-11.8551
車站大堂	-11.8552
顏料	-11.8553
西靠	-11.8553
得益	-11.8555
淨低	-11.8557
十幾	-11.8557
屆香港立法會選舉	-11.8558
可以同	-11.856
但其實	-11.8562
松山	-11.8563
窩打老道	-11.8565
冬至	-11.8565
pu	-11.8566
係當今	-11.8566
自傳	-11.8566
高登	-11.8568
改裝	-11.8568
▁lan	-11.8569
開創	-11.8569
新一代	-11.8569
報償	-11.857
覺得自己	-11.857
廣府	-11.8572
十三行	-11.8574
水泥	-11.8575
民國時期	-11.8576
1845	-11.8577
年建立	-11.8578
▁linux	-11.8578
小鎮	-11.8579
▁掃	-11.8579
發出嘅	-11.8579
陸上	-11.8579
▁渠	-11.8585
再加埋	-11.8585
商界	-11.8586
花牌	-11.8586
▁faat	-11.8587
票房有	-11.8588
▁pro	-11.8588
唔做	-11.8589
▁快	-11.859
嘅意義	-11.859
side	-11.859
嘅一個城市	-11.8591
960	-11.8592
整出嚟	-11.8595
嘅技巧	-11.8595
搭巴士	-11.8596
意思係指	-11.8596
▁uz	-11.8596
▁utc	-11.8597
發炎	-11.8598
作品包括	-11.8599
粉絲	-11.8599
▁我哋	-11.8599
過境	-11.8601
已經被	-11.8602
▁girls	-11.8602
清政府	-11.8602
大元	-11.8602
後來喺	-11.8602
較少	-11.8602
史料	-11.8602
▁mai	-11.8605
底層	-11.8605
嚟用	-11.8605
▁1936	-11.8606
唔去	-11.8606
步兵	-11.8607
開村	-11.8608
學術界	-11.8609
▁呢個節目	-11.861
祖師	-11.861
1850	-11.861
分別為	-11.8611
atp	-11.8612
zing	-11.8614
保密	-11.8614
橋樑	-11.8615
圍棋	-11.8615
睇落	-11.8616
插曲	-11.8618
5,000	-11.862
百科全書	-11.8623
曾任	-11.8624
高手	-11.8624
事前	-11.8626
初年	-11.8626
瓷	-11.8627
都搵到	-11.8628
譯成	-11.8628
ive	-11.8628
6000	-11.8629
南面嘅	-11.8632
內外	-11.8634
其中一條	-11.8634
第一場	-11.8636
嘅模型	-11.8637
車尾	-11.8637
命名嘅	-11.8638
外交部	-11.8639
▁tre	-11.864
嘅字母	-11.864
如果要	-11.8642
金銀	-11.8642
噏	-11.8644
號錄製	-11.865
熄	-11.865
一系列嘅	-11.8651
▁身	-11.8651
芭蕾舞劇	-11.8653
打過	-11.8653
香港浸會大學	-11.8653
係一名	-11.8654
▁tower	-11.8654
嘅詞語	-11.8655
▁鹽	-11.8656
廣州市區	-11.8656
係土耳其嘅	-11.8659
道交界	-11.8659
▁免	-11.8662
重傷	-11.8663
唔理係	-11.8665
福特	-11.8665
議案	-11.8667
之王	-11.8667
新巴	-11.8668
慶典	-11.8669
學系	-11.8669
係畀	-11.8669
去香港	-11.867
▁初期	-11.8672
出血	-11.8672
▁cung	-11.8673
唔清楚	-11.8673
嘅基因	-11.8674
中毒	-11.8676
清水	-11.8679
有人認為	-11.8679
黃帝	-11.868
同時間	-11.8681
深水埗區	-11.8685
chen	-11.8686
間房	-11.8687
▁傳	-11.8687
▁踏入	-11.8687
霸王	-11.8688
作客	-11.8688
臺灣省	-11.8689
▁隋朝	-11.8691
呢個就係	-11.8691
平方	-11.8691
分到	-11.8692
▁不過佢	-11.8692
年加入無綫電視	-11.8693
ン	-11.8693
,1948	-11.8694
準則	-11.8694
▁撒	-11.8695
慾	-11.8695
英法	-11.8695
號期間	-11.8696
前鋒	-11.8697
聽講	-11.8697
玩家角色	-11.87
▁戰後	-11.8701
場面	-11.8701
國防部	-11.8701
wi	-11.8705
何君堯	-11.8706
ain	-11.8706
過關	-11.8707
▁殺	-11.8708
省級	-11.8711
▁那	-11.8713
山市	-11.8713
宣誓	-11.8714
,1935	-11.8714
ding	-11.8714
樂章	-11.8716
訴	-11.8717
大學城	-11.8717
統稱	-11.8719
一定會	-11.8721
先至開始	-11.8723
聲援	-11.8724
全新嘅	-11.8724
喺上面	-11.8724
外文	-11.8725
唔係好	-11.8727
▁賴	-11.8728
當年嘅	-11.873
ラ	-11.8731
dar	-11.8731
cin	-11.8732
一輪	-11.8732
典型嘅	-11.8736
tez	-11.8738
人受傷	-11.8739
星架坡	-11.8747
佢想	-11.8748
婆羅洲	-11.8748
達致	-11.8749
rob	-11.8749
駒	-11.8749
太陽光	-11.8751
般	-11.8752
合肥	-11.8755
篇文	-11.8755
叢	-11.8758
共和	-11.8758
轄下	-11.8758
▁market	-11.8759
共享	-11.8759
楓	-11.876
纏	-11.8762
▁抓	-11.8762
麼	-11.8763
客量	-11.8763
影響咗	-11.8764
掘	-11.8764
喺灣仔	-11.8764
司馬	-11.8765
行程	-11.8765
籬	-11.8766
朝頭早	-11.8767
uber	-11.8768
棘	-11.8768
黃霑	-11.8768
照舊	-11.8769
▁兜	-11.8769
▁廣東話	-11.8769
蓬	-11.877
albert	-11.877
yi	-11.877
(1969	-11.8771
iq	-11.8771
両	-11.8772
濁	-11.8772
係中國廣東廣州一	-11.8772
▁粵語	-11.8772
釜山	-11.8774
之道	-11.8774
門外	-11.8774
形似	-11.8777
係指將	-11.8777
當地時間	-11.8777
friend	-11.8778
遺體	-11.8779
但又	-11.8779
鞭	-11.878
擒	-11.878
daniel	-11.8781
外部	-11.8782
棧	-11.8783
擇	-11.8783
臥	-11.8783
computer	-11.8784
吿	-11.8784
甲骨文	-11.8785
都畀	-11.8786
好受歡迎	-11.8786
拎到	-11.8787
水上樂園	-11.8789
發咗	-11.8789
其實都	-11.8789
廣州恆大	-11.8792
139	-11.8792
悉	-11.8793
驅動	-11.8797
秦朝	-11.8797
彤	-11.8797
支出	-11.8798
讀完	-11.8798
過多	-11.8799
話佢係	-11.8799
rus	-11.88
嗰度有	-11.88
tion	-11.88
樁	-11.88
管理員	-11.8801
周深	-11.8801
足以	-11.8801
珠江新城	-11.8803
saan	-11.8804
鹿兒島	-11.8804
竿	-11.8805
到死	-11.8806
析	-11.8807
莓	-11.8807
妓	-11.8807
笪地	-11.8808
kai	-11.8808
遙	-11.8808
▁化學	-11.8808
黃竹坑	-11.8808
藉此	-11.8809
坐監	-11.8809
▁筆	-11.8809
嘅表面	-11.8809
加泰隆尼亞	-11.881
當事人	-11.881
實習	-11.8811
檐	-11.8811
泡沫	-11.8811
情侶	-11.8811
條頸	-11.8812
諫	-11.8813
預言	-11.8813
倩	-11.8813
マ	-11.8813
阿爾巴尼亞	-11.8813
を	-11.8813
古巨基	-11.8813
⇄	-11.8813
新西蘭	-11.8813
滿地寶	-11.8813
駅	-11.8813
索尼	-11.8813
visual	-11.8813
模糊	-11.8813
係退役日本足球員	-11.8813
捐贈	-11.8813
20:00-20:30	-11.8813
scania	-11.8813
機場快綫	-11.8813
中文版	-11.8814
債務	-11.8814
譽為	-11.8814
公寓	-11.8814
▁壓	-11.8814
萬噸	-11.8814
遊覽	-11.8814
10,000	-11.8814
乾旱	-11.8814
canter	-11.8814
嘅習慣	-11.8814
阿波羅	-11.8815
牛扒	-11.8815
關羽	-11.8815
遠離	-11.8816
超級市場	-11.8816
喬木	-11.8816
停運	-11.8816
細階	-11.8817
沼澤	-11.8817
應急	-11.8817
星官之一	-11.8817
教父	-11.8817
仙人	-11.8817
視像遊戲	-11.8818
歐陽	-11.8818
朱雀	-11.8818
全名係	-11.8819
狀元	-11.8819
118	-11.8819
南北走向	-11.8819
骨頭	-11.8819
重覆	-11.882
激光	-11.882
喺邊度	-11.882
專心	-11.882
嘅用途	-11.8821
撤出	-11.8821
粉紅色	-11.8822
由非牟利組織	-11.8822
gary	-11.8822
拉丁學名	-11.8823
fong	-11.8823
原作	-11.8823
短短	-11.8823
多倫多	-11.8824
唔公平	-11.8824
係第一個	-11.8824
引來	-11.8825
國際編號	-11.8825
▁摩	-11.8825
tr	-11.8825
稍為	-11.8826
黑洞	-11.8827
chung	-11.8827
意指	-11.8828
▁佢喺香港出世	-11.8829
▁area	-11.8829
居屋	-11.8831
▁易	-11.8832
致敬	-11.8833
嘅相關	-11.8835
б	-11.8835
▁薩	-11.8836
東靠	-11.8837
嘅時代	-11.8839
over	-11.884
山窿	-11.884
格局	-11.8843
▁銅	-11.8843
,1943	-11.8844
324	-11.8845
講究	-11.8846
編排	-11.8846
封做	-11.8846
廣州府	-11.8846
fat	-11.8846
條橋	-11.8848
葡萄牙人	-11.8851
▁炸	-11.8851
臺語	-11.8852
露營	-11.8853
慢慢噉	-11.8853
單身	-11.8853
:0	-11.8854
ud	-11.8854
湧入	-11.8856
嚹喎	-11.8856
號開始到	-11.8856
同一年	-11.8856
搭車	-11.8856
bon	-11.8856
嘅手法	-11.8857
上古	-11.8857
成為一個	-11.8857
鹹濕	-11.8858
齊國	-11.8859
▁gard	-11.886
實際上係	-11.8863
ek	-11.8863
使用嘅	-11.8863
,1930	-11.8863
嗰啲嘢	-11.8864
變動	-11.8864
剩係	-11.8865
喺一啲	-11.8866
▁1974	-11.8867
案例	-11.8867
嘅制度	-11.8867
▁chen	-11.8869
確立	-11.887
有線	-11.887
通告	-11.887
污	-11.8872
去美國	-11.8872
油塘	-11.8872
強國	-11.8873
關係密切	-11.8873
用電腦	-11.8874
佢重係	-11.8874
唔怕	-11.8875
嘅經典	-11.8875
國際組織	-11.8877
▁痛	-11.8877
時會	-11.8878
遭遇	-11.8878
出邊	-11.8878
▁施	-11.8879
東南角	-11.888
根本唔	-11.8881
文言	-11.8882
但因	-11.8883
主要集中喺	-11.8884
雖然係噉	-11.8884
唔易	-11.8886
競演	-11.8887
▁釘	-11.8889
用得	-11.8889
▁抗	-11.889
▁遺	-11.8891
號開播	-11.8893
結局	-11.8894
高架橋	-11.8895
2.6	-11.8895
ア	-11.8896
體現	-11.8898
真理	-11.8898
盡力	-11.8902
▁pie	-11.8903
名勝	-11.8906
嘅個人	-11.8906
係一門	-11.8906
王位	-11.8907
650	-11.8908
好啲	-11.8909
流過	-11.8909
fan	-11.891
可靠	-11.891
光線	-11.8911
漫畫家	-11.8912
電腦軟件	-11.8916
佔地面積	-11.8918
得到嘅	-11.8919
大埔海	-11.8922
嚟咗	-11.8923
▁乜	-11.8924
投票率	-11.8924
團員	-11.8925
落山	-11.8926
人格	-11.8929
理事會	-11.893
▁geoi	-11.8932
創造咗	-11.8932
kau	-11.8934
受過	-11.8935
▁holdings	-11.8935
海底隧道	-11.8935
差別	-11.8935
騎士	-11.8936
正確嘅	-11.8937
andy	-11.8938
▁冒	-11.8938
創始人	-11.8939
密集	-11.8941
嘅物質	-11.8941
啲車	-11.8942
先至係	-11.8942
▁number	-11.8944
對局	-11.8945
佢畀	-11.8945
▁gers	-11.8945
▁屎	-11.8946
馬來亞	-11.8946
▁1944	-11.8946
引入咗	-11.8946
四川省	-11.8947
字幕	-11.8947
攞嚟做	-11.8947
件物件	-11.8947
cctv	-11.8948
波長	-11.8951
max	-11.8952
4.5	-11.8953
對自己	-11.8955
▁1963	-11.8956
呢區	-11.8957
▁大清	-11.8959
係一款	-11.8962
所用	-11.8963
▁mac	-11.8964
西北面	-11.8967
意圖	-11.8967
▁墨	-11.8968
花崗巖	-11.897
▁macau	-11.8972
建築羣	-11.8974
喺中國內地	-11.8975
野外	-11.8975
而呢	-11.8976
行人天橋	-11.8978
可達	-11.8979
土改	-11.898
ة	-11.8981
為生	-11.8981
梵蒂岡	-11.8982
猶	-11.8984
警報	-11.8984
ius	-11.8984
ning	-11.8984
▁隨著	-11.8984
▁tam	-11.8985
萬美元	-11.8986
曲目	-11.8988
第二輪	-11.8989
廿世紀	-11.899
間廠	-11.8991
草本植物	-11.8991
對此	-11.8991
video	-11.8992
被列為	-11.8992
加上佢	-11.8992
tha	-11.8993
第一張	-11.8994
四人	-11.8995
每位	-11.8997
二號	-11.9001
132	-11.9002
▁膽	-11.9003
cam	-11.9004
▁插	-11.9005
形成一個	-11.9006
童軍	-11.9006
打機	-11.9008
公理	-11.9011
建築風格	-11.9012
暑假	-11.9013
合金	-11.9015
州長	-11.9016
led	-11.9016
▁怪	-11.9016
嘅價值	-11.9018
劇組	-11.9018
個身	-11.902
轉入	-11.9023
▁生物	-11.9024
亦無	-11.9024
▁眉	-11.9025
氣壓	-11.9025
菊花	-11.9027
轉化	-11.9028
亦有一啲	-11.9028
あ	-11.9032
嚟香港	-11.9033
嚟計	-11.9034
標準化	-11.9034
輕微	-11.9035
新鴻基地產	-11.9036
賣嘅	-11.9036
合一	-11.9039
隔開	-11.904
而佢嘅	-11.904
改革開放	-11.9041
▁佢做過	-11.9041
廉政公署	-11.9041
如今	-11.9041
鑼	-11.9042
igny	-11.9043
強硬	-11.9044
向外	-11.9045
嗰陣就	-11.9045
繼承人	-11.9046
對戰	-11.9047
144	-11.9047
犯法	-11.9048
ina	-11.9049
丙酮酸	-11.9049
嘅訊息	-11.905
▁ar	-11.9051
職工	-11.9052
溫和	-11.9052
花粉	-11.9056
灑	-11.9056
免疫	-11.9057
即係我	-11.9057
租金	-11.9057
交出	-11.9058
禧	-11.9058
勉	-11.9059
▁paul	-11.9059
rio	-11.906
健身	-11.9062
嘅船	-11.9064
係香港政府	-11.9064
▁蕭	-11.9067
德里	-11.9067
you	-11.9068
只需要	-11.9068
荔灣	-11.9068
首任	-11.9068
懸	-11.9069
洗手間	-11.9071
水晶	-11.9073
▁傾	-11.9074
蓆	-11.9075
晉朝	-11.9075
詳	-11.9076
沖涼	-11.9077
掕	-11.9077
鋅	-11.9077
星球	-11.9077
修憲	-11.9078
南朝	-11.9079
歷來	-11.908
嘅兩個	-11.9081
豔	-11.9081
胺	-11.9081
座椅	-11.9083
酷	-11.9084
到香港	-11.9085
五行	-11.9086
開闢	-11.9086
生得	-11.9087
▁逼	-11.9087
逾	-11.9088
控制嘅	-11.9088
環球唱片	-11.9088
錦田	-11.9089
▁games	-11.9089
有寫	-11.909
抬	-11.909
植株	-11.9093
眼睛	-11.9093
撫	-11.9094
▁把	-11.9095
戰列艦	-11.9096
李約瑟	-11.9097
文學作品	-11.9098
獨裁	-11.9098
ati	-11.9099
同法國	-11.9099
royal	-11.91
竅	-11.91
粟	-11.91
醫術	-11.91
大學生	-11.91
亦可能	-11.9101
舵	-11.9101
溶液	-11.9102
—;	-11.9102
務求	-11.9103
北洋政府	-11.9103
嘜	-11.9103
旬	-11.9103
欽廉	-11.9103
故障	-11.9104
tre	-11.9104
探險	-11.9104
▁激	-11.9104
靈活	-11.9104
腫瘤	-11.9105
監測	-11.9105
宛	-11.9105
▁air	-11.9105
blue	-11.9105
魄	-11.9105
沿途	-11.9106
妍	-11.9106
私隱	-11.9106
魷魚	-11.9106
槐	-11.9106
寅	-11.9106
數據庫	-11.9106
會叫	-11.9106
鵑	-11.9106
癢	-11.9106
慣例	-11.9107
北九州向日葵	-11.9107
172	-11.9107
大阪飛腳	-11.9107
嘅其中一	-11.9107
성	-11.9107
缺陷	-11.9107
厄瓜多爾	-11.9107
蚌	-11.9107
垢	-11.9107
竉	-11.9107
주	-11.9107
郭德綱	-11.9107
[1]	-11.9107
崩潰	-11.9107
兩場	-11.9107
防疫	-11.9107
花卉	-11.9107
聯署	-11.9108
嘅分析	-11.9108
adhd	-11.9108
軒尼詩道	-11.9108
披露	-11.9108
歷時	-11.9108
urnal	-11.9108
粉嶺公路	-11.9108
空襲	-11.9108
紙幣	-11.9108
官僚	-11.9108
旅館	-11.9109
尋找	-11.9109
勇敢	-11.9109
帆船	-11.9109
紫霞	-11.9109
壁球場	-11.9109
十字架	-11.911
正方形	-11.911
兒童遊樂場	-11.911
紅樹林	-11.911
名以內	-11.9111
落敗	-11.9111
馬匹	-11.9111
年人口	-11.9111
編制	-11.9112
真菌	-11.9112
8,000	-11.9113
of	-11.9113
虐待	-11.9113
韻圖	-11.9114
採集	-11.9115
佛山市	-11.9115
用詞	-11.9116
範圍入面	-11.9117
最具	-11.9117
子領域	-11.9117
操作系統	-11.9117
毒素	-11.9119
三代	-11.9119
小朋友	-11.9119
劇中	-11.9119
日漸	-11.9119
▁eli	-11.912
▁譬如	-11.912
cre	-11.9121
費事	-11.9121
係右手揸拍	-11.9121
東山區	-11.9122
智力	-11.9123
之名	-11.9124
重參加過	-11.9125
電腦室	-11.9125
坐標	-11.9126
我係	-11.9126
時區	-11.9126
看臺	-11.9126
二十四	-11.9127
升學	-11.9127
政客	-11.9128
就一定要	-11.9129
盡可能	-11.913
art	-11.913
作為一個	-11.913
阿婆	-11.9131
香港立法會議員	-11.9131
貧窮	-11.9132
散播	-11.9133
上畫	-11.9134
研究發現	-11.9134
西曆	-11.9137
▁擔	-11.9138
先至會	-11.9138
四大天王	-11.9138
濕度	-11.9139
▁bank	-11.914
中等	-11.914
核子	-11.914
▁sha	-11.9141
大埔滘	-11.9143
封咗	-11.9143
過咗身	-11.9144
着住	-11.9144
承受	-11.9146
bet	-11.9146
40%	-11.9148
當地居民	-11.9148
og	-11.915
▁[	-11.9152
gay	-11.9152
又或者叫	-11.9152
大多數都係	-11.9155
會繼續	-11.9155
▁county	-11.9155
war	-11.9156
舉行咗	-11.9156
喺荔灣區	-11.9156
性感	-11.9157
自然數	-11.9158
轉移到	-11.9158
粵菜	-11.9161
為之	-11.9161
重喺度	-11.9162
中央電視臺	-11.9163
噉但係	-11.9164
長毛	-11.9164
中區	-11.9166
得分	-11.9166
年上任	-11.9167
▁aq	-11.9167
個孫	-11.9168
寫明	-11.9168
言語	-11.9169
來睇	-11.9169
性質嘅	-11.917
香草	-11.917
有大概	-11.9171
四季	-11.9172
192	-11.9173
號航站樓	-11.9173
▁development	-11.9173
▁刺	-11.9175
禁令	-11.9177
通常用嚟	-11.918
1848	-11.9181
佔領咗	-11.9183
dong	-11.9184
03	-11.9185
最高點	-11.9186
頭一位	-11.9187
▁環	-11.9187
冚住	-11.9188
人口約	-11.9191
▁田中	-11.9194
年完成	-11.9195
工夫	-11.9197
寫過	-11.9198
▁特	-11.9199
機械學習	-11.92
趨勢	-11.92
話事	-11.92
黑幫	-11.9201
排放	-11.9206
諗起	-11.9206
▁家陣	-11.9207
講解	-11.9209
實會	-11.9209
ong	-11.9211
喺臺北	-11.9211
攻佔	-11.9212
國力	-11.9213
市值	-11.9213
ziu	-11.9215
▁點知	-11.9216
特區政府	-11.9217
返回	-11.9218
做好	-11.9218
見過	-11.9219
嶼	-11.9219
嘅鐵路	-11.922
開臺	-11.9221
款式	-11.9222
林村	-11.9222
5.4	-11.9225
一羣	-11.9226
▁方	-11.9226
十日	-11.9226
孤立	-11.9228
接受咗	-11.9229
更係	-11.923
zy	-11.923
(2010	-11.923
碩士學位	-11.923
シ	-11.9232
設立咗	-11.9233
一分	-11.9235
對人	-11.9235
》:「	-11.9237
▁kita	-11.9238
廣州市嘅	-11.9238
hq	-11.924
就到	-11.9241
書中	-11.9241
old	-11.9242
發展咗	-11.9243
門樓	-11.9243
駐地	-11.9243
係丹麥	-11.9244
先得	-11.9245
無辦法	-11.9248
國際標準	-11.9249
體育運動	-11.925
』,	-11.9252
高調	-11.9254
係中國歌手	-11.9255
搬入	-11.9256
罕見	-11.9258
外籍	-11.9258
喺微博	-11.9259
一齊食	-11.926
辯護	-11.9261
未曾	-11.9262
保住	-11.9262
隻腳	-11.9264
高音	-11.9264
確	-11.9265
嘅足球隊	-11.9266
嘅需要	-11.9266
道開始	-11.9267
合併咗	-11.9267
一排	-11.9267
出產嘅	-11.9268
資訊理論	-11.9269
▁arch	-11.9271
金山	-11.9271
植	-11.9271
▁nam	-11.9271
為基礎	-11.9272
2》(	-11.9272
▁佢哋喺	-11.9273
同情	-11.9273
帶出	-11.9274
嘅獨立	-11.9276
更高	-11.9277
有好	-11.9277
拍劇	-11.9278
冇乜嘢	-11.9278
寫低	-11.928
集團有限公司	-11.9282
聖人	-11.9282
▁鮮	-11.9284
感染個案	-11.9284
尉	-11.9285
排隊	-11.9285
分界	-11.9286
——「	-11.9286
1882	-11.9287
奇怪	-11.9287
mann	-11.9288
嘅爭議	-11.9288
駐軍	-11.9288
低音	-11.929
星期五	-11.929
▁1955	-11.929
序列	-11.9291
糖水	-11.9291
十二月	-11.9292
希望可以	-11.9292
unun	-11.9292
亦設有	-11.9292
1866	-11.9294
▁呢本書	-11.9294
港紙	-11.9295
書信	-11.9297
law	-11.9298
而其他	-11.9298
排球	-11.9299
1851	-11.9299
人死	-11.93
▁抵	-11.9301
摘	-11.9301
大埔公路	-11.9303
▁泰	-11.9303
430	-11.9303
二次	-11.9304
賣咗畀	-11.9306
情形	-11.9306
香港一	-11.9307
河谷	-11.9308
▁滾	-11.9309
係成個	-11.9309
rou	-11.9309
jat	-11.931
食得	-11.931
嘅原理	-11.931
tte	-11.9311
十一年	-11.9311
▁牽	-11.9312
亞爸	-11.9313
殺入	-11.9315
音階	-11.9316
但唔係	-11.9316
係無	-11.9317
山頭	-11.9317
▁牀	-11.9317
西南面	-11.9319
品質	-11.932
基斯	-11.9321
年以來	-11.9322
係泰國一個	-11.9323
型嘅	-11.9325
球隊之一	-11.9326
嘅業務	-11.9327
喺其他	-11.9328
正式成為	-11.933
緯	-11.933
阿里	-11.9331
▁吞	-11.9331
讀法	-11.9332
直程	-11.9332
萬篇文	-11.9333
都有啲	-11.9333
一齊去	-11.9334
yer	-11.9335
流量	-11.9336
電信	-11.9336
▁違	-11.9337
通風	-11.9338
小行星	-11.9339
西南角	-11.9339
普魯士	-11.934
▁妙	-11.9342
結束咗	-11.9343
喺無綫電視	-11.9343
rey	-11.9344
其餘嘅	-11.9345
研究生	-11.9345
tony	-11.9345
▁刮	-11.9347
喺大	-11.9347
好靚	-11.9347
ans	-11.9348
у	-11.9351
拜神	-11.9352
stan	-11.9352
地上	-11.9352
年以嚟	-11.9353
字眼	-11.9353
東晉	-11.9359
格魯吉亞	-11.9359
葉綠素	-11.9362
被動	-11.9363
地頭	-11.9364
偵探	-11.9364
獎分	-11.9364
指南	-11.9366
處罰	-11.9366
連通	-11.9366
set	-11.9367
起上嚟	-11.9367
街名	-11.937
幾十年	-11.9371
其他嘅	-11.9372
愛好者	-11.9374
發生過	-11.9375
冇毛	-11.9376
▁拔	-11.9376
禮拜六	-11.9377
曬啲	-11.9378
才能	-11.938
震驚	-11.9381
有無	-11.9381
關東	-11.9383
高等教育	-11.9383
停車	-11.9384
蒜	-11.9384
▁1924	-11.9385
車費	-11.9386
失控	-11.9386
嘅思考	-11.9386
都俾	-11.9387
唔出	-11.9387
肖	-11.9387
豆科	-11.9388
入面重有	-11.9388
累計	-11.9388
樂理	-11.9388
亞種	-11.939
咁上下	-11.939
禹	-11.939
低溫	-11.9392
所以叫做	-11.9392
下議院	-11.9392
個城市	-11.9393
陰陽	-11.9393
馬克思	-11.9393
向佢	-11.9394
黔	-11.9394
閂	-11.9394
aud	-11.9395
降落	-11.9396
右翼	-11.9396
有史以嚟	-11.9397
嘅政黨	-11.9397
趾	-11.9398
時刻	-11.9398
157	-11.9399
渠道	-11.9399
十二個	-11.9399
補償	-11.9399
芋	-11.94
找	-11.9401
扭曲	-11.9401
秉	-11.9401
▁faan	-11.9402
沿海地區	-11.9402
水災	-11.9402
菓	-11.9402
軚	-11.9403
國共內戰	-11.9403
銜頭	-11.9403
酵素	-11.9405
蟬	-11.9406
所以要	-11.9406
珠江三角洲	-11.9407
軌距	-11.9407
大埔區	-11.9407
詳情	-11.9407
在場	-11.9408
改組	-11.9409
債券	-11.9409
主要包括	-11.9409
襟	-11.9409
基輔	-11.9409
傍	-11.941
鳥取飛翔	-11.941
頤	-11.941
但都	-11.941
泣	-11.941
排斥	-11.941
結咗婚	-11.941
黑沙環	-11.941
李登輝	-11.941
詮釋	-11.941
係西班牙亞拉岡	-11.941
熒幕	-11.941
槌	-11.941
抨擊	-11.941
攰	-11.941
屬於單程車票第	-11.941
一直去到北邊嘅	-11.941
交響曲	-11.941
劉璋	-11.941
蝙蝠俠	-11.9411
查詢	-11.9411
效力過大阪飛腳	-11.9411
▁每個	-11.9411
膨脹	-11.9411
房委會	-11.9411
jason	-11.9411
違規	-11.9411
tdk	-11.9411
愛的	-11.9412
社會問題	-11.9412
離散	-11.9412
首映	-11.9412
日產	-11.9412
徽章	-11.9412
浪費	-11.9412
icao	-11.9412
講嘅係	-11.9413
風速	-11.9413
都唔例外	-11.9413
上次	-11.9413
▁jell	-11.9414
輾轉	-11.9414
推算	-11.9414
特務	-11.9415
▁家下係	-11.9415
居然	-11.9415
本港臺	-11.9416
葡萄糖	-11.9416
老虎機	-11.9416
基建	-11.9417
𨳍	-11.9417
改動	-11.9418
沿線	-11.9418
香港社會	-11.9418
航道	-11.9419
歪	-11.9419
方形	-11.942
供電	-11.942
縱	-11.942
▁爽	-11.9421
移交	-11.9421
黐住	-11.9421
係香港模特兒	-11.9421
廣東嘅	-11.9421
省首府	-11.9421
prince	-11.9423
chinese	-11.9423
不幸	-11.9423
播音	-11.9424
那英	-11.9424
office	-11.9425
燃燒	-11.9426
queen	-11.9426
羅湖	-11.9426
呢個詞語	-11.9427
▁嗯嗯	-11.9427
小麥	-11.9427
捲入	-11.9428
接口	-11.9428
等一系列	-11.9429
言論自由	-11.943
降水	-11.9431
faan	-11.9432
愛沙尼亞	-11.9432
住院	-11.9433
新界東	-11.9433
疑犯	-11.9433
06	-11.9433
3%	-11.9434
▁islands	-11.9435
當今	-11.9435
呢尐	-11.9435
回家	-11.9435
貨品	-11.9435
▁克	-11.9436
以此	-11.9436
歌謠	-11.9437
依法	-11.9437
前足球員	-11.944
海濱	-11.944
你自己	-11.944
水手	-11.9443
打破咗	-11.9443
圖書	-11.9443
nay	-11.9443
指向	-11.9446
唔包括	-11.9446
多名	-11.9447
度假	-11.9447
如意	-11.9447
不良	-11.9447
全數	-11.9448
畀返	-11.9448
呢個情況	-11.9449
起屋	-11.9449
音色	-11.945
gat	-11.945
獵人	-11.9451
雷達	-11.9451
兩側	-11.9451
搵人	-11.9452
檢控	-11.9452
香港傳媒	-11.9452
▁衰	-11.9452
會面	-11.9454
加大	-11.9455
▁西班牙	-11.9456
罐頭	-11.9457
浪潮	-11.9457
▁摺	-11.946
據點	-11.9461
喺亞洲	-11.9462
nac	-11.9462
▁sp	-11.9463
顯得	-11.9463
火力	-11.9464
創作嘅	-11.9464
都有好多	-11.9468
▁point	-11.9468
色素	-11.9469
靠住	-11.9472
等到	-11.9472
級市	-11.9472
原版	-11.9473
是非	-11.9473
rap	-11.9473
—2012	-11.9474
175	-11.9474
先將	-11.9475
▁un	-11.9476
思維	-11.9477
房地產	-11.9477
都係噉	-11.9478
號為止	-11.9479
得獎	-11.948
人次	-11.948
分化	-11.9481
嘅法定貨幣	-11.9481
▁com	-11.9483
年球季	-11.9484
▁series	-11.9485
唱出	-11.9485
襄	-11.9485
vo	-11.9486
人力	-11.9487
藥房	-11.9488
車頭	-11.9488
▁1926	-11.9489
俗語	-11.9491
▁may	-11.9491
lang	-11.9491
▁bru	-11.9491
290	-11.9492
滿族	-11.9493
返咗	-11.9493
商會	-11.9494
額外	-11.9496
就唔係	-11.9497
嘅質量	-11.9497
▁1943	-11.9499
好常見	-11.9499
▁nokia	-11.9499
▁使	-11.9499
大連	-11.9502
蒸發	-11.9502
▁慢	-11.9504
▁之後喺	-11.9505
南靠	-11.9507
海洋生物	-11.9508
無敵	-11.9509
期刊	-11.9509
呢套戲	-11.9509
つ	-11.951
種羣	-11.951
兩度	-11.9511
東經	-11.9513
嗮啲	-11.9514
年出版	-11.9514
1644	-11.9514
人死亡	-11.9515
▁飄	-11.9515
惠陽	-11.9515
選舉結果	-11.9515
隆河	-11.9517
о	-11.9519
▁英	-11.952
一樣係	-11.952
行得	-11.952
佢冇	-11.9521
上述嘅	-11.9522
羊城	-11.9523
в	-11.9524
列做	-11.9525
成語	-11.9525
晚期	-11.9526
晚間	-11.9528
燃	-11.9528
ise	-11.9531
steven	-11.9531
長壽	-11.9531
跟住佢	-11.9532
3.2	-11.9532
▁su	-11.9533
一座山	-11.9533
lok	-11.9534
1846	-11.9534
ο	-11.9534
▁蝦	-11.9535
人用	-11.9536
▁algorithm	-11.9536
▁佢哋嘅	-11.9537
xun	-11.9537
會俾	-11.9538
重整咗	-11.9541
清末	-11.9542
同時有	-11.9543
巴郡	-11.9543
駛	-11.9544
西方國家	-11.9544
santa	-11.9546
▁佢由	-11.9547
統一嘅	-11.9548
校名	-11.955
一事	-11.9552
連繫	-11.9552
管理委員會	-11.9553
南昌	-11.9553
▁戥	-11.9554
嘅符號	-11.9554
中性	-11.9554
嘅貨幣	-11.9555
▁梅	-11.9556
廿二	-11.9558
近期	-11.9558
分歧	-11.9558
揶揄	-11.9559
不停	-11.9559
功能界別	-11.956
崔佛	-11.9561
但係我	-11.9562
嘅建築物	-11.9562
▁常	-11.9563
一樣嘅	-11.9564
動漫	-11.9565
以內	-11.9566
姿態	-11.9569
新歌	-11.9569
講返	-11.957
有一條	-11.9571
sim	-11.9571
直到而家	-11.9571
州區	-11.9572
耗資	-11.9572
兩塊	-11.9573
每月	-11.9573
bad	-11.9574
hit	-11.9575
問題上	-11.9576
▁預	-11.9576
▁ru	-11.9578
書面	-11.9578
預定	-11.9579
百貨公司	-11.9579
人選	-11.9579
▁cup	-11.9581
▁cong	-11.9581
就決定	-11.9582
▁熊	-11.9582
可以分成	-11.9582
del	-11.9583
北緯	-11.9585
化學元素	-11.9586
im	-11.9586
每當	-11.9588
上聲	-11.959
人工神經網絡	-11.9593
roy	-11.9594
就需要	-11.9595
▁強	-11.9595
媽咪	-11.9596
查希爾	-11.9596
旗下藝人	-11.9597
重包括	-11.9597
跨國	-11.9598
年解散	-11.9598
相交	-11.9598
大中華	-11.9598
最後一	-11.9599
嘅地	-11.9604
天鵝	-11.9604
越秀	-11.9604
但後來	-11.9606
嘅物種	-11.9609
pou	-11.9611
室外	-11.9612
亞科	-11.9613
賽道	-11.9615
▁窩	-11.9615
熱情	-11.9616
rdane	-11.9617
faa	-11.9619
家下嘅	-11.962
罪行	-11.9622
幕前	-11.9623
▁→	-11.9624
亦稱	-11.9625
出事	-11.9625
第六屆	-11.9627
▁蟹	-11.9629
嘅特點	-11.9631
亞運會	-11.9633
▁負	-11.9633
ович	-11.9633
有部份	-11.9634
烏茲別克	-11.9634
自信	-11.9634
1840	-11.9634
zeng	-11.9635
英式	-11.9636
梅花	-11.9638
都由	-11.964
▁少	-11.9641
ʃ	-11.9641
通常由	-11.9641
間嘢	-11.9643
施行	-11.9644
dun	-11.9645
西面嘅	-11.9646
檳城州	-11.9647
某一個	-11.9647
軍閥	-11.9648
以色列人	-11.9649
▁code	-11.9649
▁black	-11.9649
料理	-11.9652
呢個計劃	-11.9652
某一	-11.9654
大學讀	-11.9654
▁九	-11.9656
電訊	-11.9656
▁別	-11.9656
佢要	-11.9656
所需嘅	-11.9657
俄羅斯聯邦	-11.9657
海景	-11.9657
有明顯嘅	-11.9659
職責	-11.9659
葉片	-11.9659
籤	-11.9661
工商	-11.9662
國家級	-11.9662
sat	-11.9662
國家主席	-11.9663
西邊嘅	-11.9664
▁喉	-11.9667
1852	-11.9668
226	-11.9669
恰	-11.9669
通俗	-11.967
關節	-11.9671
sel	-11.9671
有其他	-11.9671
打波	-11.9672
足球運動員	-11.9672
隻牌	-11.9673
對陣	-11.9674
る	-11.9675
建築學	-11.9675
繼任	-11.9675
日本政府	-11.9676
啤牌	-11.9676
堂區	-11.9678
佢憑	-11.9678
人類學	-11.968
爲止	-11.968
省份	-11.9681
▁巨	-11.9682
提供嘅	-11.9683
期限	-11.9684
ball	-11.9685
道理	-11.9687
▁wang	-11.9688
瓦良格號	-11.9689
首府係	-11.9691
代表咗	-11.9691
係香港無綫電視嘅	-11.9692
ara	-11.9693
▁善	-11.9693
生育	-11.9693
oz	-11.9694
廁	-11.9694
起兵	-11.9694
果汁	-11.9695
年代初期	-11.9696
▁media	-11.9697
利息	-11.9698
分拆	-11.9698
東華三院	-11.97
▁啞	-11.9701
虛擬	-11.9702
正式啟用	-11.9703
嘅生意	-11.9703
人名	-11.9704
遍	-11.9706
係奧地利	-11.9707
兩家	-11.9707
考古學	-11.9708
產物	-11.9709
下一	-11.971
▁越	-11.971
屁	-11.971
特權	-11.9711
腩	-11.9711
嘅組合	-11.9712
篩	-11.9712
商業電臺	-11.9714
馬哈迪	-11.9714
漁業	-11.9714
慰	-11.9715
嵌	-11.9715
第一輯	-11.9716
師生	-11.9716
(2001	-11.9716
諸侯	-11.9717
蕾	-11.9717
隻狗	-11.9717
文翠珊	-11.9717
璧	-11.9717
躍	-11.9718
咒	-11.9718
琶洲	-11.9718
坑口	-11.9718
而且仲	-11.9718
推介	-11.9719
▁department	-11.9719
芷	-11.972
嘅影片	-11.972
伽	-11.972
棕櫚	-11.972
格陵蘭	-11.9721
孽	-11.9721
辮	-11.9721
係大韓民國嘅一個男藝人同	-11.9721
髓	-11.9721
蜥蜴	-11.9721
黃秋生	-11.9721
zac	-11.9721
▁慘	-11.9721
烴	-11.9722
橢圓形	-11.9722
石榴	-11.9722
姊	-11.9722
陷阱	-11.9722
俸	-11.9723
弼	-11.9723
원	-11.9723
羅志祥	-11.9723
喥	-11.9723
盅	-11.9723
祺	-11.9723
黃師虎	-11.9723
의	-11.9723
21:30-22:30	-11.9723
▁arabic	-11.9723
係棘茄魚科	-11.9723
綾	-11.9723
葶藶	-11.9723
侮辱	-11.9723
係雙子葉植物綱	-11.9723
嶋	-11.9723
스	-11.9723
uighur	-11.9723
跟文章數	-11.9723
𧩙	-11.9723
5),	-11.9723
農作物	-11.9723
科技與生活	-11.9723
scheherazade	-11.9723
布朗	-11.9723
融資	-11.9723
▁johnson	-11.9723
津貼	-11.9723
細碟	-11.9724
李小龍	-11.9724
視察	-11.9724
南斯拉夫	-11.9724
趨向	-11.9724
軟體動物	-11.9724
騷亂	-11.9724
悲劇	-11.9724
滬	-11.9724
都需要	-11.9724
斑紋	-11.9724
jnu	-11.9724
拜祭	-11.9725
蜀漢	-11.9725
期無綫電視藝員訓練班	-11.9725
邪教	-11.9725
差餉	-11.9725
呼應	-11.9725
之前嗌過	-11.9725
主辦單位	-11.9726
老豆係	-11.9726
公社	-11.9726
毛巾	-11.9726
亞冠	-11.9726
研討會	-11.9727
影射	-11.9727
榮獲	-11.9727
黃昏	-11.9727
補給	-11.9727
跑步	-11.9727
農夫	-11.9727
模特	-11.9727
英皇道	-11.9728
嘅人數	-11.9728
聯合演出	-11.9729
盪	-11.9729
嗰樣嘢	-11.9729
師父	-11.9729
上海人	-11.973
夜空	-11.973
.4%	-11.973
裡邊	-11.973
期待	-11.973
租借	-11.9731
原來嘅	-11.9732
▁屙	-11.9732
九龍東	-11.9732
呢兩種	-11.9732
撈埋	-11.9732
副教授	-11.9733
迴響	-11.9733
長堤	-11.9733
鄰國	-11.9733
楊廣	-11.9733
▁services	-11.9733
滿意	-11.9734
語義	-11.9734
勇者	-11.9734
烤	-11.9734
整出嚟嘅	-11.9734
政界	-11.9735
預設	-11.9735
只限	-11.9736
早死	-11.9736
流放	-11.9736
笑片	-11.9736
魅力	-11.9737
必要	-11.9737
嘈	-11.9737
愛德華	-11.9737
吟	-11.9737
實物	-11.9738
打通	-11.9738
做事	-11.9738
夾住	-11.974
ella	-11.974
面值	-11.974
妖	-11.9741
唔記得咗	-11.9742
嗌過	-11.9743
個年號	-11.9743
第二期	-11.9743
yay	-11.9744
燉	-11.9744
成員之一	-11.9745
文具	-11.9745
▁磁	-11.9745
道家	-11.9745
不丹	-11.9746
封為	-11.9746
令自己	-11.9746
醫療輔助隊	-11.9746
之後先	-11.9747
澳門巴士	-11.9747
逃走	-11.9747
藏文	-11.9747
以佢	-11.9747
閩語	-11.9747
留學生	-11.9748
高校	-11.975
打前	-11.975
羞	-11.975
門票	-11.975
梳	-11.9751
芭瑪	-11.9752
長官	-11.9752
迎接	-11.9755
畫嘅	-11.9755
首長	-11.9756
elem	-11.9757
大到	-11.9757
打死	-11.9757
遊艇	-11.9758
抓	-11.9759
係香港九龍	-11.9759
刮	-11.976
cpu	-11.976
廿九	-11.976
港臺電視	-11.976
北極熊	-11.976
基本上係	-11.9761
超人	-11.9761
和尚	-11.9762
簽證	-11.9763
穩定性	-11.9764
machine	-11.9765
wang	-11.9765
防水	-11.9766
衙門	-11.9766
唔可以用	-11.9766
life	-11.9767
cheung	-11.9767
gwai	-11.9767
最高峯	-11.9767
搵佢	-11.9767
年級	-11.9769
嗰樣	-11.9769
羅素	-11.977
劇作家	-11.977
理應	-11.977
經濟體	-11.977
法蘭西	-11.9771
係香港電視廣播有限公司製作嘅	-11.9772
1830	-11.9772
歷程	-11.9772
河內	-11.9773
開始喺	-11.9773
可能性	-11.9773
▁museum	-11.9774
▁center	-11.9774
要畀	-11.9774
▁jik	-11.9774
嘅應用	-11.9776
尊敬	-11.9776
佢成為	-11.9776
:.	-11.9779
單字	-11.9779
氯	-11.9781
ax	-11.9782
4)、	-11.9782
仁親王	-11.9785
玩遊戲	-11.9785
係大日本帝國	-11.9786
嘅事物	-11.9786
大麻	-11.9786
大哥	-11.9786
再見	-11.9786
嘅巴士	-11.9786
生死	-11.9786
每個人	-11.9787
週圍	-11.979
華納唱片	-11.979
▁film	-11.9791
時隔	-11.9792
や	-11.9793
後嚟喺	-11.9794
大隊	-11.9795
4.3	-11.9797
命題	-11.9797
東江	-11.9799
γ	-11.9799
har	-11.98
小小	-11.98
▁勸	-11.98
世紀中葉	-11.9801
之神	-11.9802
▁cu	-11.9803
舞者	-11.9803
旁白	-11.9804
廣義	-11.9807
口腔	-11.9808
開始起	-11.9809
我自己	-11.9809
離任	-11.9809
荷里活	-11.981
腐敗	-11.981
寶安	-11.9812
溫州	-11.9812
า	-11.9813
伸出	-11.9816
▁操	-11.9818
109	-11.9818
大約喺	-11.9818
eng	-11.9819
▁zeoi	-11.9821
一早	-11.9821
地道	-11.9821
uig	-11.9822
自動化	-11.9823
容納	-11.9826
緊密	-11.9826
▁篤	-11.9827
更大	-11.9827
照片	-11.9828
水口	-11.9828
係點樣	-11.9828
▁mong	-11.9829
cn	-11.983
同政府	-11.983
完全冇	-11.983
嘉義	-11.9831
▁kwok	-11.9835
政府將	-11.9835
關聯	-11.9835
國有	-11.9836
先至將	-11.9836
呢個人	-11.9836
法治	-11.9837
話畀	-11.9838
3.8	-11.9838
係亞洲	-11.984
全場	-11.9842
成功噉	-11.9842
搽	-11.9842
淡出	-11.9842
就會喺	-11.9845
為咗紀念	-11.9845
自稱係	-11.9846
激發	-11.9847
立體電影	-11.9847
夏威夷	-11.9847
係來自	-11.9848
亦令	-11.9849
,1940	-11.985
盞	-11.9853
▁ال	-11.9853
亂咁	-11.9853
208	-11.9854
▁嚴	-11.9855
白人	-11.9855
而且有	-11.9856
▁歐洲	-11.9856
而要	-11.9857
誘	-11.9858
廣彩	-11.9858
古廟	-11.9858
sk	-11.9859
朝陽	-11.986
天王	-11.9861
異能	-11.9861
▁北京	-11.9862
▁呢條	-11.9862
gun	-11.9863
第一名	-11.9864
布拉	-11.9865
▁ou	-11.9865
▁動	-11.9865
爵位	-11.9865
¥	-11.9866
視力	-11.9867
▁僞	-11.9869
▁新會	-11.9869
證據顯示	-11.987
北約	-11.987
做主題嘅	-11.987
魚蛋	-11.987
";	-11.9871
會戰	-11.9871
▁角	-11.9872
第二位	-11.9874
▁煙	-11.9875
boy	-11.9875
angel	-11.9875
極大	-11.9876
四聲	-11.9876
▁chun	-11.9877
第一次世界大戰	-11.9878
▁sans	-11.9878
嘅解釋	-11.9879
手寫	-11.988
提案	-11.988
嘅答案	-11.9882
係中國嘅	-11.9883
▁貴	-11.9883
呢款	-11.9885
星官	-11.9885
冚唪唥嘅	-11.9886
大業	-11.9889
江水	-11.989
來表示	-11.9891
證人	-11.9891
啱啱好	-11.9892
上環	-11.9892
由中國	-11.9893
加入無綫電視	-11.9893
名下	-11.9894
合併而成	-11.9897
▁採	-11.9897
都成日	-11.9898
係法國一城	-11.9898
無窮	-11.9899
大多數係	-11.9899
譬如你	-11.9902
王澤	-11.9902
荃灣綫	-11.9903
mb	-11.9905
gue	-11.9908
▁mau	-11.9908
唔要	-11.9909
就會有	-11.9909
結業	-11.991
舊日	-11.991
伴隨	-11.9911
▁枯	-11.9912
上級	-11.9913
活化	-11.9913
hing	-11.9913
▁縮	-11.9915
好多都係	-11.9918
寫到	-11.992
▁當年	-11.9921
決定咗	-11.9921
係條	-11.9922
位元	-11.9923
歷任	-11.9924
過來	-11.9924
嘅電子	-11.9924
血管	-11.9925
▁km	-11.9925
手錶	-11.9926
嘅圖像	-11.9928
係美國男演員	-11.9928
亦因為咁	-11.9928
憤	-11.9928
碗窰	-11.9929
名字	-11.9929
1700	-11.9929
係一種用	-11.9932
其中一間	-11.9932
不和	-11.9933
雖然有	-11.9935
便利	-11.9935
因為我	-11.9935
127	-11.9939
▁削	-11.994
▁透	-11.994
chris	-11.9941
依然係	-11.9942
喺重慶	-11.9942
▁柏	-11.9944
係元素	-11.9945
有四個	-11.9945
要到	-11.9945
蒙古族	-11.9946
上市公司	-11.9947
lit	-11.9948
係古代	-11.9949
旗幟	-11.9949
意譯	-11.995
web	-11.995
歷史建築	-11.995
1814	-11.995
編譯	-11.9951
年畢業	-11.9951
▁啓	-11.9952
域名	-11.9952
史詩	-11.9952
八百	-11.9953
嘅美國	-11.9956
仔細	-11.9957
係邊個	-11.9957
嘅一個市轄區	-11.9959
▁1912	-11.9959
intel	-11.9962
ria	-11.9963
東門	-11.9963
塞浦路斯	-11.9964
庭院	-11.9967
美式足球	-11.9968
▁liu	-11.9968
▁今時今日	-11.9968
撰	-11.997
係葡萄牙	-11.997
甘迺迪	-11.997
舊陣時	-11.9971
幅畫	-11.9971
文學家	-11.9972
備受	-11.9972
挨晚	-11.9973
中意	-11.9975
部車	-11.9975
動脈	-11.9976
馬德里	-11.9978
冇咩	-11.9978
兩個禮拜	-11.9983
會變	-11.9983
可用	-11.9984
▁沈	-11.9984
滅咗	-11.9985
春天	-11.9985
嘅程式語言	-11.9985
專題	-11.9986
1879	-11.9986
▁捲	-11.9988
華文	-11.9989
集結	-11.9989
伊利沙伯	-11.999
忘記	-11.999
比其他	-11.999
騎樓	-11.9991
▁久	-11.9991
孩子	-11.9991
噉跟住	-11.9992
▁湊	-11.9994
升上	-11.9994
嘅重要性	-11.9994
八達通	-11.9995
葡	-11.9997
偶然	-11.9997
佢亦係	-11.9997
越嚟越多	-11.9997
接拍	-11.9998
可以用來	-11.9998
紫草科	-12
▁支	-12
競逐	-12
屬性	-12.0001
嘅生命	-12.0002
羽毛	-12.0002
幼兒	-12.0003
號開張	-12.0003
漢堡包	-12.0003
7,000	-12.0004
舒服	-12.0006
南北朝	-12.0007
英人	-12.0007
面積約莫	-12.0007
代表作	-12.0008
兩兄弟	-12.0009
本質	-12.0009
歌名	-12.001
舊時嘅	-12.0011
就成為咗	-12.0011
纜車	-12.0011
▁1935	-12.0014
禮物	-12.0015
脾	-12.0016
娟	-12.0016
算法	-12.0017
elle	-12.0017
obe	-12.0018
嗌咗	-12.0019
兩頭	-12.0019
靶	-12.0019
嘅恆星	-12.002
起名	-12.002
專注	-12.0021
干	-12.0022
因為要	-12.0024
站點	-12.0026
效益	-12.0027
石壁	-12.0027
一週	-12.0028
擁護	-12.0028
呢單	-12.0029
發送	-12.003
掛住	-12.0033
立法院	-12.0035
喺印度	-12.0036
維園	-12.0036
嬰	-12.0036
燭	-12.0037
佢成日	-12.0037
矩	-12.0037
嫁畀	-12.0038
間中學	-12.0038
社交媒體	-12.0038
1858	-12.0038
崙	-12.0038
з	-12.0039
胡錦濤	-12.0039
▁award	-12.0039
解答	-12.0039
曾蔭權	-12.004
bio	-12.004
平息	-12.0041
一個選區	-12.0041
丫	-12.0041
道士	-12.0041
頒授	-12.0041
攻陷	-12.0041
轟	-12.0041
▁bridge	-12.0042
投注	-12.0042
周朝	-12.0042
鎗	-12.0042
青衣島	-12.0042
馨	-12.0043
儂	-12.0043
嬰兒	-12.0043
之前叫	-12.0043
靡	-12.0043
鴞	-12.0043
大阪櫻花	-12.0043
係香港一座	-12.0044
蠅	-12.0044
商貿	-12.0044
疹	-12.0044
可以算係	-12.0044
冷戰	-12.0045
埗	-12.0045
暉	-12.0045
民用	-12.0045
鸚鵡	-12.0045
塔吉克	-12.0045
謝安琪	-12.0045
骨骼	-12.0045
嚴厲	-12.0045
拉脫維亞	-12.0045
一直向南去到	-12.0045
伽利略	-12.0045
佳藝電視	-12.0045
キ	-12.0045
長崎成功丸	-12.0045
rainbow	-12.0045
太平天國	-12.0045
許志安	-12.0045
國民革命軍	-12.0045
紫草目	-12.0045
𡳞	-12.0045
許冠傑	-12.0045
郵	-12.0045
陳慧琳	-12.0046
拉丁美洲	-12.0046
減筆寫做	-12.0046
港獨	-12.0046
緩慢	-12.0046
姐姐	-12.0046
係英國英倫	-12.0046
檳島	-12.0046
達成協議	-12.0046
浮雕	-12.0046
幹事	-12.0046
審批	-12.0046
鄰居	-12.0046
騎師	-12.0047
戰亂	-12.0047
坪洲	-12.0047
火警	-12.0047
gnu	-12.0047
集中營	-12.0047
賭廳	-12.0047
50"1}	-12.0047
外貿	-12.0047
貫穿	-12.0047
精彩	-12.0048
勾結	-12.0048
匯率	-12.0048
狹義	-12.0048
人知	-12.0048
分辨	-12.0049
bbot	-12.0049
反擊	-12.0049
擺脫	-12.0049
steve	-12.0049
民意調查	-12.005
足足	-12.005
恐狼	-12.005
廈	-12.005
基準	-12.0051
[...]
